{
  "version": "1.0",
  "truncation": {
    "direction": "Right",
    "max_length": 256,
    "strategy": "LongestFirst",
    "stride": 0
  },
  "padding": null,
  "added_tokens": [
    {
      "id": 0,
      "content": "<pad>",
      "single_word": false,
      "lstrip": false,
      "rstrip": false,
      "normalized": false,
      "special": true
    },
    {
      "id": 1,
      "content": "<s>",
      "single_word": false,
      "lstrip": false,
      "rstrip": false,
      "normalized": false,
      "special": true
    },
    {
      "id": 2,
      "content": "</s>",
      "single_word": false,
      "lstrip": false,
      "rstrip": false,
      "normalized": false,
      "special": true
    },
    {
      "id": 3,
      "content": "<unk>",
      "single_word": false,
      "lstrip": false,
      "rstrip": false,
      "normalized": false,
      "special": true
    }
  ],
  "normalizer": null,
  "pre_tokenizer": {
    "type": "ByteLevel",
    "add_prefix_space": false,
    "trim_offsets": true,
    "use_regex": true
  },
  "post_processor": null,
  "decoder": null,
  "model": {
    "type": "BPE",
    "dropout": null,
    "unk_token": "<unk>",
    "continuing_subword_prefix": null,
    "end_of_word_suffix": null,
    "fuse_unk": false,
    "byte_fallback": false,
    "ignore_merges": false,
    "vocab": {
      "<pad>": 0,
      "<s>": 1,
      "</s>": 2,
      "<unk>": 3,
      "!": 4,
      "\"": 5,
      "#": 6,
      "$": 7,
      "%": 8,
      "&": 9,
      "'": 10,
      "(": 11,
      ")": 12,
      "*": 13,
      "+": 14,
      ",": 15,
      "-": 16,
      ".": 17,
      "/": 18,
      "0": 19,
      "1": 20,
      "2": 21,
      "3": 22,
      "4": 23,
      "5": 24,
      "6": 25,
      "7": 26,
      "8": 27,
      "9": 28,
      ":": 29,
      ";": 30,
      "<": 31,
      ">": 32,
      "?": 33,
      "A": 34,
      "B": 35,
      "C": 36,
      "D": 37,
      "E": 38,
      "F": 39,
      "G": 40,
      "H": 41,
      "I": 42,
      "J": 43,
      "K": 44,
      "L": 45,
      "M": 46,
      "N": 47,
      "O": 48,
      "P": 49,
      "Q": 50,
      "R": 51,
      "S": 52,
      "T": 53,
      "U": 54,
      "V": 55,
      "W": 56,
      "X": 57,
      "Y": 58,
      "Z": 59,
      "[": 60,
      "\\": 61,
      "]": 62,
      "_": 63,
      "`": 64,
      "a": 65,
      "b": 66,
      "c": 67,
      "d": 68,
      "e": 69,
      "f": 70,
      "g": 71,
      "h": 72,
      "i": 73,
      "j": 74,
      "k": 75,
      "l": 76,
      "m": 77,
      "n": 78,
      "o": 79,
      "p": 80,
      "q": 81,
      "r": 82,
      "s": 83,
      "t": 84,
      "u": 85,
      "v": 86,
      "w": 87,
      "x": 88,
      "y": 89,
      "z": 90,
      "|": 91,
      "~": 92,
      "¡": 93,
      "¢": 94,
      "¦": 95,
      "©": 96,
      "«": 97,
      "¬": 98,
      "¯": 99,
      "°": 100,
      "±": 101,
      "³": 102,
      "´": 103,
      "¶": 104,
      "¹": 105,
      "»": 106,
      "Â": 107,
      "Ã": 108,
      "Å": 109,
      "Ë": 110,
      "â": 111,
      "ĉ": 112,
      "Ċ": 113,
      "Ġ": 114,
      "Ģ": 115,
      "Ĥ": 116,
      "ĥ": 117,
      "Ħ": 118,
      "ĵ": 119,
      "ļ": 120,
      "ľ": 121,
      "Ŀ": 122,
      "ł": 123,
      "Ń": 124,
      "he": 125,
      "Ġt": 126,
      "Ġa": 127,
      "Ġs": 128,
      "Ġw": 129,
      "nd": 130,
      "Ġthe": 131,
      "ed": 132,
      "Ġand": 133,
      "Ġto": 134,
      "Ġb": 135,
      "in": 136,
      "Ġh": 137,
      "Ġwa": 138,
      "re": 139,
      "ou": 140,
      "Ġf": 141,
      "it": 142,
      "ĠT": 143,
      "Ġl": 144,
      "Ġc": 145,
      "Ġd": 146,
      "er": 147,
      "Ġhe": 148,
      "Ġm": 149,
      "Ġp": 150,
      "Ġwas": 151,
      "om": 152,
      "Ġo": 153,
      "ĠThe": 154,
      "ay": 155,
      "ar": 156,
      "is": 157,
      "ing": 158,
      "il": 159,
      "Ġg": 160,
      "id": 161,
      "ĠS": 162,
      "at": 163,
      "en": 164,
      "Ġn": 165,
      "Ġsa": 166,
      "Ġha": 167,
      "an": 168,
      "im": 169,
      "or": 170,
      "on": 171,
      "Ġit": 172,
      "ĠH": 173,
      "Ġth": 174,
      "ll": 175,
      "Ġ\"": 176,
      "le": 177,
      "ot": 178,
      "ĠShe": 179,
      "Ġher": 180,
      "et": 181,
      "ir": 182,
      "ĠHe": 183,
      "ĠThey": 184,
      "es": 185,
      "Ġin": 186,
      "ver": 187,
      "ut": 188,
      "ow": 189,
      "ĠL": 190,
      "ck": 191,
      "Ġe": 192,
      "Ġu": 193,
      "Ġy": 194,
      "ld": 195,
      "oo": 196,
      "ily": 197,
      "Ġsaid": 198,
      "ig": 199,
      "Ġr": 200,
      "ĠI": 201,
      "Ġbe": 202,
      "am": 203,
      "Ġst": 204,
      "ke": 205,
      "ce": 206,
      "ve": 207,
      "ith": 208,
      "pp": 209,
      "Ġshe": 210,
      "Ġwith": 211,
      "ĠLily": 212,
      "ĠO": 213,
      "Ġon": 214,
      "ĠOn": 215,
      "Ġyou": 216,
      "ked": 217,
      "Ġof": 218,
      "ri": 219,
      "ĠB": 220,
      "Ġpl": 221,
      "nt": 222,
      "Ġhis": 223,
      "ad": 224,
      "Ġso": 225,
      "very": 226,
      "Ġday": 227,
      "Ġthat": 228,
      "Ġup": 229,
      "Ġplay": 230,
      "Ġhad": 231,
      "Ġthey": 232,
      "st": 233,
      "Ġwe": 234,
      "Ġmom": 235,
      "ĠM": 236,
      "Ġfor": 237,
      "el": 238,
      "un": 239,
      "ould": 240,
      "'s": 241,
      "my": 242,
      "Ġli": 243,
      "ch": 244,
      "Ġhapp": 245,
      "Ġwant": 246,
      "ent": 247,
      "Ġsh": 248,
      "itt": 249,
      "her": 250,
      "out": 251,
      "Ġnot": 252,
      "Ġdo": 253,
      "ome": 254,
      "se": 255,
      "Ġvery": 256,
      "ly": 257,
      "end": 258,
      "all": 259,
      "ound": 260,
      "Ġwh": 261,
      "Ġk": 262,
      "ime": 263,
      "ittle": 264,
      "Ġtime": 265,
      "al": 266,
      "ĠA": 267,
      "Ġlittle": 268,
      "Ġne": 269,
      "Ġthere": 270,
      "ht": 271,
      "Ġis": 272,
      "ĠIt": 273,
      "Ġhappy": 274,
      "Ġbig": 275,
      "Ġre": 276,
      "Ġsm": 277,
      "Ġbut": 278,
      "Ġsaw": 279,
      "ĠĠ": 280,
      "Ġan": 281,
      "ra": 282,
      "ry": 283,
      "riend": 284,
      ".\"": 285,
      "Ġfriend": 286,
      "Ġas": 287,
      "ack": 288,
      "ide": 289,
      "ake": 290,
      "ĠOne": 291,
      "ug": 292,
      "ĠTim": 293,
      "'t": 294,
      "!\"": 295,
      "Ġloo": 296,
      "Ġwere": 297,
      "ter": 298,
      "ved": 299,
      "Ġlo": 300,
      "ore": 301,
      "ĠOnce": 302,
      "Ġse": 303,
      "Ġtoo": 304,
      "ĠJ": 305,
      "Ġhim": 306,
      "Ġbo": 307,
      "Ġgo": 308,
      "Ġare": 309,
      "ec": 310,
      "Ġj": 311,
      "Ġwanted": 312,
      "ard": 313,
      "ill": 314,
      "irl": 315,
      "Ġthem": 316,
      "ĠTom": 317,
      "ĠBen": 318,
      "Ġupon": 319,
      "Ġgirl": 320,
      "Ġtheir": 321,
      "Ġout": 322,
      "Ġat": 323,
      "ind": 324,
      "ur": 325,
      "Ġdid": 326,
      "way": 327,
      "fu": 328,
      "Ġsp": 329,
      "Ġcould": 330,
      "Ġsmil": 331,
      "hen": 332,
      "Ġhave": 333,
      "ain": 334,
      "hed": 335,
      "art": 336,
      "rom": 337,
      "Ġex": 338,
      "Ġcan": 339,
      "Ġwent": 340,
      "ic": 341,
      "Ġar": 342,
      "ĠW": 343,
      "lp": 344,
      "ood": 345,
      "ful": 346,
      "ĠBut": 347,
      "Ġfriends": 348,
      "?\"": 349,
      "hing": 350,
      "Ġnam": 351,
      "Ġkn": 352,
      "ight": 353,
      "Ġhelp": 354,
      "Ġsay": 355,
      "Ġall": 356,
      "one": 357,
      "um": 358,
      "ark": 359,
      "Ġback": 360,
      "You": 361,
      "Ġfun": 362,
      "Ġcl": 363,
      "are": 364,
      "Ġno": 365,
      "Ġle": 366,
      "ĠTimmy": 367,
      "op": 368,
      "Ġsc": 369,
      "Ġnamed": 370,
      "Ġal": 371,
      "elt": 372,
      "oug": 373,
      "Ġman": 374,
      "Ġloved": 375,
      "side": 376,
      "Ġsmiled": 377,
      "Ġtoy": 378,
      "Ġlike": 379,
      "ick": 380,
      "Ġfelt": 381,
      "Ġasked": 382,
      "Ġfe": 383,
      "Ġsome": 384,
      "Ġsee": 385,
      "Ġlooked": 386,
      "Ġme": 387,
      "ame": 388,
      "Ġaround": 389,
      "Ġro": 390,
      "omet": 391,
      "ure": 392,
      "Ġbr": 393,
      "Ġbir": 394,
      "get": 395,
      "ice": 396,
      "Ġboy": 397,
      "Ġwould": 398,
      "ong": 399,
      "Ġstart": 400,
      "as": 401,
      "Ġbird": 402,
      "Ġsomet": 403,
      "ings": 404,
      "Ġfa": 405,
      "ade": 406,
      "Ġmake": 407,
      "Ġag": 408,
      "Ġwhat": 409,
      "Ġwor": 410,
      "ĠMom": 411,
      "ĠYou": 412,
      "dd": 413,
      ",\"": 414,
      "Ġsays": 415,
      "king": 416,
      "Ġran": 417,
      "Ġaway": 418,
      "own": 419,
      "gether": 420,
      "Ġtre": 421,
      "Ã¢": 422,
      "âĤ": 423,
      "âĤ¬": 424,
      "ag": 425,
      "ared": 426,
      "ie": 427,
      "oud": 428,
      "Ġmade": 429,
      "Ġstarted": 430,
      "if": 431,
      "Ġcar": 432,
      "Ġtogether": 433,
      "Ġsomething": 434,
      "Ġco": 435,
      "ther": 436,
      "Ġpark": 437,
      "Ġsad": 438,
      "Ġother": 439,
      "ited": 440,
      "Ġput": 441,
      "Ġnew": 442,
      "Ġfrom": 443,
      "ell": 444,
      "Ġhug": 445,
      "ĠE": 446,
      "Ġpr": 447,
      "ble": 448,
      "Ġagain": 449,
      "ook": 450,
      "Ġexc": 451,
      "ach": 452,
      "Ġgood": 453,
      "Ġhome": 454,
      "Ġla": 455,
      "Ġmu": 456,
      "ĠF": 457,
      "ss": 458,
      "Ġwhen": 459,
      "Ġfl": 460,
      "ried": 461,
      "ep": 462,
      "Ġwho": 463,
      "est": 464,
      "Ġthen": 465,
      "Ġfound": 466,
      "Ġch": 467,
      "Ġdec": 468,
      "pped": 469,
      "hat": 470,
      "Ġget": 471,
      "Ġwal": 472,
      "Ġplaying": 473,
      "qu": 474,
      "Ġsw": 475,
      "ought": 476,
      "nn": 477,
      "ĠD": 478,
      "Ġliked": 479,
      "uck": 480,
      "Ġthings": 481,
      "ĠSam": 482,
      "ally": 483,
      "pl": 484,
      "ous": 485,
      "ĠSu": 486,
      "Ġgot": 487,
      "Ġbl": 488,
      "Ġexcited": 489,
      "ro": 490,
      "ided": 491,
      "ave": 492,
      "Ġcame": 493,
      "ara": 494,
      "Ġevery": 495,
      "Ġdecided": 496,
      "Ġyour": 497,
      "ĠAnn": 498,
      "Ġdog": 499,
      "ax": 500,
      "Ġscared": 501,
      "Ġone": 502,
      "Ġdown": 503,
      "ust": 504,
      "Ġv": 505,
      "Ġfind": 506,
      "Ġcare": 507,
      "ouse": 508,
      "ap": 509,
      "Ġbec": 510,
      "ist": 511,
      "Ġthan": 512,
      "ĠSara": 513,
      "ny": 514,
      "Ġfeel": 515,
      "ĠAnna": 516,
      "Ġdad": 517,
      "Ġab": 518,
      "Ġwill": 519,
      "Ġmy": 520,
      "arn": 521,
      "Ġlook": 522,
      "our": 523,
      "Ġgr": 524,
      "ĠMax": 525,
      "ers": 526,
      "Ġke": 527,
      "Ġgra": 528,
      "Ġdidn": 529,
      "ways": 530,
      "ess": 531,
      "Ġpo": 532,
      "Ġtoys": 533,
      "Ġtook": 534,
      "fe": 535,
      "nder": 536,
      "Ġabout": 537,
      "Ġball": 538,
      "Ġalways": 539,
      "Ġlot": 540,
      "Ġmommy": 541,
      "ant": 542,
      "Ġkne": 543,
      "bb": 544,
      "Ġbu": 545,
      "Ġtree": 546,
      "ise": 547,
      "Ġoutside": 548,
      "Ġthought": 549,
      "ite": 550,
      "Ġmore": 551,
      "Ġta": 552,
      "ĠSo": 553,
      "ened": 554,
      "Ġlearn": 555,
      "ret": 556,
      "Ġho": 557,
      "ched": 558,
      "Ġknow": 559,
      "eci": 560,
      "Ġpu": 561,
      "Ġint": 562,
      "ged": 563,
      "Ġsor": 564,
      "ĠWhen": 565,
      "Ġcat": 566,
      "Ġlaug": 567,
      "Ġtake": 568,
      "Ġold": 569,
      "ive": 570,
      "ia": 571,
      "Ġspeci": 572,
      "Ġspecial": 573,
      "Ġknew": 574,
      "Ġany": 575,
      "Ġpe": 576,
      "ĠHer": 577,
      "ĠJo": 578,
      "dden": 579,
      "fter": 580,
      "au": 581,
      "Ġhow": 582,
      "Ġsorry": 583,
      "Ġtr": 584,
      "ma": 585,
      "ink": 586,
      "Ġshow": 587,
      "ish": 588,
      "ddenly": 589,
      "Ġrun": 590,
      "Ġsl": 591,
      "Ġmuch": 592,
      "Ġtw": 593,
      "Ġhand": 594,
      "ĠEvery": 595,
      "and": 596,
      "Ġor": 597,
      "Ġhouse": 598,
      "ĠJack": 599,
      "Ġop": 600,
      "Ġmo": 601,
      "Ġwater": 602,
      "Ġsk": 603,
      "ven": 604,
      "Ġtried": 605,
      "Ġinto": 606,
      "Ġsun": 607,
      "ank": 608,
      "Ġinside": 609,
      "Ġclo": 610,
      "ate": 611,
      "Ġtold": 612,
      "Ġgave": 613,
      "ump": 614,
      "ty": 615,
      "Ġproud": 616,
      "Ġeach": 617,
      "Ġqu": 618,
      "Ġen": 619,
      "ĠWe": 620,
      "Ġif": 621,
      "Ġover": 622,
      "Ġroom": 623,
      "Ġcouldn": 624,
      "Ġheard": 625,
      "here": 626,
      "ace": 627,
      "Ġnever": 628,
      "Ġeat": 629,
      "ĠMia": 630,
      "Ġthis": 631,
      "Ġpret": 632,
      "other": 633,
      "dy": 634,
      "ause": 635,
      "by": 636,
      "ak": 637,
      "Ġplayed": 638,
      "Ġpick": 639,
      "ion": 640,
      "sed": 641,
      "etter": 642,
      "Ġhugged": 643,
      "Ġexpl": 644,
      "ge": 645,
      "ĠSuddenly": 646,
      "ĠThen": 647,
      "Ġcom": 648,
      "Ġgre": 649,
      "Ġjust": 650,
      "Ġnice": 651,
      "Ġbox": 652,
      "ĠFrom": 653,
      "Ġmany": 654,
      "Ġneed": 655,
      "Ġwat": 656,
      "oth": 657,
      "Ġstr": 658,
      "Ġbecause": 659,
      "Ġoff": 660,
      "ĠAnd": 661,
      "ue": 662,
      "ile": 663,
      "'m": 664,
      "gry": 665,
      "Ġsmall": 666,
      "iz": 667,
      "ĠHis": 668,
      "ving": 669,
      "Ġlong": 670,
      "Ġjo": 671,
      "Ġsn": 672,
      "ine": 673,
      "Ġfo": 674,
      "imal": 675,
      "Ġanimal": 676,
      "Ġbear": 677,
      "Ġtry": 678,
      "ough": 679,
      "uc": 680,
      "ort": 681,
      "urt": 682,
      "Ġlearned": 683,
      "Ġunt": 684,
      "sel": 685,
      "ild": 686,
      "Ġlove": 687,
      "Ġuntil": 688,
      "ĠC": 689,
      "Ġkind": 690,
      "ft": 691,
      "Ġbetter": 692,
      "Ġflow": 693,
      "Ġte": 694,
      "Ġend": 695,
      "Ġim": 696,
      "urn": 697,
      "Ġdon": 698,
      "ves": 699,
      "Ġcle": 700,
      "Ġcall": 701,
      "Ġbest": 702,
      "ady": 703,
      "ars": 704,
      "ream": 705,
      "aut": 706,
      "Ġad": 707,
      "Yes": 708,
      "vent": 709,
      "Ġfast": 710,
      "Ġcareful": 711,
      "urp": 712,
      "arden": 713,
      "Ġgarden": 714,
      "Ġbeaut": 715,
      "Ġfi": 716,
      "Ġcu": 717,
      "ber": 718,
      "Ġsky": 719,
      "Ġthanked": 720,
      "Ġbra": 721,
      "Ġjump": 722,
      "Ġeven": 723,
      "ies": 724,
      "Ġloud": 725,
      "ase": 726,
      "pt": 727,
      "Ġby": 728,
      "Ġlaughed": 729,
      "em": 730,
      "Ġche": 731,
      "ĠÃ¢": 732,
      "iny": 733,
      "wn": 734,
      "self": 735,
      "Ġgl": 736,
      "Th": 737,
      "lly": 738,
      "Ġlist": 739,
      "Ġcome": 740,
      "Ġbeauti": 741,
      "Ġhard": 742,
      "Ġstill": 743,
      "Ġhurt": 744,
      "lew": 745,
      "Ġbeautiful": 746,
      "Ġanimals": 747,
      "Ġlots": 748,
      "Ġfam": 749,
      "Ġway": 750,
      "Ġwo": 751,
      "Åĵ": 752,
      "Ġra": 753,
      "Ġunder": 754,
      "hes": 755,
      "Ġlet": 756,
      "ĠP": 757,
      "Ġstay": 758,
      "be": 759,
      "ect": 760,
      "Ġbad": 761,
      "ning": 762,
      "ct": 763,
      "Ġsafe": 764,
      "sh": 765,
      "Ġcol": 766,
      "ool": 767,
      "ast": 768,
      "Ġboth": 769,
      "ople": 770,
      "ock": 771,
      "ĠJoh": 772,
      "kay": 773,
      "Ġrem": 774,
      "Ġbook": 775,
      "Ġangry": 776,
      "Ġlived": 777,
      "ished": 778,
      "Ġits": 779,
      "Ġimp": 780,
      "ree": 781,
      "ĠAs": 782,
      "ress": 783,
      "Ġtwo": 784,
      "It": 785,
      "Ġpeople": 786,
      "ane": 787,
      "Ġbrave": 788,
      "Ġfamily": 789,
      "Ġshould": 790,
      "No": 791,
      "Ġred": 792,
      "urpr": 793,
      "igh": 794,
      "ĠAfter": 795,
      "Ġwalked": 796,
      "Ġsu": 797,
      "Ġsurpr": 798,
      "Ġflew": 799,
      "Ġfin": 800,
      "Ġstor": 801,
      "Ġshare": 802,
      "Ġdan": 803,
      "Ġsoon": 804,
      "ucy": 805,
      "Ġfly": 806,
      "ĠLucy": 807,
      "ob": 808,
      "xt": 809,
      "Ġpic": 810,
      "Ġdoll": 811,
      "fore": 812,
      "led": 813,
      "Ġkept": 814,
      "Ġcalled": 815,
      "ip": 816,
      "Ġfore": 817,
      "Ġrock": 818,
      "Let": 819,
      "Ġclean": 820,
      "Ġpretty": 821,
      "ised": 822,
      "Ġdoor": 823,
      "dded": 824,
      "Ġshiny": 825,
      "ĠG": 826,
      "Ġgoing": 827,
      "Ġkeep": 828,
      "ĠMommy": 829,
      "Ġdra": 830,
      "Ġnoise": 831,
      "Ġnow": 832,
      "Ġreal": 833,
      "Ġwind": 834,
      "ĠDad": 835,
      "Ġopened": 836,
      "ĠJohn": 837,
      "Ġadvent": 838,
      "Ġturn": 839,
      "ummy": 840,
      "Ġide": 841,
      "ary": 842,
      "so": 843,
      "Ġcry": 844,
      "Ġbefore": 845,
      "Ġcon": 846,
      "age": 847,
      "Ġground": 848,
      "Ġalso": 849,
      "Ġsto": 850,
      "les": 851,
      "âĤ¬â": 852,
      "illy": 853,
      "Ġey": 854,
      "Ġcolor": 855,
      "Ġexplore": 856,
      "ied": 857,
      "Ġfar": 858,
      "Ġhas": 859,
      "Ġidea": 860,
      "Ġfr": 861,
      "ĠSp": 862,
      "kes": 863,
      "imb": 864,
      "Ġwar": 865,
      "th": 866,
      "ture": 867,
      "Ġun": 868,
      "What": 869,
      "thing": 870,
      "Ġnext": 871,
      "Ġpicked": 872,
      "Ġclimb": 873,
      "Ġnodded": 874,
      "aybe": 875,
      "Ġsmile": 876,
      "Ġthr": 877,
      "oy": 878,
      "Ġfeeling": 879,
      "Ġtruck": 880,
      "Ġwhile": 881,
      "Ġbed": 882,
      "ĠBob": 883,
      "Ġwalking": 884,
      "Ħ¢": 885,
      "âĤ¬âĦ¢": 886,
      "eet": 887,
      "Ġwr": 888,
      "Ġadventure": 889,
      "ger": 890,
      "Thank": 891,
      "Ġpicture": 892,
      "ac": 893,
      "Ġbeing": 894,
      "Ġthink": 895,
      "Ġgive": 896,
      "Ġfood": 897,
      "Ġma": 898,
      "ff": 899,
      "iced": 900,
      "Ġtra": 901,
      "Ġdif": 902,
      "That": 903,
      "Ġbre": 904,
      "joy": 905,
      "Ġbro": 906,
      "Ġtow": 907,
      "ted": 908,
      "ious": 909,
      "Ġlisten": 910,
      "Ġclos": 911,
      "Ġeyes": 912,
      "ĠN": 913,
      "Ġwait": 914,
      "ught": 915,
      "Ġown": 916,
      "Ġfish": 917,
      "Ġstopped": 918,
      "Ġafter": 919,
      "Ġlooking": 920,
      "ting": 921,
      "ĠR": 922,
      "Ġflowers": 923,
      "ĠSpot": 924,
      "ember": 925,
      "Ġdel": 926,
      "Ġwalk": 927,
      "ĠSue": 928,
      "Ġhands": 929,
      "Ġblue": 930,
      "ized": 931,
      "Ġslide": 932,
      "Ġshout": 933,
      "Ġrepl": 934,
      "Ġgreat": 935,
      "Ġever": 936,
      "Ġmean": 937,
      "Ġenjoy": 938,
      "Ġvo": 939,
      "Ġhead": 940,
      "irst": 941,
      "ila": 942,
      "oon": 943,
      "Ġrain": 944,
      "Ġnear": 945,
      "Ġnoticed": 946,
      "Ġdis": 947,
      "Ġforest": 948,
      "Ġus": 949,
      "Ġask": 950,
      "Ġimport": 951,
      "Ġquick": 952,
      "Ġremember": 953,
      "bbit": 954,
      "Ġsound": 955,
      "Ġapp": 956,
      "llow": 957,
      "Ġokay": 958,
      "Ġde": 959,
      "maz": 960,
      "Ġwork": 961,
      "Ġwonder": 962,
      "Ġshowed": 963,
      "Ġru": 964,
      "Ġamaz": 965,
      "Ġtal": 966,
      "lease": 967,
      "Ġstick": 968,
      "Ġtou": 969,
      "Ġwatch": 970,
      "Ġimportant": 971,
      "bbed": 972,
      "bye": 973,
      "Ġstrong": 974,
      "We": 975,
      "gan": 976,
      "Ġac": 977,
      "Ġeveryone": 978,
      "Ġbright": 979,
      "day": 980,
      "fere": 981,
      "Ġrabbit": 982,
      "Ġdiffere": 983,
      "Ġboat": 984,
      "Ġour": 985,
      "Ġreplied": 986,
      "Ġsqu": 987,
      "Ġwhere": 988,
      "Ġright": 989,
      "Ġfollow": 990,
      "Ġuse": 991,
      "Ġdoes": 992,
      "co": 993,
      "Ġwatched": 994,
      "able": 995,
      "Ġhop": 996,
      "Ġyell": 997,
      "Ġface": 998,
      "ath": 999,
      "Ġmor": 1000,
      "Ġquickly": 1001,
      "Look": 1002,
      "ered": 1003,
      "Ġstore": 1004,
      "Ġdress": 1005,
      "ĠLila": 1006,
      "Ġsure": 1007,
      "Ġbeen": 1008,
      "Ġbecame": 1009,
      "ĠTh": 1010,
      "ange": 1011,
      "Ġplace": 1012,
      "ng": 1013,
      "ĠSarah": 1014,
      "Ġdifferent": 1015,
      "Ġchild": 1016,
      "Ġcuri": 1017,
      "aught": 1018,
      "Ġwarm": 1019,
      "Ġye": 1020,
      "Ġgoodbye": 1021,
      "Ġam": 1022,
      "Ġmag": 1023,
      "Ġhigh": 1024,
      "Ġvoice": 1025,
      "ĠJane": 1026,
      "Ġforg": 1027,
      "Ġblock": 1028,
      "Ġtell": 1029,
      "Ġcake": 1030,
      "more": 1031,
      "Ġanymore": 1032,
      "leep": 1033,
      "ndma": 1034,
      "Ġcloser": 1035,
      "Ġcook": 1036,
      "Ġcurious": 1037,
      "itc": 1038,
      "Ġfav": 1039,
      "Ġbel": 1040,
      "ount": 1041,
      "Ġnight": 1042,
      "Ġpull": 1043,
      "Ġopen": 1044,
      "ey": 1045,
      "ired": 1046,
      "imes": 1047,
      "Ġlea": 1048,
      "ached": 1049,
      "Ġpain": 1050,
      "iss": 1051,
      "Ġfirst": 1052,
      "Ġz": 1053,
      "Ġbutter": 1054,
      "Ġhere": 1055,
      "Ġfell": 1056,
      "Ġkid": 1057,
      "ull": 1058,
      "Ġgrabbed": 1059,
      "Ġsees": 1060,
      "Can": 1061,
      "unny": 1062,
      "Ġsweet": 1063,
      "orn": 1064,
      "Ġonly": 1065,
      "Ġflo": 1066,
      "itchen": 1067,
      "Ġkitchen": 1068,
      "Ġthree": 1069,
      "Ġsand": 1070,
      "ĠEveryone": 1071,
      "ĠIn": 1072,
      "Ġhelped": 1073,
      "Ġbirds": 1074,
      "Ġstop": 1075,
      "Ġdr": 1076,
      "Ġcont": 1077,
      "Ġcra": 1078,
      "Ġbit": 1079,
      "Ġba": 1080,
      "Ġhappened": 1081,
      "Ġjumped": 1082,
      "Ġglad": 1083,
      "Ġfire": 1084,
      "Ġmon": 1085,
      "ppy": 1086,
      "ĠThat": 1087,
      "Ġsing": 1088,
      "Ġbeh": 1089,
      "Ġgrass": 1090,
      "Ġtri": 1091,
      "ĠDo": 1092,
      "Ġper": 1093,
      "Ġcr": 1094,
      "Ġbrother": 1095,
      "Ġrealized": 1096,
      "isy": 1097,
      "Ġstory": 1098,
      "Ġshouted": 1099,
      "air": 1100,
      "Ġreached": 1101,
      "Ġmess": 1102,
      "Ġsoft": 1103,
      "akes": 1104,
      "ĠLet": 1105,
      "ass": 1106,
      "Ġyummy": 1107,
      "Ġlady": 1108,
      "Ġgame": 1109,
      "ins": 1110,
      "Ġhaving": 1111,
      "nts": 1112,
      "Mom": 1113,
      "Ġdraw": 1114,
      "Ġate": 1115,
      "Ġhat": 1116,
      "Ġprin": 1117,
      "Ġpretend": 1118,
      "zy": 1119,
      "Ġpap": 1120,
      "Ġthrough": 1121,
      "Ġfavor": 1122,
      "Ġunderst": 1123,
      "'re": 1124,
      "where": 1125,
      "Ġcre": 1126,
      "Ġless": 1127,
      "Ġrest": 1128,
      "Ġfavorite": 1129,
      "Ġready": 1130,
      "ater": 1131,
      "Ġthing": 1132,
      "Ġlooks": 1133,
      "ken": 1134,
      "Ġmaking": 1135,
      "ather": 1136,
      "ĠCan": 1137,
      "Ġkids": 1138,
      "Ġmagic": 1139,
      "ĠJoe": 1140,
      "Ġreally": 1141,
      "Ġduck": 1142,
      "Ġpare": 1143,
      "Ġtired": 1144,
      "Ġpond": 1145,
      "Ġfix": 1146,
      "Ġcars": 1147,
      "Ġcut": 1148,
      "Ġworld": 1149,
      "ĠTommy": 1150,
      "Wow": 1151,
      "Ġdone": 1152,
      "Ġbegan": 1153,
      "Ġmum": 1154,
      "Ġbunny": 1155,
      "Ġwaved": 1156,
      "bo": 1157,
      "Ġhimself": 1158,
      "Ġcatch": 1159,
      "Ġbutterf": 1160,
      "Ġcoming": 1161,
      "Ġtouch": 1162,
      "Ġfunny": 1163,
      "Ġcried": 1164,
      "Ġused": 1165,
      "fully": 1166,
      "Ġworry": 1167,
      "Ġpart": 1168,
      "ĠFin": 1169,
      "Ġwhy": 1170,
      "Ġprom": 1171,
      "Ġname": 1172,
      "ign": 1173,
      "Ġblocks": 1174,
      "Ġanother": 1175,
      "Ġfill": 1176,
      "Ġste": 1177,
      "Ġflower": 1178,
      "Ġhold": 1179,
      "Ġfro": 1180,
      "Ġhair": 1181,
      "Ġtast": 1182,
      "Ġtop": 1183,
      "Ġseen": 1184,
      "Ġcool": 1185,
      "ster": 1186,
      "oney": 1187,
      "Ġswim": 1188,
      "rel": 1189,
      "Ġwished": 1190,
      "eddy": 1191,
      "iver": 1192,
      "Ġthank": 1193,
      "Ġmouse": 1194,
      "Ġfloor": 1195,
      "Ġlight": 1196,
      "Ġgreen": 1197,
      "Ġbag": 1198,
      "ient": 1199,
      "Ġdelic": 1200,
      "Ġlikes": 1201,
      "Ġgi": 1202,
      "Ġpaper": 1203,
      "Ġsmell": 1204,
      "Ġfarm": 1205,
      "Ġparents": 1206,
      "Ġbehind": 1207,
      "ĠSally": 1208,
      "ation": 1209,
      "hy": 1210,
      "Ġlesson": 1211,
      "Ġdri": 1212,
      "olly": 1213,
      "Ġsurprise": 1214,
      "Ġdoing": 1215,
      "Don": 1216,
      "Ġhopped": 1217,
      "Ġdro": 1218,
      "Ġbow": 1219,
      "Ġworked": 1220,
      "Ġsleep": 1221,
      "Ġhole": 1222,
      "ards": 1223,
      "Ġwindow": 1224,
      "uff": 1225,
      "andy": 1226,
      "Ġyellow": 1227,
      "Ġread": 1228,
      "Ġtrees": 1229,
      "Ġdark": 1230,
      "Ġdin": 1231,
      "Ġfull": 1232,
      "Ġsho": 1233,
      "Ġlaugh": 1234,
      "Ġrunning": 1235,
      "aisy": 1236,
      "ued": 1237,
      "ike": 1238,
      "ely": 1239,
      "ĠBenny": 1240,
      "Ġcold": 1241,
      "ren": 1242,
      "Ġswing": 1243,
      "rew": 1244,
      "Ġsat": 1245,
      "Ġspot": 1246,
      "Ġwood": 1247,
      "\".": 1248,
      "us": 1249,
      "Ġsurprised": 1250,
      "ul": 1251,
      "Ġslow": 1252,
      "Ġremembered": 1253,
      "aring": 1254,
      "Ġ-": 1255,
      "Ġbutterfly": 1256,
      "Ġhappily": 1257,
      "Ġset": 1258,
      "Ġlost": 1259,
      "Ġneeded": 1260,
      "ons": 1261,
      "Ġyears": 1262,
      "Ġice": 1263,
      "Ġheld": 1264,
      "Ġbuy": 1265,
      "Hell": 1266,
      "Hello": 1267,
      "Ġmove": 1268,
      "Ġfrog": 1269,
      "Ġanything": 1270,
      "ĠAt": 1271,
      "Ġwrong": 1272,
      "Ġcarefully": 1273,
      "Ġsnow": 1274,
      "Ġhear": 1275,
      "ĠEm": 1276,
      "ĠK": 1277,
      "Ġleft": 1278,
      "Ġtall": 1279,
      "ĠThere": 1280,
      "Ġhun": 1281,
      "ens": 1282,
      "Ġperf": 1283,
      "Ġdir": 1284,
      "Ġdream": 1285,
      "Ġfair": 1286,
      "Ġfollowed": 1287,
      "ĠNow": 1288,
      "Ġair": 1289,
      "Ġenjoyed": 1290,
      "ĠBilly": 1291,
      "Ġel": 1292,
      "Ġfinished": 1293,
      "Ġcast": 1294,
      "Ġchildren": 1295,
      "ĠJim": 1296,
      "cess": 1297,
      "Ġbug": 1298,
      "Ġbooks": 1299,
      "Ġhot": 1300,
      "Ġtable": 1301,
      "ined": 1302,
      "ĠFinally": 1303,
      "ĠDaisy": 1304,
      "Ġherself": 1305,
      "Ġhill": 1306,
      "ĠTo": 1307,
      "Ġhid": 1308,
      "Ġbus": 1309,
      "reed": 1310,
      "ĠJen": 1311,
      "Ġarri": 1312,
      "Ġfriendly": 1313,
      "Ġunderstand": 1314,
      "ds": 1315,
      "Ġarm": 1316,
      "Ġcontin": 1317,
      "ĠGra": 1318,
      "Ġclose": 1319,
      "Ġplease": 1320,
      "Ġforgot": 1321,
      "ross": 1322,
      "Ġmight": 1323,
      "Ġcolors": 1324,
      "Ġelse": 1325,
      "Ġdelicious": 1326,
      "Ġbroken": 1327,
      "Ġbuild": 1328,
      "Ġwants": 1329,
      "asure": 1330,
      "sp": 1331,
      "Ġrel": 1332,
      "lf": 1333,
      "ash": 1334,
      "Ġgone": 1335,
      "Ġgent": 1336,
      "ield": 1337,
      "Ġbaby": 1338,
      "room": 1339,
      "atter": 1340,
      "Ġarrived": 1341,
      "Ġcreat": 1342,
      "Ġtight": 1343,
      "Ġable": 1344,
      "Ġleaves": 1345,
      "Ġsong": 1346,
      "Ġwonderful": 1347,
      "Ġsomeone": 1348,
      "Ġyes": 1349,
      "Ġwall": 1350,
      "ĠMolly": 1351,
      "Ġsquir": 1352,
      "ner": 1353,
      "Ġfilled": 1354,
      "av": 1355,
      "Ġgu": 1356,
      "ĠThis": 1357,
      "Ġcontinued": 1358,
      "ich": 1359,
      "ask": 1360,
      "Ġlion": 1361,
      "Ġcount": 1362,
      "Ġbreak": 1363,
      "Ġsquirrel": 1364,
      "ĠAmy": 1365,
      "Ġagreed": 1366,
      "Ġju": 1367,
      "Ġpink": 1368,
      "ĠMaybe": 1369,
      "Ġscary": 1370,
      "Ġpoin": 1371,
      "Ġfall": 1372,
      "Ġenough": 1373,
      "shed": 1374,
      "Ġcastle": 1375,
      "icy": 1376,
      "ee": 1377,
      "ries": 1378,
      "man": 1379,
      "Ġgrandma": 1380,
      "Ġvis": 1381,
      "Ġstayed": 1382,
      "Ġhungry": 1383,
      "Ġmakes": 1384,
      "Ġmoment": 1385,
      "Ġmorning": 1386,
      "Ġsmiles": 1387,
      "'ll": 1388,
      "Ġfinally": 1389,
      "Ġwet": 1390,
      "Ġfight": 1391,
      "Ġcomp": 1392,
      "Ġcookies": 1393,
      "Ġgetting": 1394,
      "oup": 1395,
      "Ġturned": 1396,
      "Ġsometimes": 1397,
      "gon": 1398,
      "app": 1399,
      "row": 1400,
      "Ġpictures": 1401,
      "Ġpi": 1402,
      "Ġtalk": 1403,
      "Ġbeach": 1404,
      "rot": 1405,
      "Ġcream": 1406,
      "ama": 1407,
      "Ġclimbed": 1408,
      "ĠWhat": 1409,
      "Ġothers": 1410,
      "Ġtrying": 1411,
      "Ġclot": 1412,
      "Ġballoon": 1413,
      "Ġlistened": 1414,
      "oom": 1415,
      "Ġdinner": 1416,
      "Ġamazing": 1417,
      "Ġtail": 1418,
      "Ġclothes": 1419,
      "ced": 1420,
      "Ġmus": 1421,
      "ere": 1422,
      "Ġfew": 1423,
      "ance": 1424,
      "apped": 1425,
      "Ġmar": 1426,
      "Ġmet": 1427,
      "Ġpuppy": 1428,
      "lc": 1429,
      "Ġmother": 1430,
      "ence": 1431,
      "ĠJill": 1432,
      "Ġdaddy": 1433,
      "Ġperfect": 1434,
      "oring": 1435,
      "amp": 1436,
      "Ġasks": 1437,
      "Ġspl": 1438,
      "Ġwhite": 1439,
      "key": 1440,
      "red": 1441,
      "Ġfur": 1442,
      "Ġalone": 1443,
      "ctor": 1444,
      "uffy": 1445,
      "Ġpet": 1446,
      "Ġsail": 1447,
      "Ġwasn": 1448,
      "ucky": 1449,
      "Ġsit": 1450,
      "Ġbrought": 1451,
      "Ġeverything": 1452,
      "Ġsear": 1453,
      "ister": 1454,
      "Ġpol": 1455,
      "der": 1456,
      "Ġjoy": 1457,
      "Ġgrow": 1458,
      "ott": 1459,
      "Ġroll": 1460,
      "Ġstrange": 1461,
      "Ġpulled": 1462,
      "ated": 1463,
      "Ġwaited": 1464,
      "Ġpie": 1465,
      "wl": 1466,
      "Oh": 1467,
      "Ġspark": 1468,
      "Ġdeep": 1469,
      "Ġride": 1470,
      "Ġdanger": 1471,
      "Ġwoods": 1472,
      "But": 1473,
      "Ġplan": 1474,
      "Ġwon": 1475,
      "Ġruns": 1476,
      "Ġleave": 1477,
      "Ġmusic": 1478,
      "me": 1479,
      "Ġthinks": 1480,
      "Ġamazed": 1481,
      "Ġvisit": 1482,
      "This": 1483,
      "zz": 1484,
      "ower": 1485,
      "Ġhide": 1486,
      "ang": 1487,
      "Ġteddy": 1488,
      "Ġcloud": 1489,
      "eter": 1490,
      "ĠSoon": 1491,
      "Maybe": 1492,
      "Ġfox": 1493,
      "Ġpat": 1494,
      "ever": 1495,
      "Ġpen": 1496,
      "os": 1497,
      "Ġsilly": 1498,
      "ugg": 1499,
      "Ġliving": 1500,
      "Ġflying": 1501,
      "ope": 1502,
      "Ġshap": 1503,
      "Ġem": 1504,
      "Ġtowards": 1505,
      "gs": 1506,
      "Ġtreat": 1507,
      "Ġowner": 1508,
      "med": 1509,
      "ames": 1510,
      "ises": 1511,
      "ĠAll": 1512,
      "thy": 1513,
      "Ġpre": 1514,
      "Ġside": 1515,
      "Ġland": 1516,
      "Ġgrate": 1517,
      "Ġfield": 1518,
      "Ġlake": 1519,
      "Ġshared": 1520,
      "ained": 1521,
      "Ġqui": 1522,
      "Ġmoney": 1523,
      "Ġpaint": 1524,
      "cket": 1525,
      "igg": 1526,
      "Ġfaster": 1527,
      "Ġparty": 1528,
      "Ġpromised": 1529,
      "Ġgrateful": 1530,
      "Ġsister": 1531,
      "Ġbelie": 1532,
      "Ġdance": 1533,
      "Ġbott": 1534,
      "Okay": 1535,
      "Ġrace": 1536,
      "avy": 1537,
      "Ġmoral": 1538,
      "ix": 1539,
      "eces": 1540,
      "Ġcup": 1541,
      "cle": 1542,
      "Ġtreasure": 1543,
      "Ġbroke": 1544,
      "Ġpieces": 1545,
      "Ġcandy": 1546,
      "ĠFl": 1547,
      "Ġjob": 1548,
      "Ġquiet": 1549,
      "Ġworried": 1550,
      "unch": 1551,
      "Ġblank": 1552,
      "Ġcolorful": 1553,
      "sw": 1554,
      "OK": 1555,
      "Ġtrain": 1556,
      "ze": 1557,
      "Ġbigger": 1558,
      "Ġbran": 1559,
      "Ġansw": 1560,
      "Ġslowly": 1561,
      "orm": 1562,
      "ĠDaddy": 1563,
      "Ġwear": 1564,
      "outh": 1565,
      "Ġgif": 1566,
      "Ġdolls": 1567,
      "Ġwelc": 1568,
      "ually": 1569,
      "Ġblanket": 1570,
      "Ġreach": 1571,
      "Ġmouth": 1572,
      "ling": 1573,
      "Ġmust": 1574,
      "Ġve": 1575,
      "uit": 1576,
      "Ġsnack": 1577,
      "ĠMr": 1578,
      "ol": 1579,
      "Ġsuch": 1580,
      "Ġcho": 1581,
      "ĠMama": 1582,
      "fort": 1583,
      "Ġbike": 1584,
      "Ġeverywhere": 1585,
      "Ġele": 1586,
      "Ġsmart": 1587,
      "Ġscream": 1588,
      "ased": 1589,
      "Ġpro": 1590,
      "Ġblack": 1591,
      "less": 1592,
      "ph": 1593,
      "Ġriver": 1594,
      "ire": 1595,
      "Ġnap": 1596,
      "Ġplant": 1597,
      "Ġbar": 1598,
      "Ġjoin": 1599,
      "Ġstu": 1600,
      "Ġmagical": 1601,
      "Ġje": 1602,
      "Ġpot": 1603,
      "Ġsign": 1604,
      "Ġprincess": 1605,
      "Ġdangerous": 1606,
      "Ġhelping": 1607,
      "ĠJust": 1608,
      "Ġwin": 1609,
      "Ġpa": 1610,
      "cked": 1611,
      "Ġthrew": 1612,
      "set": 1613,
      "Ġdirty": 1614,
      "ming": 1615,
      "Ġcarrot": 1616,
      "ĠMary": 1617,
      "Ġtwins": 1618,
      "Ġbowl": 1619,
      "Ġdragon": 1620,
      "Ġcrying": 1621,
      "Ġtower": 1622,
      "ipped": 1623,
      "Ġbite": 1624,
      "Ġhoped": 1625,
      "Ġdoctor": 1626,
      "ored": 1627,
      "Sure": 1628,
      "Ġmost": 1629,
      "Ġteac": 1630,
      "Ġspr": 1631,
      "ident": 1632,
      "Ġsame": 1633,
      "Ġfarmer": 1634,
      "Ġheavy": 1635,
      "Ġbee": 1636,
      "Ġwords": 1637,
      "Ġmonster": 1638,
      "Ġacc": 1639,
      "Ġmonkey": 1640,
      "bble": 1641,
      "ear": 1642,
      "de": 1643,
      "Ġheal": 1644,
      "Ġacross": 1645,
      "Ġcoll": 1646,
      "Ġbath": 1647,
      "Why": 1648,
      "Ġdisapp": 1649,
      "Hi": 1650,
      "Ġbuck": 1651,
      "Ġhig": 1652,
      "Ġfruit": 1653,
      "The": 1654,
      "Ġstepped": 1655,
      "Ġstre": 1656,
      "Ġclosed": 1657,
      "Ġstuck": 1658,
      "eared": 1659,
      "Ġheart": 1660,
      "Ġtown": 1661,
      "Ġfeels": 1662,
      "Mommy": 1663,
      "ĠGrandma": 1664,
      "chool": 1665,
      "Ġbelieve": 1666,
      "Ġwouldn": 1667,
      "asket": 1668,
      "Ġbasket": 1669,
      "Ġmix": 1670,
      "Ġteacher": 1671,
      "Ġcray": 1672,
      "Ġcour": 1673,
      "Ġbutt": 1674,
      "Ġatt": 1675,
      "Ġeating": 1676,
      "Ġhit": 1677,
      "Ġschool": 1678,
      "ĠEmma": 1679,
      "iting": 1680,
      "Ġchair": 1681,
      "Ġpushed": 1682,
      "Ġbrown": 1683,
      "Ġyard": 1684,
      "Ġgentle": 1685,
      "Ġpack": 1686,
      "Ġmin": 1687,
      "Ġcourse": 1688,
      "Ġneigh": 1689,
      "Ġwithout": 1690,
      "br": 1691,
      "Ġclapped": 1692,
      "issed": 1693,
      "ord": 1694,
      "ts": 1695,
      "ĠMum": 1696,
      "umb": 1697,
      "Ġhigher": 1698,
      "ĠJimmy": 1699,
      "Ġpers": 1700,
      "pping": 1701,
      "Ġsmo": 1702,
      "Ġsec": 1703,
      "Ġneighb": 1704,
      "Ġswings": 1705,
      "Ġaccident": 1706,
      "Ġfairy": 1707,
      "ier": 1708,
      "vel": 1709,
      "Ġtoday": 1710,
      "orrow": 1711,
      "Ġgames": 1712,
      "Ġwelcome": 1713,
      "Ġdry": 1714,
      "ĠInside": 1715,
      "Ġstand": 1716,
      "Ġnoises": 1717,
      "ors": 1718,
      "Ġdrove": 1719,
      "Ġpocket": 1720,
      "Ġthrow": 1721,
      "ventually": 1722,
      "Ġsuddenly": 1723,
      "Ġforget": 1724,
      "Ġlon": 1725,
      "Ġturns": 1726,
      "Ġhugs": 1727,
      "Ġpiece": 1728,
      "Ġcheered": 1729,
      "ĠTheir": 1730,
      "ract": 1731,
      "Ġfree": 1732,
      "Ġben": 1733,
      "Ġlonely": 1734,
      "Ġfence": 1735,
      "Ġhappen": 1736,
      "Ġwings": 1737,
      "cy": 1738,
      "ĠWh": 1739,
      "ourn": 1740,
      "Ġneck": 1741,
      "Ġjourn": 1742,
      "Ġlonger": 1743,
      "Ġsang": 1744,
      "ible": 1745,
      "ead": 1746,
      "Ġexplained": 1747,
      "Ġsea": 1748,
      "Ġalong": 1749,
      "Ġsoup": 1750,
      "Ġcorn": 1751,
      "Ġstories": 1752,
      "Ġlate": 1753,
      "Ġupset": 1754,
      "Ġwell": 1755,
      "itting": 1756,
      "Ġshoes": 1757,
      "Ġinst": 1758,
      "Ġsecret": 1759,
      "Ġadventures": 1760,
      "Ġmiss": 1761,
      "Ġmat": 1762,
      "ĠFluffy": 1763,
      "Ġstars": 1764,
      "Ġtrou": 1765,
      "Ġcaught": 1766,
      "phant": 1767,
      "Ġwhe": 1768,
      "ches": 1769,
      "Ġsinging": 1770,
      "Ġph": 1771,
      "Ġrocks": 1772,
      "oun": 1773,
      "Ġbucket": 1774,
      "Ġlunch": 1775,
      "ape": 1776,
      "ces": 1777,
      "Ġswam": 1778,
      "Ġdropped": 1779,
      "ĠSammy": 1780,
      "Ġdist": 1781,
      "Ġwish": 1782,
      "Ġyoung": 1783,
      "Ġshook": 1784,
      "ocked": 1785,
      "Ġdrink": 1786,
      "Ġelephant": 1787,
      "Ġbring": 1788,
      "Ġmoved": 1789,
      "yard": 1790,
      "ment": 1791,
      "Ġplac": 1792,
      "Ġbelong": 1793,
      "Ġjuice": 1794,
      "Ġnaught": 1795,
      "ountain": 1796,
      "ĠThank": 1797,
      "Ġstar": 1798,
      "Ġnaughty": 1799,
      "Ġbackyard": 1800,
      "ek": 1801,
      "llo": 1802,
      "Ġmine": 1803,
      "fused": 1804,
      "Ġjar": 1805,
      "Ġstreet": 1806,
      "bow": 1807,
      "Ġtom": 1808,
      "Ġpast": 1809,
      "Ġkey": 1810,
      "Ġtakes": 1811,
      "Ġtaking": 1812,
      "Ġapple": 1813,
      "Ġshapes": 1814,
      "Ġpurp": 1815,
      "Ġorange": 1816,
      "Ġexploring": 1817,
      "ward": 1818,
      "Ġshop": 1819,
      "Ġowl": 1820,
      "Ġcou": 1821,
      "Lily": 1822,
      "Ġnothing": 1823,
      "ĠTw": 1824,
      "Do": 1825,
      "Ġexp": 1826,
      "Ġnearby": 1827,
      "Ġpig": 1828,
      "bby": 1829,
      "ĠLater": 1830,
      "Ġwise": 1831,
      "Ġnose": 1832,
      "Ġwondered": 1833,
      "Ġresp": 1834,
      "Ġwoke": 1835,
      "ung": 1836,
      "Ġcomes": 1837,
      "Ġes": 1838,
      "Ġseemed": 1839,
      "Ġcow": 1840,
      "col": 1841,
      "Ġbusy": 1842,
      "Ġaf": 1843,
      "Ġdes": 1844,
      "Ġsounds": 1845,
      "Ġmail": 1846,
      "Ġbench": 1847,
      "Ġtiny": 1848,
      "Ġrelie": 1849,
      "Ġsick": 1850,
      "Ġinv": 1851,
      "Ġpurple": 1852,
      "Ġmark": 1853,
      "cing": 1854,
      "Ġrainbow": 1855,
      "sy": 1856,
      "aughter": 1857,
      "Ġarms": 1858,
      "ose": 1859,
      "Ġthough": 1860,
      "adow": 1861,
      "Ġmad": 1862,
      "Ġnest": 1863,
      "ions": 1864,
      "fish": 1865,
      "ining": 1866,
      "Ġmil": 1867,
      "Ġyear": 1868,
      "pper": 1869,
      "thday": 1870,
      "ese": 1871,
      "Ġ3": 1872,
      "cks": 1873,
      "Ġsitting": 1874,
      "Ġob": 1875,
      "Ġdriver": 1876,
      "Ġholding": 1877,
      "Ġround": 1878,
      "Ġking": 1879,
      "Ġcarry": 1880,
      "raid": 1881,
      "read": 1882,
      "Ġafraid": 1883,
      "ity": 1884,
      "Ġbranch": 1885,
      "ittens": 1886,
      "Ġforever": 1887,
      "ale": 1888,
      "Ġcir": 1889,
      "Ġwhist": 1890,
      "Ġhello": 1891,
      "Ġgift": 1892,
      "Ġkite": 1893,
      "Ġspoon": 1894,
      "board": 1895,
      "Ġboun": 1896,
      "ost": 1897,
      "vered": 1898,
      "Ġcute": 1899,
      "Ġdaughter": 1900,
      "Ġpeace": 1901,
      "Ġshell": 1902,
      "Ġlift": 1903,
      "idge": 1904,
      "to": 1905,
      "Ġfit": 1906,
      "Ġcoat": 1907,
      "og": 1908,
      "Ġswimming": 1909,
      "Ġhuge": 1910,
      "ĠWith": 1911,
      "ĠCome": 1912,
      "Ġtouched": 1913,
      "Ġbread": 1914,
      "Ġpatient": 1915,
      "ours": 1916,
      "Of": 1917,
      "let": 1918,
      "Ġletter": 1919,
      "ĠAl": 1920,
      "Ġbirthday": 1921,
      "Ġpromise": 1922,
      "Ġgrab": 1923,
      "Ġrelieved": 1924,
      "cer": 1925,
      "sting": 1926,
      "Ġgives": 1927,
      "Ġaccidentally": 1928,
      "Ġwra": 1929,
      "eth": 1930,
      "Ġputs": 1931,
      "Ġband": 1932,
      "ĠEll": 1933,
      "Ġhope": 1934,
      "Ġmilk": 1935,
      "Ġbottle": 1936,
      "Ġcreature": 1937,
      "Hey": 1938,
      "gg": 1939,
      "Ġfing": 1940,
      "shine": 1941,
      "Ġdays": 1942,
      "Ġcheese": 1943,
      "Ġintere": 1944,
      "Ġlife": 1945,
      "Ġlaughing": 1946,
      "Ġgigg": 1947,
      "Ġcozy": 1948,
      "Ġcollect": 1949,
      "alm": 1950,
      "ĠTweet": 1951,
      "Ġlucky": 1952,
      "Ġbush": 1953,
      "Ġonto": 1954,
      "Ġexciting": 1955,
      "Ġkick": 1956,
      "Ġret": 1957,
      "Ġmist": 1958,
      "Ġpower": 1959,
      "Ġspin": 1960,
      "Ġcave": 1961,
      "Ġcomfort": 1962,
      "Ġdisco": 1963,
      "Ġjourney": 1964,
      "Ġact": 1965,
      "Ġsunshine": 1966,
      "Ġsunny": 1967,
      "gged": 1968,
      "Ġfan": 1969,
      "Ġear": 1970,
      "ĠJenny": 1971,
      "Ġinstead": 1972,
      "Ġreturn": 1973,
      "ped": 1974,
      "ten": 1975,
      "arp": 1976,
      "ness": 1977,
      "Ġpudd": 1978,
      "Ġpointed": 1979,
      "Ġinc": 1980,
      "Ġsmiling": 1981,
      "Ġimag": 1982,
      "Ġeas": 1983,
      "ize": 1984,
      "Ġsearched": 1985,
      "els": 1986,
      "Ġhoney": 1987,
      "itch": 1988,
      "Ġsharp": 1989,
      "Ġroad": 1990,
      "Ġanyone": 1991,
      "Ġhor": 1992,
      "Ġtalked": 1993,
      "Ġspo": 1994,
      "Ġbought": 1995,
      "oman": 1996,
      "ball": 1997,
      "Ġlater": 1998,
      "Ġsuc": 1999,
      "Ġwoman": 2000,
      "Ġsandw": 2001,
      "Ġplane": 2002,
      "Ġgather": 2003,
      "blem": 2004,
      "ub": 2005,
      "Ġproblem": 2006,
      "Ġsnowman": 2007,
      "Ġperson": 2008,
      "mer": 2009,
      "Ġwatching": 2010,
      "unt": 2011,
      "Ġcrayons": 2012,
      "Ġsmelled": 2013,
      "Ġhealthy": 2014,
      "Ġrope": 2015,
      "Ġtasty": 2016,
      "irt": 2017,
      "Ġtrouble": 2018,
      "Good": 2019,
      "Ġmeet": 2020,
      "Ġce": 2021,
      "ĠCh": 2022,
      "Ġducks": 2023,
      "round": 2024,
      "Ġpop": 2025,
      "Ġloves": 2026,
      "Ġkiss": 2027,
      "ĠSomet": 2028,
      "itten": 2029,
      "Ġpile": 2030,
      "een": 2031,
      "Ġclouds": 2032,
      "Ġent": 2033,
      "Ġapples": 2034,
      "Ġshining": 2035,
      "Ġpar": 2036,
      "ove": 2037,
      "Ġstorm": 2038,
      "Ġspid": 2039,
      "Ġbutton": 2040,
      "Ġinteresting": 2041,
      "ĠEmily": 2042,
      "ĠHow": 2043,
      "Ġmach": 2044,
      "ĠRe": 2045,
      "Ġzoom": 2046,
      "amed": 2047,
      "Ġorgan": 2048,
      "Ġcard": 2049,
      "Ġadm": 2050,
      "Ġzoo": 2051,
      "Ġpres": 2052,
      "Ġwide": 2053,
      "Ġclever": 2054,
      "ĠMittens": 2055,
      "Ġres": 2056,
      "ont": 2057,
      "Ġfeather": 2058,
      "Ġmatter": 2059,
      "owed": 2060,
      "Ġpill": 2061,
      "ndp": 2062,
      "Ġbark": 2063,
      "Ġhon": 2064,
      "Ġpract": 2065,
      "Ġprot": 2066,
      "aur": 2067,
      "Ġap": 2068,
      "Ġrespect": 2069,
      "Ġeag": 2070,
      "Ġfront": 2071,
      "Ġscreamed": 2072,
      "epend": 2073,
      "Ġgoes": 2074,
      "ail": 2075,
      "Ġmud": 2076,
      "Ġseat": 2077,
      "Ġprotect": 2078,
      "Ġneighbor": 2079,
      "Ġsaf": 2080,
      "Ġshr": 2081,
      "Ġquest": 2082,
      "Ġdanced": 2083,
      "Ġhorse": 2084,
      "isa": 2085,
      "Ġsur": 2086,
      "eb": 2087,
      "Ġtrip": 2088,
      "Ġanswer": 2089,
      "Ġpuzz": 2090,
      "Ġasleep": 2091,
      "Ġvill": 2092,
      "Ġpresent": 2093,
      "Ġmyster": 2094,
      "Ġspotted": 2095,
      "ĠSt": 2096,
      "Ġtries": 2097,
      "Ġappeared": 2098,
      "Ġsnake": 2099,
      "erly": 2100,
      "Come": 2101,
      "Ġteach": 2102,
      "Ġwhole": 2103,
      "Ġpath": 2104,
      "ĠJake": 2105,
      "Ġgiant": 2106,
      "Ġwild": 2107,
      "Ġlovely": 2108,
      "Ġcheer": 2109,
      "ching": 2110,
      "Ġphone": 2111,
      "Ġslid": 2112,
      "Ġplaces": 2113,
      "Ġwhich": 2114,
      "ÅĵI": 2115,
      "Ġdi": 2116,
      "Ġwearing": 2117,
      "up": 2118,
      "Ġteeth": 2119,
      "Ġdirt": 2120,
      "ĠGo": 2121,
      "Ġforgive": 2122,
      "Ġrolled": 2123,
      "oose": 2124,
      "Ġconfused": 2125,
      "izz": 2126,
      "ĠTogether": 2127,
      "ular": 2128,
      "ĠLisa": 2129,
      "Ġtasted": 2130,
      "Ġminut": 2131,
      "ones": 2132,
      "Ġgently": 2133,
      "Ġimpress": 2134,
      "Ġval": 2135,
      "Ġcouch": 2136,
      "Ġtun": 2137,
      "Ġfaces": 2138,
      "Ġthin": 2139,
      "Ġrude": 2140,
      "ert": 2141,
      "ssed": 2142,
      "Ġpass": 2143,
      "Ġcalm": 2144,
      "Ġlive": 2145,
      "itty": 2146,
      "Ġmind": 2147,
      "ndpa": 2148,
      "Ġspent": 2149,
      "Ġsplas": 2150,
      "ĠLe": 2151,
      "Ġpretended": 2152,
      "Ġmed": 2153,
      "Ġpan": 2154,
      "cean": 2155,
      "Ġocean": 2156,
      "Ġash": 2157,
      "Ġfeet": 2158,
      "Ġsupp": 2159,
      "Ġsal": 2160,
      "Ġlad": 2161,
      "nic": 2162,
      "Ġser": 2163,
      "Ġpour": 2164,
      "Ġpicnic": 2165,
      "Ġcoin": 2166,
      "Ġmachine": 2167,
      "Ġlay": 2168,
      "unk": 2169,
      "Ġsack": 2170,
      "Ġcorner": 2171,
      "ĠSometimes": 2172,
      "Ġring": 2173,
      "Ġwrite": 2174,
      "Ġdrive": 2175,
      "Ġworm": 2176,
      "Ġbugs": 2177,
      "Ġspider": 2178,
      "Ġoven": 2179,
      "Ġpush": 2180,
      "Ġwave": 2181,
      "Ġchocol": 2182,
      "Ġemb": 2183,
      "Tom": 2184,
      "Ġbuilding": 2185,
      "Ġsmooth": 2186,
      "Ġlast": 2187,
      "Ġign": 2188,
      "Ġtomorrow": 2189,
      "Ġcookie": 2190,
      "Ġca": 2191,
      "Ġhelpful": 2192,
      "umber": 2193,
      "arge": 2194,
      "Ġcann": 2195,
      "Ġcart": 2196,
      "Ġhiding": 2197,
      "ĠBe": 2198,
      "Ġrec": 2199,
      "als": 2200,
      "Ġwip": 2201,
      "ĠBu": 2202,
      "Ġfurry": 2203,
      "Ġladder": 2204,
      "Ġremind": 2205,
      "la": 2206,
      "Ġcannot": 2207,
      "Ġmountain": 2208,
      "lex": 2209,
      "ator": 2210,
      "Ġtid": 2211,
      "Ġblew": 2212,
      "Ġbell": 2213,
      "Ġban": 2214,
      "ato": 2215,
      "Ġbubble": 2216,
      "Ġchick": 2217,
      "Ġpaw": 2218,
      "Ġspread": 2219,
      "Ġtalking": 2220,
      "ife": 2221,
      "Ġfighting": 2222,
      "Ġfold": 2223,
      "Ġfinish": 2224,
      "Ġtool": 2225,
      "Ġdelight": 2226,
      "Ġembar": 2227,
      "Ġleaf": 2228,
      "Ġembarra": 2229,
      "Ġsel": 2230,
      "Ġwore": 2231,
      "Ġpool": 2232,
      "Ġrob": 2233,
      "Ġfoot": 2234,
      "Ġpuddle": 2235,
      "Ġsongs": 2236,
      "Ġshy": 2237,
      "Ġknee": 2238,
      "ighed": 2239,
      "Ġspray": 2240,
      "Ġeventually": 2241,
      "Ġrep": 2242,
      "Ġneckl": 2243,
      "Ġwaiting": 2244,
      "Ġmaybe": 2245,
      "Ġchocolate": 2246,
      "Ġnet": 2247,
      "Ġchased": 2248,
      "Ġbat": 2249,
      "Ġwhenever": 2250,
      "Ġfixed": 2251,
      "oph": 2252,
      "Ġstret": 2253,
      "Ġbarked": 2254,
      "ĠEverywhere": 2255,
      "Ġlarge": 2256,
      "ult": 2257,
      "Ġselfish": 2258,
      "Ġstring": 2259,
      "Ġcoo": 2260,
      "Ġsol": 2261,
      "ĠPlease": 2262,
      "lebr": 2263,
      "Ġwash": 2264,
      "ĠTeddy": 2265,
      "ĠSome": 2266,
      "ĠPeter": 2267,
      "Ġpeaceful": 2268,
      "Ġwhistle": 2269,
      "Ġcelebr": 2270,
      "Ġstir": 2271,
      "per": 2272,
      "Ġcarrots": 2273,
      "Ġant": 2274,
      "Ġcross": 2275,
      "urse": 2276,
      "Ġspe": 2277,
      "St": 2278,
      "Ġcreative": 2279,
      "Ġplate": 2280,
      "Ġtaste": 2281,
      "Ġhum": 2282,
      "Ġbanan": 2283,
      "Ġgen": 2284,
      "Ġrobot": 2285,
      "Ġtidy": 2286,
      "Ġmoon": 2287,
      "ĠZ": 2288,
      "Ġknocked": 2289,
      "Ġ'": 2290,
      "iger": 2291,
      "Ġtrust": 2292,
      "Ġcrab": 2293,
      "orry": 2294,
      "Ġhears": 2295,
      "Ġtells": 2296,
      "ĠWhile": 2297,
      "box": 2298,
      "Ġcloth": 2299,
      "My": 2300,
      "Ġvillage": 2301,
      "Ġmissed": 2302,
      "Ġstone": 2303,
      "ungle": 2304,
      "Ġstra": 2305,
      "Ġcolour": 2306,
      "Ġembarrassed": 2307,
      "ĠLittle": 2308,
      "airs": 2309,
      "Ġjungle": 2310,
      "Ġstep": 2311,
      "Ġrocket": 2312,
      "Ġdecor": 2313,
      "old": 2314,
      "Please": 2315,
      "Ġspicy": 2316,
      "Ġnecklace": 2317,
      "elly": 2318,
      "Ġtreats": 2319,
      "Ġshelf": 2320,
      "Ġscar": 2321,
      "getable": 2322,
      "Ġhel": 2323,
      "umpy": 2324,
      "arm": 2325,
      "Ġshirt": 2326,
      "Ġvegetable": 2327,
      "Ġforward": 2328,
      "ush": 2329,
      "Ġsplash": 2330,
      "dge": 2331,
      "Ġtea": 2332,
      "Ġsticks": 2333,
      "Ġlegs": 2334,
      "Ġemp": 2335,
      "ĠSus": 2336,
      "oin": 2337,
      "Ġempty": 2338,
      "Ġsave": 2339,
      "Ġjumping": 2340,
      "Ġnut": 2341,
      "Ġple": 2342,
      "ĠRex": 2343,
      "Ġgray": 2344,
      "Ġwhis": 2345,
      "Ġsharing": 2346,
      "Ġgrew": 2347,
      "Ġber": 2348,
      "Ġsheep": 2349,
      "ĠJohnn": 2350,
      "aking": 2351,
      "Ġtightly": 2352,
      "Ġlanded": 2353,
      "most": 2354,
      "ĠMummy": 2355,
      "Ġgener": 2356,
      "Ġmeant": 2357,
      "Ġdeter": 2358,
      "Ġashamed": 2359,
      "Ġbal": 2360,
      "Ġnods": 2361,
      "Ġdisappoin": 2362,
      "Ġpillow": 2363,
      "Ġdeterm": 2364,
      "Ġalmost": 2365,
      "ird": 2366,
      "ĠTV": 2367,
      "ying": 2368,
      "Ġhonest": 2369,
      "ĠDon": 2370,
      "Ġpizz": 2371,
      "ĠEven": 2372,
      "ian": 2373,
      "Ġsour": 2374,
      "ĠWhy": 2375,
      "Ġgold": 2376,
      "Ġjew": 2377,
      "dle": 2378,
      "Ġbreath": 2379,
      "Ġcarried": 2380,
      "ĠLeo": 2381,
      "Ġmeadow": 2382,
      "Ġunderstood": 2383,
      "ĠAlice": 2384,
      "ĠJohnny": 2385,
      "ano": 2386,
      "Ġyelled": 2387,
      "Ġstood": 2388,
      "Ġthese": 2389,
      "Ġvan": 2390,
      "Ġpolice": 2391,
      "Ġdrew": 2392,
      "den": 2393,
      "ground": 2394,
      "Ġseed": 2395,
      "Stop": 2396,
      "Ġpay": 2397,
      "Ġkitten": 2398,
      "Ġsnacks": 2399,
      "Ġprince": 2400,
      "ned": 2401,
      "Ġsuccess": 2402,
      "Ġfear": 2403,
      "Ġbored": 2404,
      "Ġsparkly": 2405,
      "gly": 2406,
      "Ġav": 2407,
      "erp": 2408,
      "Ġlem": 2409,
      "Ben": 2410,
      "ital": 2411,
      "aul": 2412,
      "Ġgun": 2413,
      "Ġugly": 2414,
      "ony": 2415,
      "Ġgas": 2416,
      "Ġshore": 2417,
      "Ġvase": 2418,
      "Ġdisappointed": 2419,
      "Ġhosp": 2420,
      "hin": 2421,
      "Ġline": 2422,
      "ork": 2423,
      "ustr": 2424,
      "kin": 2425,
      "Ġhours": 2426,
      "Ġhospital": 2427,
      "Ġgroup": 2428,
      "Ġclass": 2429,
      "ho": 2430,
      "Ġpizza": 2431,
      "itter": 2432,
      "vous": 2433,
      "Ġseek": 2434,
      "Ġplants": 2435,
      "iff": 2436,
      "Ġblow": 2437,
      "Ġknowing": 2438,
      "ĠMark": 2439,
      "Ġhidden": 2440,
      "Ġgenerous": 2441,
      "Ġreturned": 2442,
      "Ġcries": 2443,
      "Ġtent": 2444,
      "Ġpuzzle": 2445,
      "oop": 2446,
      "Ġpri": 2447,
      "Ġmessy": 2448,
      "Ġeasy": 2449,
      "Ġfeed": 2450,
      "Ġpoor": 2451,
      "Ġglass": 2452,
      "Ġfrustr": 2453,
      "ĠBl": 2454,
      "Ġstanding": 2455,
      "Ġsleepy": 2456,
      "Ġpin": 2457,
      "Ġwaves": 2458,
      "Ġjelly": 2459,
      "Ġtest": 2460,
      "Ġsighed": 2461,
      "Ġfancy": 2462,
      "Ġflag": 2463,
      "Ġsandwich": 2464,
      "Ġburn": 2465,
      "Sorry": 2466,
      "Ġthankful": 2467,
      "Ġbedroom": 2468,
      "Ġpowerful": 2469,
      "Ġship": 2470,
      "Ġtick": 2471,
      "Ġtaught": 2472,
      "body": 2473,
      "Ġscarf": 2474,
      "Ġsold": 2475,
      "Ġkissed": 2476,
      "Where": 2477,
      "Ġner": 2478,
      "Ġcirc": 2479,
      "Ġcrown": 2480,
      "lower": 2481,
      "Ġpir": 2482,
      "Ġtwirl": 2483,
      "Ġboring": 2484,
      "'d": 2485,
      "Ġdeer": 2486,
      "Ġmot": 2487,
      "ote": 2488,
      "Ġnervous": 2489,
      "era": 2490,
      "Ġreg": 2491,
      "Ġcaterp": 2492,
      "Ġcaterpill": 2493,
      "Ġmysterious": 2494,
      "Ġtears": 2495,
      "mb": 2496,
      "arl": 2497,
      "Ġfrustrated": 2498,
      "Ġpolite": 2499,
      "Ġspoil": 2500,
      "af": 2501,
      "work": 2502,
      "assed": 2503,
      "Ġpassed": 2504,
      "Ġscr": 2505,
      "Are": 2506,
      "ĠBr": 2507,
      "Ġcloset": 2508,
      "Ġoften": 2509,
      "ĠBo": 2510,
      "ĠToday": 2511,
      "oof": 2512,
      "Ġhur": 2513,
      "Ġyourself": 2514,
      "Ġdrop": 2515,
      "Ġminutes": 2516,
      "Ġhang": 2517,
      "Ġdetermined": 2518,
      "Ġfig": 2519,
      "Ġleg": 2520,
      "pack": 2521,
      "Ġrad": 2522,
      "Ġclown": 2523,
      "Ġgets": 2524,
      "Ġexcite": 2525,
      "ensive": 2526,
      "selves": 2527,
      "issors": 2528,
      "Ġfil": 2529,
      "Ġgate": 2530,
      "Ġcap": 2531,
      "Ġexpensive": 2532,
      "Ġbridge": 2533,
      "Ġchew": 2534,
      "Ġdancing": 2535,
      "ina": 2536,
      "iddle": 2537,
      "Ġchest": 2538,
      "Ġgathered": 2539,
      "light": 2540,
      "Ġscissors": 2541,
      "Ġpicks": 2542,
      "Ġflut": 2543,
      "Ġsaved": 2544,
      "ets": 2545,
      "Ġfinger": 2546,
      "illed": 2547,
      "Ġwagged": 2548,
      "ates": 2549,
      "ĠOK": 2550,
      "ual": 2551,
      "Ġesc": 2552,
      "izzy": 2553,
      "Ġcaterpillar": 2554,
      "Ġwolf": 2555,
      "Ġboss": 2556,
      "Ġwander": 2557,
      "osaur": 2558,
      "Ġgrumpy": 2559,
      "Ġdrum": 2560,
      "Ġcomfortable": 2561,
      "ĠNo": 2562,
      "Ġlock": 2563,
      "Ġpacked": 2564,
      "ĠSusie": 2565,
      "ond": 2566,
      "Ġqueen": 2567,
      "Ġanswered": 2568,
      "Ġhopping": 2569,
      "Ġworking": 2570,
      "ots": 2571,
      "Ġspend": 2572,
      "Ġdogs": 2573,
      "Ġmistake": 2574,
      "Ġexcitement": 2575,
      "Ġlit": 2576,
      "Ġmummy": 2577,
      "Ġdinosaur": 2578,
      "Ġstuff": 2579,
      "Ġtaken": 2580,
      "Ġcand": 2581,
      "Ġknight": 2582,
      "Ġvegetables": 2583,
      "uce": 2584,
      "Ġmedic": 2585,
      "ĠKitty": 2586,
      "Ġwheel": 2587,
      "Ġpus": 2588,
      "Ġwalks": 2589,
      "Ġdrawing": 2590,
      "Ġmiddle": 2591,
      "Ġpress": 2592,
      "Ġbone": 2593,
      "ggs": 2594,
      "Ġeggs": 2595,
      "Ġtrue": 2596,
      "Ġlazy": 2597,
      "que": 2598,
      "Ġlose": 2599,
      "Ġgiggled": 2600,
      "Ġcrawl": 2601,
      "Ġones": 2602,
      "Ġruined": 2603,
      "Ġfruits": 2604,
      "Ġmir": 2605,
      "Ġwis": 2606,
      "Ġdest": 2607,
      "ugar": 2608,
      "Ġclap": 2609,
      "Ġmedicine": 2610,
      "Ġadd": 2611,
      "Ġnumber": 2612,
      "Ġbathroom": 2613,
      "Ġsmelly": 2614,
      "iness": 2615,
      "Ġasking": 2616,
      "ecially": 2617,
      "Who": 2618,
      "ĠBlue": 2619,
      "Ġexam": 2620,
      "Ġfake": 2621,
      "Ġsugar": 2622,
      "Ġfeathers": 2623,
      "Ġsight": 2624,
      "Ġstones": 2625,
      "Ġbrush": 2626,
      "Ġgar": 2627,
      "Ġlicked": 2628,
      "Ġsweetie": 2629,
      "Ġtape": 2630,
      "pecially": 2631,
      "Ġespecially": 2632,
      "ror": 2633,
      "aser": 2634,
      "Ġteam": 2635,
      "Ġweak": 2636,
      "Ġchange": 2637,
      "Ġbody": 2638,
      "Ġdistance": 2639,
      "Ġnod": 2640,
      "Ġroar": 2641,
      "ella": 2642,
      "Ġdrank": 2643,
      "Ġpleased": 2644,
      "Ġlead": 2645,
      "elp": 2646,
      "Ġmatch": 2647,
      "Ġbake": 2648,
      "Ġpray": 2649,
      "Ġcri": 2650,
      "Ġcage": 2651,
      "ĠEventually": 2652,
      "Ġsplashed": 2653,
      "Ġfluffy": 2654,
      "ĠIf": 2655,
      "Ġballs": 2656,
      "Ġmic": 2657,
      "Ġyours": 2658,
      "Ġmov": 2659,
      "ating": 2660,
      "Ġlying": 2661,
      "Ġcalling": 2662,
      "aged": 2663,
      "Ġfis": 2664,
      "Ġsailed": 2665,
      "Ġmoving": 2666,
      "uggest": 2667,
      "Ġlemon": 2668,
      "Ġglow": 2669,
      "ĠDan": 2670,
      "Ġtie": 2671,
      "Ġsuggest": 2672,
      "Ġdisappeared": 2673,
      "Ġboard": 2674,
      "Ġsell": 2675,
      "Ġnoisy": 2676,
      "Ġglue": 2677,
      "ĠRose": 2678,
      "Ġwrote": 2679,
      "Ġsoap": 2680,
      "Ġclear": 2681,
      "ete": 2682,
      "hip": 2683,
      "Ġrelax": 2684,
      "ha": 2685,
      "Ġrid": 2686,
      "Ġok": 2687,
      "Ġweek": 2688,
      "Ġeld": 2689,
      "Ġdecide": 2690,
      "Help": 2691,
      "Ġbecome": 2692,
      "Ġincred": 2693,
      "Ġmoms": 2694,
      "Ġmeasure": 2695,
      "Ġjuicy": 2696,
      "ĠU": 2697,
      "Ġmirror": 2698,
      "Ġcovered": 2699,
      "alous": 2700,
      "Ġplayground": 2701,
      "Now": 2702,
      "Ġshows": 2703,
      "Ġjealous": 2704,
      "yal": 2705,
      "Ġhorn": 2706,
      "Ġquestions": 2707,
      "Ġfine": 2708,
      "ĠBobby": 2709,
      "Ġrare": 2710,
      "Ġcontent": 2711,
      "Ġboys": 2712,
      "ination": 2713,
      "Ġcraw": 2714,
      "Ġeager": 2715,
      "Ġcrawled": 2716,
      "Ġtowel": 2717,
      "Ġcheck": 2718,
      "ipp": 2719,
      "Ġskipped": 2720,
      "Ġdig": 2721,
      "Ġfather": 2722,
      "Ġind": 2723,
      "Ġcleaned": 2724,
      "ĠMrs": 2725,
      "Ġext": 2726,
      "Ġord": 2727,
      "Ġfamous": 2728,
      "Ġeye": 2729,
      "Ġtwist": 2730,
      "Ġneeds": 2731,
      "ĠElla": 2732,
      "Ġshoot": 2733,
      "ĠEnd": 2734,
      "Ġgarage": 2735,
      "imp": 2736,
      "Ġjoke": 2737,
      "Ġincredible": 2738,
      "Ġtrucks": 2739,
      "eez": 2740,
      "Ġed": 2741,
      "umbled": 2742,
      "Ġsword": 2743,
      "Ġtiger": 2744,
      "Ġloyal": 2745,
      "illi": 2746,
      "Ġhose": 2747,
      "Ġbubbles": 2748,
      "ory": 2749,
      "Ġmap": 2750,
      "Ġorganized": 2751,
      "Ġhappening": 2752,
      "ti": 2753,
      "Ġrealised": 2754,
      "Ġunus": 2755,
      "Ġbranches": 2756,
      "Ġlamp": 2757,
      "Ġword": 2758,
      "fic": 2759,
      "Ġborrow": 2760,
      "Ġtag": 2761,
      "Ġdiscovered": 2762,
      "ĠPete": 2763,
      "Ġmotor": 2764,
      "Ġunusual": 2765,
      "Ġdish": 2766,
      "ipper": 2767,
      "Ġonce": 2768,
      "Ġhurts": 2769,
      "Ġwand": 2770,
      "Ġextra": 2771,
      "Be": 2772,
      "cil": 2773,
      "Ġsil": 2774,
      "Ġfrown": 2775,
      "Ġknife": 2776,
      "Ġrich": 2777,
      "Ġpencil": 2778,
      "Ġelderly": 2779,
      "Ġthick": 2780,
      "Ġballoons": 2781,
      "lies": 2782,
      "ddy": 2783,
      "Ġmod": 2784,
      "Ġwhale": 2785,
      "Ġcover": 2786,
      "Ġdiffic": 2787,
      "Ġlouder": 2788,
      "Ġfigure": 2789,
      "Ġcost": 2790,
      "Me": 2791,
      "asing": 2792,
      "ique": 2793,
      "Ġfour": 2794,
      "Ġguess": 2795,
      "Ġbottom": 2796,
      "keep": 2797,
      "Ġdifficult": 2798,
      "port": 2799,
      "Ġaw": 2800,
      "Ġtoug": 2801,
      "ĠMandy": 2802,
      "Ġlaughs": 2803,
      "Ġflash": 2804,
      "Ġcolourful": 2805,
      "Ġunique": 2806,
      "Ġang": 2807,
      "Ġcompet": 2808,
      "Ġarg": 2809,
      "Ġoffered": 2810,
      "Ġchase": 2811,
      "Ġham": 2812,
      "Ġshake": 2813,
      "Ġboxes": 2814,
      "Ġbalance": 2815,
      "fast": 2816,
      "imed": 2817,
      "Ġadded": 2818,
      "ery": 2819,
      "Ġspun": 2820,
      "cept": 2821,
      "Ġturt": 2822,
      "Ġwrapped": 2823,
      "Ġhero": 2824,
      "Ġbarn": 2825,
      "Ġadventur": 2826,
      "Ġjewel": 2827,
      "ĠBrown": 2828,
      "Ġstraw": 2829,
      "Ġberries": 2830,
      "ately": 2831,
      "Ġcoins": 2832,
      "Ġkindness": 2833,
      "Ġgiving": 2834,
      "Ġbreakfast": 2835,
      "Ġlog": 2836,
      "?\".": 2837,
      "Ġchicken": 2838,
      "ages": 2839,
      "Ġbloom": 2840,
      "ĠEllie": 2841,
      "ature": 2842,
      "Ġbald": 2843,
      "Ġgoat": 2844,
      "ured": 2845,
      "Ġbanana": 2846,
      "rag": 2847,
      "Ġmighty": 2848,
      "Ġnorm": 2849,
      "Ġadventurous": 2850,
      "Ġswan": 2851,
      "Ġdolp": 2852,
      "ye": 2853,
      "Ġfool": 2854,
      "Ġmanaged": 2855,
      "Ġfalls": 2856,
      "land": 2857,
      "Ġpump": 2858,
      "Ġlifted": 2859,
      "Ġtough": 2860,
      "ym": 2861,
      "Ġcher": 2862,
      "Ġpointing": 2863,
      "ject": 2864,
      "Ġhelps": 2865,
      "uggled": 2866,
      "Ġdizzy": 2867,
      "Ġcircle": 2868,
      "Well": 2869,
      "Ġpee": 2870,
      "Tim": 2871,
      "Ġwagon": 2872,
      "alk": 2873,
      "ĠMar": 2874,
      "olog": 2875,
      "Ġharder": 2876,
      "ĠBella": 2877,
      "ĠMy": 2878,
      "ouses": 2879,
      "Ġdreamed": 2880,
      "keeper": 2881,
      "Ġcompetit": 2882,
      "Ġweird": 2883,
      "Ġsmoke": 2884,
      "Ġmelt": 2885,
      "Ġloudly": 2886,
      "Ġnormal": 2887,
      "Here": 2888,
      "oppy": 2889,
      "Ġbelonged": 2890,
      "Ġbossy": 2891,
      "Ġmarket": 2892,
      "Ġimpressed": 2893,
      "Ġfat": 2894,
      "Ġears": 2895,
      "Ġgrown": 2896,
      "Ġwrap": 2897,
      "Ġapolog": 2898,
      "ĠFred": 2899,
      "Ġskin": 2900,
      "Ġshape": 2901,
      "Ġhats": 2902,
      "ilt": 2903,
      "Ġknows": 2904,
      "Ġicy": 2905,
      "Ġstubb": 2906,
      "Ġlearning": 2907,
      "ĠDave": 2908,
      "emo": 2909,
      "Ġagainst": 2910,
      "Ġsearch": 2911,
      "Ġhunt": 2912,
      "ĠNemo": 2913,
      "Ġhouses": 2914,
      "Ġdepend": 2915,
      "Ġscare": 2916,
      "Ġenjoying": 2917,
      "pes": 2918,
      "anged": 2919,
      "Ġmeans": 2920,
      "Ġfavour": 2921,
      "Ġharm": 2922,
      "Ġslipped": 2923,
      "Ġbrothers": 2924,
      "head": 2925,
      "Ġrough": 2926,
      "Ġpainting": 2927,
      "Ġedge": 2928,
      "reen": 2929,
      "Ġchoose": 2930,
      "Ġbrilli": 2931,
      "Ġgrace": 2932,
      "Ġrecord": 2933,
      "ĠMike": 2934,
      "Ġbuttons": 2935,
      "Ġref": 2936,
      "Ġfright": 2937,
      "Ġstubborn": 2938,
      "apping": 2939,
      "ready": 2940,
      "ĠDucky": 2941,
      "Ġwhisp": 2942,
      "Ġfavourite": 2943,
      "Ġjack": 2944,
      "Ġshells": 2945,
      "Ġfoolish": 2946,
      "Ġsafely": 2947,
      "Ġbrilliant": 2948,
      "Ġbatter": 2949,
      "Ġcudd": 2950,
      "Ġtoast": 2951,
      "Ġfridge": 2952,
      "Ġcircles": 2953,
      "omed": 2954,
      "Ġspace": 2955,
      "Ġstri": 2956,
      "iv": 2957,
      "Ġguit": 2958,
      "Ġter": 2959,
      "Ġcro": 2960,
      "Ġhappiness": 2961,
      "rage": 2962,
      "Ġalready": 2963,
      "Ġrat": 2964,
      "Ġbitter": 2965,
      "Ġturtle": 2966,
      "aw": 2967,
      "erry": 2968,
      "Ġyog": 2969,
      "Ġwalls": 2970,
      "Ġoffice": 2971,
      "Ġlibr": 2972,
      "Ġwake": 2973,
      "Ġlaw": 2974,
      "Ġsounded": 2975,
      "Ġisland": 2976,
      "Ġstrawber": 2977,
      "Ġmixed": 2978,
      "edient": 2979,
      "Ġegg": 2980,
      "Ġsaying": 2981,
      "Ġclay": 2982,
      "Ġdreams": 2983,
      "Ġcrack": 2984,
      "ĠBobo": 2985,
      "Ġcheerful": 2986,
      "ext": 2987,
      "erg": 2988,
      "arth": 2989,
      "Ġtrunk": 2990,
      "iable": 2991,
      "Ġbags": 2992,
      "Ġcam": 2993,
      "Ġunl": 2994,
      "Ġsmaller": 2995,
      "Ġvalu": 2996,
      "Ġmovie": 2997,
      "Ġroof": 2998,
      "Ġescape": 2999,
      "ache": 3000,
      "Ġnosy": 3001,
      "Ġfier": 3002,
      "Ġguitar": 3003,
      "Ġshark": 3004,
      "Ġnotice": 3005,
      "Ġexcla": 3006,
      "Ġpoured": 3007,
      "Ġaccept": 3008,
      "Ġparrot": 3009,
      "Ġstronger": 3010,
      "Ġcab": 3011,
      "Ġstream": 3012,
      "Ġmagn": 3013,
      "Ġtunn": 3014,
      "sc": 3015,
      "Ġcrayon": 3016,
      "Ġobedient": 3017,
      "Ġinvited": 3018,
      "Ġweal": 3019,
      "Ġnicely": 3020,
      "Ġexclaimed": 3021,
      "arry": 3022,
      "Ġuseful": 3023,
      "Ġdependable": 3024,
      "Ġlow": 3025,
      "Ġsuggested": 3026,
      "Ġreliable": 3027,
      "Ġtools": 3028,
      "Ġcabin": 3029,
      "Ġfierce": 3030,
      "Ġtimes": 3031,
      "Ġthu": 3032,
      "ĠTweety": 3033,
      "ĠSoph": 3034,
      "Ġproudly": 3035,
      "Ġterri": 3036,
      "Ġcounted": 3037,
      "Ġscrat": 3038,
      "Ġfingers": 3039,
      "Ġrose": 3040,
      "Ġcity": 3041,
      "ado": 3042,
      "Ġindepend": 3043,
      "Ġshowing": 3044,
      "ola": 3045,
      "Ġstudy": 3046,
      "Ġpil": 3047,
      "Ġlean": 3048,
      "irp": 3049,
      "ĠJoey": 3050,
      "Ġbushes": 3051,
      "ĠKim": 3052,
      "Ġdesign": 3053,
      "Ġabove": 3054,
      "Ġexplored": 3055,
      "na": 3056,
      "wards": 3057,
      "Ġtummy": 3058,
      "Ġjoined": 3059,
      "Ġhoop": 3060,
      "Ġfrightened": 3061,
      "corn": 3062,
      "Ġstumbled": 3063,
      "Ġdead": 3064,
      "rell": 3065,
      "Ġgem": 3066,
      "Ġkicked": 3067,
      "Ġfountain": 3068,
      "Ġbirdie": 3069,
      "Ġspinning": 3070,
      "cu": 3071,
      "cient": 3072,
      "Ġspoiled": 3073,
      "Ġtwig": 3074,
      "Ġfrag": 3075,
      "Ġdough": 3076,
      "Ġlocked": 3077,
      "Ġlights": 3078,
      "Ġsuccessful": 3079,
      "Ġthemselves": 3080,
      "Ġstove": 3081,
      "Ġusing": 3082,
      "Ġcop": 3083,
      "Ġmem": 3084,
      "kn": 3085,
      "Ġwiped": 3086,
      "Ġjog": 3087,
      "Ġbrightly": 3088,
      "Ġexcitedly": 3089,
      "Ġzip": 3090,
      "Ġvaluable": 3091,
      "Ġrode": 3092,
      "Ġenorm": 3093,
      "Ġtele": 3094,
      "Ġindependent": 3095,
      "Ġenormous": 3096,
      "az": 3097,
      "amond": 3098,
      "Ġancient": 3099,
      "Ġyarn": 3100,
      "Ġswe": 3101,
      "ĠGrandpa": 3102,
      "ÅĵLet": 3103,
      "Ġfre": 3104,
      "Ġbeak": 3105,
      "Ġcleaning": 3106,
      "ĠYour": 3107,
      "Ġthoughtful": 3108,
      "ĠWhenever": 3109,
      "Ġkinds": 3110,
      "Ġdelicate": 3111,
      "anut": 3112,
      "Ġjam": 3113,
      "Ġbuilt": 3114,
      "ention": 3115,
      "Ġseem": 3116,
      "Ġeng": 3117,
      "Ġdiamond": 3118,
      "Ġreminded": 3119,
      "ither": 3120,
      "ĠLola": 3121,
      "Ġsteal": 3122,
      "Ġow": 3123,
      "Ġpopcorn": 3124,
      "inal": 3125,
      "Ġshadow": 3126,
      "ipe": 3127,
      "Ġthirst": 3128,
      "orge": 3129,
      "Ġholds": 3130,
      "Ġshone": 3131,
      "Ġsniff": 3132,
      "Ġfragile": 3133,
      "Ġenvel": 3134,
      "Ġways": 3135,
      "mbrell": 3136,
      "ĠFr": 3137,
      "Ġadmired": 3138,
      "oot": 3139,
      "Ġumbrell": 3140,
      "Ġstat": 3141,
      "Ġflute": 3142,
      "iginal": 3143,
      "Ġbean": 3144,
      "Ġtank": 3145,
      "Ġbounce": 3146,
      "Ġpractice": 3147,
      "uth": 3148,
      "known": 3149,
      "Ġbees": 3150,
      "Ġmarble": 3151,
      "eeze": 3152,
      "Ġflashlight": 3153,
      "Ġchanged": 3154,
      "Ġgrandpa": 3155,
      "ĠPe": 3156,
      "ĠGe": 3157,
      "Ġcostum": 3158,
      "pid": 3159,
      "illa": 3160,
      "Ġwhispered": 3161,
      "Ġbump": 3162,
      "Ġrubb": 3163,
      "Ġfinding": 3164,
      "Ġbrace": 3165,
      "Ġpainted": 3166,
      "Ġhelm": 3167,
      "Ġpumpkin": 3168,
      "Ġhalf": 3169,
      "Ġlab": 3170,
      "umbers": 3171,
      "Ġsolve": 3172,
      "Ġcamera": 3173,
      "Ġpige": 3174,
      "ray": 3175,
      "ĠCl": 3176,
      "cod": 3177,
      "Ġoriginal": 3178,
      "Ġserious": 3179,
      "Ġstamp": 3180,
      "Ġthirsty": 3181,
      "Ġunknown": 3182,
      "Ġtomato": 3183,
      "uring": 3184,
      "Ġstupid": 3185,
      "Ġsuit": 3186,
      "Ġpost": 3187,
      "Ġdove": 3188,
      "Ġplayful": 3189,
      "ĠSn": 3190,
      "Ġstairs": 3191,
      "Ġraced": 3192,
      "Ġyet": 3193,
      "Ġbeet": 3194,
      "Ġsleeping": 3195,
      "Ġguard": 3196,
      "Ġopens": 3197,
      "Ġwealthy": 3198,
      "Ġclum": 3199,
      "Ġpicking": 3200,
      "Ġsalad": 3201,
      "Ġenc": 3202,
      "inary": 3203,
      "Ġcone": 3204,
      "Ġseeds": 3205,
      "Ġcomput": 3206,
      "gu": 3207,
      "ĠRo": 3208,
      "Ġpebble": 3209,
      "Ġmis": 3210,
      "Ġchose": 3211,
      "Ġson": 3212,
      "Ġcrocod": 3213,
      "ilty": 3214,
      "Ġallowed": 3215,
      "Ġpeanut": 3216,
      "Ġmole": 3217,
      "Ġguilty": 3218,
      "How": 3219,
      "Ġstops": 3220,
      "Ġangel": 3221,
      "Ġdolphin": 3222,
      "Ġforth": 3223,
      "Ġflex": 3224,
      "Ġcheap": 3225,
      "Ġnurse": 3226,
      "dom": 3227,
      "Ġwashed": 3228,
      "Ġdelighted": 3229,
      "Ġnature": 3230,
      "iew": 3231,
      "Ġdoesn": 3232,
      "Ġsearching": 3233,
      "Ġmetal": 3234,
      "Ġcere": 3235,
      "ĠAlex": 3236,
      "com": 3237,
      "Ġclock": 3238,
      "Ġmoder": 3239,
      "Ġsunf": 3240,
      "Ġcompass": 3241,
      "ĠGeorge": 3242,
      "anger": 3243,
      "Ġjolly": 3244,
      "Ġmarch": 3245,
      "Ġboats": 3246,
      "Ġhammer": 3247,
      "Ġfresh": 3248,
      "vice": 3249,
      "ines": 3250,
      "Ġthose": 3251,
      "ugged": 3252,
      "Ġview": 3253,
      "Ġnumbers": 3254,
      "Ġleaving": 3255,
      "isk": 3256,
      "Ġtelling": 3257,
      "Ġclumsy": 3258,
      "Ġrushed": 3259,
      "Ġhay": 3260,
      "Ġdull": 3261,
      "ience": 3262,
      "oomy": 3263,
      "Ġpant": 3264,
      "Ġarrow": 3265,
      "Ġprint": 3266,
      "Ġhairy": 3267,
      "ĠPat": 3268,
      "Ġdust": 3269,
      "Ġmissing": 3270,
      "het": 3271,
      "Ġregular": 3272,
      "gest": 3273,
      "Ġflexible": 3274,
      "Ġacorn": 3275,
      "ĠToby": 3276,
      "Ġshel": 3277,
      "Ġterrible": 3278,
      "Ġfriendship": 3279,
      "Ġprize": 3280,
      "Ġmodern": 3281,
      "!\".": 3282,
      "Ġspilled": 3283,
      "Ġengine": 3284,
      "Ġtem": 3285,
      "Ġtor": 3286,
      "Ġjug": 3287,
      "ations": 3288,
      "Ġtooth": 3289,
      "Ġsauce": 3290,
      "Ġending": 3291,
      "Ġbiggest": 3292,
      "Ġload": 3293,
      "Ġdriving": 3294,
      "Ġavo": 3295,
      "Ġaunt": 3296,
      "aghet": 3297,
      "Ġpotato": 3298,
      "aghetti": 3299,
      "Ġbarber": 3300,
      "Ġenvelope": 3301,
      "Ġsink": 3302,
      "Ġtowers": 3303,
      "Ġumbrella": 3304,
      "Ġsne": 3305,
      "Ġrub": 3306,
      "Ġpirate": 3307,
      "Ġdestro": 3308,
      "ict": 3309,
      "Ġhanded": 3310,
      "Ġpeeked": 3311,
      "Ġresc": 3312,
      "fa": 3313,
      "Ġpopular": 3314,
      "Ġpatter": 3315,
      "Ġhandle": 3316,
      "time": 3317,
      "Ġloll": 3318,
      "Ġcareless": 3319,
      "Ġwire": 3320,
      "Ġdreaming": 3321,
      "Ġcarrying": 3322,
      "Ġbeetle": 3323,
      "Ġscreen": 3324,
      "ipop": 3325,
      "Ġthunder": 3326,
      "Ġspaghetti": 3327,
      "Ġchar": 3328,
      "Ġtied": 3329,
      "Ġgraceful": 3330,
      "See": 3331,
      "ĠNext": 3332,
      "Ġing": 3333,
      "Ġwing": 3334,
      "Ġcomb": 3335,
      "Ġprep": 3336,
      "Ġcereal": 3337,
      "Re": 3338,
      "Ġstage": 3339,
      "Ġlollipop": 3340,
      "Go": 3341,
      "Ġjacket": 3342,
      "Ġtunnel": 3343,
      "Ġstatue": 3344,
      "Ġmush": 3345,
      "Ġrubbed": 3346,
      "Ġcompassion": 3347,
      "Ġgoose": 3348,
      "Ġknock": 3349,
      "Ġpattern": 3350,
      "Ġdesk": 3351,
      "Ġreward": 3352,
      "Ġscatter": 3353,
      "Ġslides": 3354,
      "redient": 3355,
      "Ġingredient": 3356,
      "Ġshocked": 3357,
      "Ġer": 3358,
      "Ġcomputer": 3359,
      "ĠAndy": 3360,
      "Ġcur": 3361,
      "ision": 3362,
      "arsh": 3363,
      "Ġnote": 3364,
      "Ġdeliver": 3365,
      "Ġscale": 3366,
      "ĠSm": 3367,
      "ĠPolly": 3368,
      "Ġstack": 3369,
      "Ġmel": 3370,
      "robe": 3371,
      "Ġsquare": 3372,
      "Ġgrand": 3373,
      "Ġmeal": 3374,
      "Ġbull": 3375,
      "Ġtrap": 3376,
      "Ġliz": 3377,
      "Ġtruth": 3378,
      "Ġcrazy": 3379,
      "Ġbracelet": 3380,
      "Ġcrocodile": 3381,
      "eezed": 3382,
      "Ġpengu": 3383,
      "Ġpow": 3384,
      "Ġtravel": 3385,
      "Ġwitch": 3386,
      "Ġshiver": 3387,
      "Ġgasped": 3388,
      "Ġmask": 3389,
      "Ġimagined": 3390,
      "âĤ¬âĢ": 3391,
      "Ġimpressive": 3392,
      "Ġrug": 3393,
      "Ġtrash": 3394,
      "Ġperform": 3395,
      "ĠGrace": 3396,
      "Ġpersist": 3397,
      "ellig": 3398,
      "Ġcollar": 3399,
      "Ġearth": 3400,
      "Ġintellig": 3401,
      "Ġearly": 3402,
      "Ġpup": 3403,
      "Ġjumps": 3404,
      "They": 3405,
      "Ġthinking": 3406,
      "host": 3407,
      "Ġadvice": 3408,
      "oe": 3409,
      "io": 3410,
      "Ow": 3411,
      "ĠPaul": 3412,
      "ement": 3413,
      "iches": 3414,
      "Ġwheels": 3415,
      "Ġstranger": 3416,
      "Ġcrane": 3417,
      "Ġspring": 3418,
      "Ġnames": 3419,
      "Ġenv": 3420,
      "Ġperm": 3421,
      "He": 3422,
      "Ġwindows": 3423,
      "Ġenth": 3424,
      "comfort": 3425,
      "Ġfork": 3426,
      "ÅĵWhat": 3427,
      "Ġspoke": 3428,
      "ibb": 3429,
      "Ġghost": 3430,
      "illie": 3431,
      "Ġbent": 3432,
      "ikes": 3433,
      "ĠLook": 3434,
      "Ġbeauty": 3435,
      "Ġstickers": 3436,
      "Ġcreate": 3437,
      "ĠHere": 3438,
      "There": 3439,
      "Ġobject": 3440,
      "Ġlibrary": 3441,
      "Ġenthus": 3442,
      "Ġcelebrate": 3443,
      "Ġmushroom": 3444,
      "Ġingredients": 3445,
      "ĠBear": 3446,
      "aches": 3447,
      "comfortable": 3448,
      "Ġwaff": 3449,
      "Ġmill": 3450,
      "Ġgrowing": 3451,
      "Ġorder": 3452,
      "Ġwarned": 3453,
      "Ġphot": 3454,
      "Ġmailbox": 3455,
      "Ġuncomfortable": 3456,
      "Ġdiscover": 3457,
      "Ġbutterflies": 3458,
      "Ġreading": 3459,
      "Ġpale": 3460,
      "Ġhipp": 3461,
      "Ġtorn": 3462,
      "awn": 3463,
      "Ġcamp": 3464,
      "Ġsorts": 3465,
      "Ġsparkled": 3466,
      "ĠSophie": 3467,
      "ÅĵLetÃ¢": 3468,
      "Ġpigeon": 3469,
      "Ġquestion": 3470,
      "Ġsofa": 3471,
      "ebra": 3472,
      "Ġharmless": 3473,
      "Ġcomplet": 3474,
      "Ġletters": 3475,
      "Ġparade": 3476,
      "coa": 3477,
      "Ġcompetitive": 3478,
      "Ġflour": 3479,
      "ÅĵYes": 3480,
      "Ġanx": 3481,
      "tter": 3482,
      "Ġsudden": 3483,
      "ÅĵIt": 3484,
      "Ġuncle": 3485,
      "Ġpretending": 3486,
      "Ġpenny": 3487,
      "Ġgor": 3488,
      "Ġdestroy": 3489,
      "Ġsandwiches": 3490,
      "ses": 3491,
      "Ġnuts": 3492,
      "Ġahead": 3493,
      "Ġrece": 3494,
      "Ġblueber": 3495,
      "orant": 3496,
      "ips": 3497,
      "Ġcounting": 3498,
      "Ġpatch": 3499,
      "loo": 3500,
      "Ġbadly": 3501,
      "ince": 3502,
      "Ġpony": 3503,
      "Ġshut": 3504,
      "Ġlizard": 3505,
      "Ġanxious": 3506,
      "Ġzebra": 3507,
      "Ġbeep": 3508,
      "Ġplaced": 3509,
      "Ġsurf": 3510,
      "Ġcooking": 3511,
      "Ġpiano": 3512,
      "Ġneat": 3513,
      "Ġhumble": 3514,
      "Ġhook": 3515,
      "ĠTweetie": 3516,
      "ices": 3517,
      "Ġencou": 3518,
      "Ġsadly": 3519,
      "Ġsnuggled": 3520,
      "Ġcocoa": 3521,
      "Ġuniver": 3522,
      "Ġhung": 3523,
      "Ġmay": 3524,
      "Ġignorant": 3525,
      "ric": 3526,
      "Ġtwirled": 3527,
      "Ġintelligent": 3528,
      "Ġstation": 3529,
      "Ġsunflower": 3530,
      "Ġbase": 3531,
      "Ġotter": 3532,
      "stri": 3533,
      "ĠcouldnÃ¢": 3534,
      "ĠSh": 3535,
      "Ġsuper": 3536,
      "Ġpersistent": 3537,
      "aid": 3538,
      "Ġdug": 3539,
      "Ġpepper": 3540,
      "Ġtriang": 3541,
      "Ġnail": 3542,
      "Ġcards": 3543,
      "Ġrefused": 3544,
      "Yay": 3545,
      "Ġtask": 3546,
      "Ġspeed": 3547,
      "Ġgum": 3548,
      "ief": 3549,
      "Ġrules": 3550,
      "cream": 3551,
      "Ġgloomy": 3552,
      "Ġcupboard": 3553,
      "Ġpants": 3554,
      "gust": 3555,
      "ĠBa": 3556,
      "ĠBill": 3557,
      "Ġchance": 3558,
      "Ġfearful": 3559,
      "Ġtur": 3560,
      "Ġchasing": 3561,
      "Ġcharming": 3562,
      "ud": 3563,
      "ĠSandy": 3564,
      "Ġleash": 3565,
      "Ġstarts": 3566,
      "Ġshaking": 3567,
      "Ġdisgust": 3568,
      "Ġsett": 3569,
      "Ġcreatures": 3570,
      "Ġdeaf": 3571,
      "Ġattract": 3572,
      "ĠGive": 3573,
      "Ġtrick": 3574,
      "Ġcarp": 3575,
      "Ġordinary": 3576,
      "Ġtrack": 3577,
      "arian": 3578,
      "Ġpasta": 3579,
      "Ġresist": 3580,
      "Ġanywhere": 3581,
      "Ġtrump": 3582,
      "erable": 3583,
      "Ġolder": 3584,
      "Ġcartoon": 3585,
      "lcano": 3586,
      "Ġcurt": 3587,
      "Ġgifted": 3588,
      "cut": 3589,
      "Ġhippo": 3590,
      "Ġcurtain": 3591,
      "Ġled": 3592,
      "Ġyawn": 3593,
      "Ġmiserable": 3594,
      "ceed": 3595,
      "Ġsquash": 3596,
      "Ġcourage": 3597,
      "Ġcricket": 3598,
      "Ġbrighter": 3599,
      "Ġgorilla": 3600,
      "Give": 3601,
      "Ġimpat": 3602,
      "bled": 3603,
      "Ġsend": 3604,
      "Ġpurse": 3605,
      "Ġgir": 3606,
      "Ġalert": 3607,
      "Ġjet": 3608,
      "Ġpracticed": 3609,
      "ne": 3610,
      "Ġturkey": 3611,
      "Ġclub": 3612,
      "Ġhurry": 3613,
      "Ġhelmet": 3614,
      "Ġshouts": 3615,
      "Ġvalue": 3616,
      "Ġdecorate": 3617,
      "Ġbandage": 3618,
      "ĠCharl": 3619,
      "ĠUn": 3620,
      "opus": 3621,
      "ctopus": 3622,
      "Ġsoldier": 3623,
      "Ġfu": 3624,
      "urb": 3625,
      "Ġcompl": 3626,
      "Ġostri": 3627,
      "Ġscoot": 3628,
      "Ġimpatient": 3629,
      "Ġtire": 3630,
      "Ġcase": 3631,
      "Ġdisturb": 3632,
      "iest": 3633,
      "htub": 3634,
      "Ġallig": 3635,
      "Ġvolcano": 3636,
      "Ġcompassionate": 3637,
      "Ġtrumpet": 3638,
      "Ġbathtub": 3639,
      "Ġshine": 3640,
      "ĠMillie": 3641,
      "und": 3642,
      "Ġoctopus": 3643,
      "Ġbounced": 3644,
      "Ġsupport": 3645,
      "Ġitself": 3646,
      "aked": 3647,
      "Ġspell": 3648,
      "Ġdrawer": 3649,
      "Ġcarpet": 3650,
      "Ġdisgusting": 3651,
      "ĠWhere": 3652,
      "ĠAre": 3653,
      "Ġjeep": 3654,
      "ĠBefore": 3655,
      "Ġpressed": 3656,
      "Ġsalt": 3657,
      "Ġbicy": 3658,
      "Ġmeas": 3659,
      "Ġgrabs": 3660,
      "Ġfilthy": 3661,
      "Ġmelon": 3662,
      "noon": 3663,
      "Ġcomet": 3664,
      "Ġafternoon": 3665,
      "Ġbarking": 3666,
      "Ġmug": 3667,
      "Ġrestless": 3668,
      "Ġshoe": 3669,
      "aff": 3670,
      "Ġhunter": 3671,
      "Ġenvious": 3672,
      "Bye": 3673,
      "Ġbri": 3674,
      "Ġhelpless": 3675,
      "Ġtray": 3676,
      "Ġfirework": 3677,
      "Ġsucceed": 3678,
      "Ġpulls": 3679,
      "icop": 3680,
      "icopter": 3681,
      "ĠBuddy": 3682,
      "Ġstretched": 3683,
      "Ġten": 3684,
      "ĠHen": 3685,
      "Ġnowhere": 3686,
      "ubby": 3687,
      "Ġskip": 3688,
      "Ġadmire": 3689,
      "Ġattractive": 3690,
      "Ġcryst": 3691,
      "Ġlively": 3692,
      "Ġnobody": 3693,
      "Ġmagnet": 3694,
      "Ġhelicopter": 3695,
      "aroo": 3696,
      "Ġshield": 3697,
      "Ġexplain": 3698,
      "angaroo": 3699,
      "Ġhuman": 3700,
      "Ġrepe": 3701,
      "aurant": 3702,
      "ĠBrownie": 3703,
      "Ġneedle": 3704,
      "Ġcush": 3705,
      "Ġorganize": 3706,
      "gn": 3707,
      "Ġsomewhere": 3708,
      "Ġfive": 3709,
      "ĠJerry": 3710,
      "Ġrestaurant": 3711,
      "Ġgiggle": 3712,
      "gging": 3713,
      "Ġcats": 3714,
      "Ġcows": 3715,
      "Ġleop": 3716,
      "Ġvine": 3717,
      "Ġanyway": 3718,
      "If": 3719,
      "Ġbarrel": 3720,
      "ser": 3721,
      "Ġkangaroo": 3722,
      "Ġbet": 3723,
      "Ġvide": 3724,
      "Ġmonkeys": 3725,
      "Ġattic": 3726,
      "Ġsplit": 3727,
      "Ġsticker": 3728,
      "Ġcooked": 3729,
      "Ġlions": 3730,
      "Ġreco": 3731,
      "Ġwishes": 3732,
      "Ġostrich": 3733,
      "ophone": 3734,
      "Ġdess": 3735,
      "Ġthief": 3736,
      "ÅĵThat": 3737,
      "ĠRed": 3738,
      "Ġthread": 3739,
      "Ġchubby": 3740,
      "Ġpoem": 3741,
      "Ġants": 3742,
      "ĠBet": 3743,
      "ĠEverything": 3744,
      "Ġsandbox": 3745,
      "Ġfurther": 3746,
      "Ġbackpack": 3747,
      "Ġharsh": 3748,
      "Ġseal": 3749,
      "nna": 3750,
      "Ġpun": 3751,
      "Ġgoal": 3752,
      "Ġdistant": 3753,
      "Ġrespectful": 3754,
      "ebook": 3755,
      "Ġtap": 3756,
      "inking": 3757,
      "Ġscrew": 3758,
      "Ġradio": 3759,
      "Ġnotebook": 3760,
      "Ġvi": 3761,
      "Ġpaws": 3762,
      "ĠBunny": 3763,
      "ummer": 3764,
      "astic": 3765,
      "Ġribb": 3766,
      "stairs": 3767,
      "Ġholes": 3768,
      "Ġunpack": 3769,
      "ĠHenry": 3770,
      "Ġfinds": 3771,
      "Ġraven": 3772,
      "par": 3773,
      "Ġmuff": 3774,
      "Ġsent": 3775,
      "Ġsepar": 3776,
      "Ġpushes": 3777,
      "ĠMag": 3778,
      "iskers": 3779,
      "Ġmath": 3780,
      "Ġfireman": 3781,
      "Ġmodest": 3782,
      "Ġstirred": 3783,
      "Ġswitch": 3784,
      "Ġalligator": 3785,
      "Ġsteps": 3786,
      "ĠMaria": 3787,
      "Ġstared": 3788,
      "Ġelev": 3789,
      "orable": 3790,
      "ĠWhiskers": 3791,
      "Ġfrowned": 3792,
      "ĠHarry": 3793,
      "Ġpackage": 3794,
      "night": 3795,
      "Ġsweater": 3796,
      "ĠCharlie": 3797,
      "Ġleopard": 3798,
      "Ġhedge": 3799,
      "Ġavoc": 3800,
      "Ġpand": 3801,
      "ĠAnnie": 3802,
      "Ġcardboard": 3803,
      "Ġbicycle": 3804,
      "hood": 3805,
      "stic": 3806,
      "Ġwheat": 3807,
      "Ġmicr": 3808,
      "ipping": 3809,
      "Ġlid": 3810,
      "Ġrice": 3811,
      "Ġcube": 3812,
      "Ġsize": 3813,
      "Ġsheet": 3814,
      "Ġelevator": 3815,
      "Ġsoar": 3816,
      "Ġfort": 3817,
      "Ġdrawings": 3818,
      "cycle": 3819,
      "ĠSmith": 3820,
      "Ġbikes": 3821,
      "Ġbehave": 3822,
      "Ġjokes": 3823,
      "Ġlightning": 3824,
      "Ġcandle": 3825,
      "Ġur": 3826,
      "Ġadorable": 3827,
      "Ġimpro": 3828,
      "iastic": 3829,
      "Ġsilver": 3830,
      "Ġenthusiastic": 3831,
      "Ġmeat": 3832,
      "Ġbreat": 3833,
      "ci": 3834,
      "Ġhive": 3835,
      "iron": 3836,
      "ĠWill": 3837,
      "Ġbears": 3838,
      "Ġsort": 3839,
      "Ġhaircut": 3840,
      "elery": 3841,
      "Ġexper": 3842,
      "Ġspeak": 3843,
      "gie": 3844,
      "ĠSnow": 3845,
      "Ġhappier": 3846,
      "Ġfle": 3847,
      "heart": 3848,
      "Ġdessert": 3849,
      "Ġmicrophone": 3850,
      "ĠLee": 3851,
      "come": 3852,
      "Ġsle": 3853,
      "Ġloop": 3854,
      "Ġchain": 3855,
      "ĠTr": 3856,
      "irit": 3857,
      "Ġquite": 3858,
      "Ġrepair": 3859,
      "Ġhall": 3860,
      "Ġeither": 3861,
      "aila": 3862,
      "ccol": 3863,
      "Ġpal": 3864,
      "uct": 3865,
      "ccoli": 3866,
      "Ġenerg": 3867,
      "Ġstretch": 3868,
      "Ġrecogn": 3869,
      "Ġtroubled": 3870,
      "Anna": 3871,
      "Ġquar": 3872,
      "reci": 3873,
      "Ġmarry": 3874,
      "Ġoy": 3875,
      "Ġchalk": 3876,
      "Ġprov": 3877,
      "aulif": 3878,
      "Ġtripped": 3879,
      "ĠRos": 3880,
      "Ġswinging": 3881,
      "cast": 3882,
      "Ġboots": 3883,
      "Ġpole": 3884,
      "Ġappreci": 3885,
      "ĠPap": 3886,
      "ĠRu": 3887,
      "Ġroared": 3888,
      "Ġlistening": 3889,
      "Ġriding": 3890,
      "Ġpaid": 3891,
      "Ġjellyfish": 3892,
      "Ġgro": 3893,
      "Ġstom": 3894,
      "Ġdishes": 3895,
      "ailable": 3896,
      "Ġgolf": 3897,
      "Ġpapers": 3898,
      "Ġpor": 3899,
      "Ġforgave": 3900,
      "Ġshovel": 3901,
      "Ġcact": 3902,
      "Ġoat": 3903,
      "year": 3904,
      "Ġlip": 3905,
      "Ġchecked": 3906,
      "Ġsandcast": 3907,
      "Ġrescue": 3908,
      "Ġclapping": 3909,
      "Ġscold": 3910,
      "Ġrod": 3911,
      "Ġbrus": 3912,
      "Ġshelter": 3913,
      "eer": 3914,
      "ĠdidnÃ¢": 3915,
      "Ġmama": 3916,
      "Ġinse": 3917,
      "Ġwallet": 3918,
      "Ġbin": 3919,
      "cond": 3920,
      "Ġsecond": 3921,
      "Ġbuzz": 3922,
      "Ġavailable": 3923,
      "Ġcelery": 3924,
      "Ġsock": 3925,
      "Ġobser": 3926,
      "fee": 3927,
      "Ġink": 3928,
      "Ġshakes": 3929,
      "Ġpushing": 3930,
      "happy": 3931,
      "Ġtriangle": 3932,
      "Ġeraser": 3933,
      "ffee": 3934,
      "ĠLilly": 3935,
      "Ġmessage": 3936,
      "Ġcaulif": 3937,
      "Ġpeek": 3938,
      "Ġgrapes": 3939,
      "Ġpalace": 3940,
      "Ġalive": 3941,
      "Ġtrains": 3942,
      "Ġshopkeeper": 3943,
      "Ġtrop": 3944,
      "Ġcolours": 3945,
      "Ġfalling": 3946,
      "ĠPapa": 3947,
      "Ġknot": 3948,
      "Ġfeelings": 3949,
      "Ġbroccoli": 3950,
      "Ġsailor": 3951,
      "Ġpoint": 3952,
      "ube": 3953,
      "Ġrag": 3954,
      "Ġcountry": 3955,
      "Ġbreaks": 3956,
      "Ġcostume": 3957,
      "Ġcactus": 3958,
      "Ġspirit": 3959,
      "Ġlear": 3960,
      "Ġraft": 3961,
      "Ġsmells": 3962,
      "Ġjudge": 3963,
      "Ġyach": 3964,
      "olin": 3965,
      "Ġlearnt": 3966,
      "Ġsummer": 3967,
      "Ġlaser": 3968,
      "Ġonion": 3969,
      "Ġsoftly": 3970,
      "Ġtuna": 3971,
      "ron": 3972,
      "render": 3973,
      "Ġshrimp": 3974,
      "Ġscooter": 3975,
      "Ġtrophy": 3976,
      "Ġluck": 3977,
      "ĠJess": 3978,
      "Ġputting": 3979,
      "Ġclimbing": 3980,
      "Ġended": 3981,
      "Ġpolish": 3982,
      "Ġraining": 3983,
      "Ġcrystal": 3984,
      "Ġmen": 3985,
      "Ġmild": 3986,
      "Ġreind": 3987,
      "Ġart": 3988,
      "ĠOr": 3989,
      "azz": 3990,
      "play": 3991,
      "bul": 3992,
      "Ġstarting": 3993,
      "reeze": 3994,
      "ucked": 3995,
      "Ġvisited": 3996,
      "Ġzoomed": 3997,
      "Ġrubber": 3998,
      "edy": 3999,
      "Ġtreasures": 4000,
      "Ġbasketball": 4001,
      "ooped": 4002,
      "Ġunhappy": 4003,
      "Ġhoping": 4004,
      "Ġrolling": 4005,
      "Ġsprink": 4006,
      "ĠDanny": 4007,
      "Ġstrugg": 4008,
      "Ġappl": 4009,
      "ĠWould": 4010,
      "Ġenergy": 4011,
      "Ġgiven": 4012,
      "Ġcauliflower": 4013,
      "ef": 4014,
      "Ġtube": 4015,
      "Ġol": 4016,
      "Ġyacht": 4017,
      "sist": 4018,
      "Ġlaund": 4019,
      "ĠKate": 4020,
      "Ġpilot": 4021,
      "Ġpipe": 4022,
      "aled": 4023,
      "Ġped": 4024,
      "Ġlaundry": 4025,
      "Ġunlock": 4026,
      "Ġpenguin": 4027,
      "Ġsaus": 4028,
      "icer": 4029,
      "Ġneighbour": 4030,
      "Ġcooler": 4031,
      "Ġhotel": 4032,
      "Ġframe": 4033,
      "Ġhadn": 4034,
      "Ġreindeer": 4035,
      "Ġflies": 4036,
      "Ġdive": 4037,
      "Ġdisplay": 4038,
      "Ġtricks": 4039,
      "Ġcups": 4040,
      "Ġbarks": 4041,
      "Ġkay": 4042,
      "Ġquit": 4043,
      "Ġbelt": 4044,
      "Ġshort": 4045,
      "ĠBaby": 4046,
      "Ha": 4047,
      "Ġthanks": 4048,
      "Ġbul": 4049,
      "Ġsweetheart": 4050,
      "Ġbur": 4051,
      "Ġcoffee": 4052,
      "ait": 4053,
      "Ġpeach": 4054,
      "Ġdisag": 4055,
      "ecause": 4056,
      "ĠInst": 4057,
      "Ġairport": 4058,
      "Ġincl": 4059,
      "kelet": 4060,
      "sely": 4061,
      "Ġoil": 4062,
      "Ġevening": 4063,
      "Ġdrops": 4064,
      "ĠMaggie": 4065,
      "Ġjournal": 4066,
      "Ġfilm": 4067,
      "Ġsym": 4068,
      "Ġshade": 4069,
      "Ġthrows": 4070,
      "Ġlawy": 4071,
      "Ġtax": 4072,
      "Ġcord": 4073,
      "ides": 4074,
      "Ġstuffed": 4075,
      "Ġcushion": 4076,
      "ney": 4077,
      "Ġfolder": 4078,
      "Ġbulb": 4079,
      "Ġlives": 4080,
      "Ġpad": 4081,
      "Ġskill": 4082,
      "Ġiron": 4083,
      "seum": 4084,
      "Ġmarched": 4085,
      "hino": 4086,
      "pe": 4087,
      "Ġclosely": 4088,
      "Ġbananas": 4089,
      "Ġphoto": 4090,
      "zzy": 4091,
      "Ġambul": 4092,
      "Ġvend": 4093,
      "Ġleaned": 4094,
      "nger": 4095,
      "Ġtub": 4096,
      "Ġpanda": 4097,
      "ĠBun": 4098,
      "Ġsurrender": 4099,
      "Ġfootball": 4100,
      "Ġfisher": 4101,
      "Ġstrawberry": 4102,
      "ense": 4103,
      "Ġinsist": 4104,
      "Ġmuseum": 4105,
      "Ġplanet": 4106,
      "enny": 4107,
      "Ġwool": 4108,
      "Ġpair": 4109,
      "Ġfauc": 4110,
      "Ġcounter": 4111,
      "Ġporch": 4112,
      "ges": 4113,
      "keleton": 4114,
      "Ġlend": 4115,
      "bol": 4116,
      "ito": 4117,
      "Ġdiary": 4118,
      "Ġpainter": 4119,
      "affe": 4120,
      "Ġsymbol": 4121,
      "Ġtheater": 4122,
      "Ġcherries": 4123,
      "Ġambulance": 4124,
      "Ġtaxi": 4125,
      "Ġax": 4126,
      "Ġrhino": 4127,
      "ĠJames": 4128,
      "Ġswung": 4129,
      "Ġcomplete": 4130,
      "Ġwaving": 4131,
      "ites": 4132,
      "Ġfrogs": 4133,
      "Ġheads": 4134,
      "Ġsteak": 4135,
      "Ġfields": 4136,
      "Ġapologized": 4137,
      "Ġfaucet": 4138,
      "izes": 4139,
      "Ġviolin": 4140,
      "Ġlie": 4141,
      "ccer": 4142,
      "ple": 4143,
      "quito": 4144,
      "mand": 4145,
      "Ġforgotten": 4146,
      "Ġinsect": 4147,
      "Ġplastic": 4148,
      "Ġreef": 4149,
      "nam": 4150,
      "Ġhut": 4151,
      "Ġmule": 4152,
      "Ġcheek": 4153,
      "..": 4154,
      "Ġpage": 4155,
      "ckey": 4156,
      "ĠMiss": 4157,
      "Ġhockey": 4158,
      "Ġpowder": 4159,
      "âĤ¬âĢľ": 4160,
      "Ġsoccer": 4161,
      "ÅĵYou": 4162,
      "Ġmagaz": 4163,
      "Ġimagine": 4164,
      "Ġlime": 4165,
      "Ġcable": 4166,
      "Ġimagination": 4167,
      "erop": 4168,
      "Ġshouldn": 4169,
      "eropl": 4170,
      "Ġaeropl": 4171,
      "ĠTony": 4172,
      "Dad": 4173,
      "Ġvet": 4174,
      "Ġmos": 4175,
      "Ġbaking": 4176,
      "ĠKat": 4177,
      "ween": 4178,
      "ĠTed": 4179,
      "Ġtrail": 4180,
      "Ġwinter": 4181,
      "Ġsunset": 4182,
      "Ġskeleton": 4183,
      "aused": 4184,
      "Ġwife": 4185,
      "Ġcreated": 4186,
      "Ġbetween": 4187,
      "angu": 4188,
      "Ġbelongs": 4189,
      "Ġgiraffe": 4190,
      "Ġquarrel": 4191,
      "Ġvendor": 4192,
      "Ġlangu": 4193,
      "Ġpirates": 4194,
      "Ġmosquito": 4195,
      "any": 4196,
      "Ġsoil": 4197,
      "Ġplayer": 4198,
      "Ġsir": 4199,
      "Ġchirp": 4200,
      "ected": 4201,
      "Ġgrocer": 4202,
      "Ġkitty": 4203,
      "Ġaxe": 4204,
      "Ġrever": 4205,
      "iling": 4206,
      "ctory": 4207,
      "ĠInstead": 4208,
      "ories": 4209,
      "aces": 4210,
      "Ġpoints": 4211,
      "urch": 4212,
      "ues": 4213,
      "Ġbreeze": 4214,
      "Ġwipe": 4215,
      "Ġmotorcycle": 4216,
      "Ġtemple": 4217,
      "Ġherb": 4218,
      "Ġeagerly": 4219,
      "Ġyogurt": 4220,
      "Ġsneak": 4221,
      "Ġslept": 4222,
      "anic": 4223,
      "ĠRosie": 4224,
      "Ġfactory": 4225,
      "Ġminute": 4226,
      "ippery": 4227,
      "Ġshouting": 4228,
      "nament": 4229,
      "Ġslippery": 4230,
      "Ġattention": 4231,
      "Ġstud": 4232,
      "Ġmeeting": 4233,
      "Ġkayak": 4234,
      "Ġlawyer": 4235,
      "chair": 4236,
      "Ġblowing": 4237,
      "Ġfisherman": 4238,
      "chanic": 4239,
      "Ġperfectly": 4240,
      "Ġmixer": 4241,
      "Ġcane": 4242,
      "Ġnovel": 4243,
      "Ġornament": 4244,
      "Ġseeing": 4245,
      "Ġpoke": 4246,
      "Ġargue": 4247,
      "Ġglowing": 4248,
      "Max": 4249,
      "imi": 4250,
      "Ġmechanic": 4251,
      "Ġpit": 4252,
      "Ġfishing": 4253,
      "Ġsprayed": 4254,
      "Ġchickens": 4255,
      "Ġseas": 4256,
      "Ġoffer": 4257,
      "spap": 4258,
      "imney": 4259,
      "Ġvest": 4260,
      "Ġmaze": 4261,
      "Ġheaded": 4262,
      "Ġnewspap": 4263,
      "men": 4264,
      "Ġweather": 4265,
      "Ġtwink": 4266,
      "Ġarmchair": 4267,
      "Ġavocado": 4268,
      "Ġnapkin": 4269,
      "Ġskull": 4270,
      "ĠdonÃ¢": 4271,
      "Ġblankets": 4272,
      "Ġcelebrated": 4273,
      "Ġrot": 4274,
      "Ġsung": 4275,
      "Ġchimney": 4276,
      "ison": 4277,
      "place": 4278,
      "Ġglove": 4279,
      "Ġhopes": 4280,
      "Ġitch": 4281,
      "Ġzipper": 4282,
      "lass": 4283,
      "Ġgreedy": 4284,
      "iture": 4285,
      "Ġflame": 4286,
      "urniture": 4287,
      "Ġbaseball": 4288,
      "Ġsquirrels": 4289,
      "inarian": 4290,
      "Your": 4291,
      "eterinarian": 4292,
      "Ġfurniture": 4293,
      "aud": 4294,
      "Ġgolden": 4295,
      "Ġmystery": 4296,
      "Ġvideo": 4297,
      "Ġflea": 4298,
      "Ġtoil": 4299,
      "Ġshower": 4300,
      "Ġmoves": 4301,
      "ĠAb": 4302,
      "Ġveterinarian": 4303,
      "ĠClara": 4304,
      "Ġknob": 4305,
      "ceros": 4306,
      "Ġwelcomed": 4307,
      "Ġdoors": 4308,
      "Ġoyster": 4309,
      "Ġsniffed": 4310,
      "Ġpetals": 4311,
      "Ġwags": 4312,
      "Ġparent": 4313,
      "Ġkingdom": 4314,
      "ĠJul": 4315,
      "Ġfollows": 4316,
      "Ġtoilet": 4317,
      "Ġhar": 4318,
      "erc": 4319,
      "Ġble": 4320,
      "Ġhappens": 4321,
      "Ġcalls": 4322,
      "Ġmemories": 4323,
      "Ġbury": 4324,
      "Ġdiscu": 4325,
      "Ġfreez": 4326,
      "sing": 4327,
      "Ġmop": 4328,
      "ĠMimi": 4329,
      "Ġjunk": 4330,
      "Ġtear": 4331,
      "reek": 4332,
      "ĠGod": 4333,
      "Ġhanging": 4334,
      "Ġlawn": 4335,
      "Ġwriting": 4336,
      "Ġrhinoceros": 4337,
      "was": 4338,
      "Ġcreek": 4339,
      "ĠMay": 4340,
      "Ġlotion": 4341,
      "Ġapplaud": 4342,
      "mm": 4343,
      "Ġvroom": 4344,
      "Ġsticky": 4345,
      "unately": 4346,
      "Ġsurround": 4347,
      "washer": 4348,
      "elcome": 4349,
      "Ġreve": 4350,
      "Ġsque": 4351,
      "Ġfireplace": 4352,
      "Ġquack": 4353,
      "Ġthrowing": 4354,
      "Ġminer": 4355,
      "Ġdishwasher": 4356,
      "hero": 4357,
      "Ġexerc": 4358,
      "Ġcoal": 4359,
      "ĠSte": 4360,
      "ler": 4361,
      "Ġtrave": 4362,
      "Ġsuperhero": 4363,
      "Ġaeroplane": 4364,
      "lasses": 4365,
      "Ġweigh": 4366,
      "Ġprun": 4367,
      "Ġpopped": 4368,
      "Ġmedal": 4369,
      "Ġpassport": 4370,
      "Ġpine": 4371,
      "Ġshoulder": 4372,
      "Ġburned": 4373,
      "Ġsunglasses": 4374,
      "tain": 4375,
      "ĠSee": 4376,
      "Ġstaff": 4377,
      "Ġchurch": 4378,
      "Ġignored": 4379,
      "tress": 4380,
      "Ġshrugged": 4381,
      "Ġdear": 4382,
      "Ġveil": 4383,
      "Ġmattress": 4384,
      "Ġclassroom": 4385,
      "low": 4386,
      "Ġbother": 4387,
      "aws": 4388,
      "Ġig": 4389,
      "Ġigloo": 4390,
      "rosc": 4391,
      "Ġgrin": 4392,
      "orses": 4393,
      "Ġregret": 4394,
      "iday": 4395,
      "llie": 4396,
      "Ġcob": 4397,
      "Ġflapped": 4398,
      "Ġcollected": 4399,
      "Ġagre": 4400,
      "Ġworth": 4401,
      "Ġdancer": 4402,
      "ĠFirst": 4403,
      "Ġsailing": 4404,
      "Ġcrib": 4405,
      "roscope": 4406,
      "Ġtug": 4407,
      "Ġsince": 4408,
      "Ġhorses": 4409,
      "Ġinvest": 4410,
      "Ġbattery": 4411,
      "ring": 4412,
      "asis": 4413,
      "ores": 4414,
      "Ġcrow": 4415,
      "una": 4416,
      "ssible": 4417,
      "Ġmistakes": 4418,
      "Ġmicroscope": 4419,
      "Ġswamp": 4420,
      "Ġlanguage": 4421,
      "Ġfought": 4422,
      "Ġbouncing": 4423,
      "Ġpresents": 4424,
      "Ġseparate": 4425,
      "Ġoak": 4426,
      "Ġfloat": 4427,
      "Timmy": 4428,
      "Ġskirt": 4429,
      "Ġagree": 4430,
      "Ġinvestig": 4431,
      "ety": 4432,
      "Ġquietly": 4433,
      "Ġstreng": 4434,
      "Ġpastry": 4435,
      "rod": 4436,
      "right": 4437,
      "web": 4438,
      "inked": 4439,
      "Ġoasis": 4440,
      "ĠIÃ¢": 4441,
      "Sam": 4442,
      "case": 4443,
      "Ġinf": 4444,
      "Ġdressed": 4445,
      "Ġeaten": 4446,
      "Wait": 4447,
      "Ġcared": 4448,
      "Ġintrod": 4449,
      "Ġstable": 4450,
      "Ġmakeup": 4451,
      "Ġbeef": 4452,
      "Ġcandles": 4453,
      "Ġstrength": 4454,
      "vision": 4455,
      "ĠTrue": 4456,
      "Ġhol": 4457,
      "Ġblackboard": 4458,
      "Ġalarm": 4459,
      "Ġcaring": 4460,
      "Ġprevent": 4461,
      "Ġmagazine": 4462,
      "Ġnewspaper": 4463,
      "Ġholiday": 4464,
      "Because": 4465,
      "Ġapart": 4466,
      "Ġcrawling": 4467,
      "Ġsizes": 4468,
      "ĠSad": 4469,
      "Ġcobweb": 4470,
      "te": 4471,
      "medi": 4472,
      "Ġcell": 4473,
      "Ġstraight": 4474,
      "Ġmarried": 4475,
      "mediately": 4476,
      "Ġcomplain": 4477,
      "Ġscolded": 4478,
      "Ġchoice": 4479,
      "ggy": 4480,
      "Ġcoats": 4481,
      "Ġrooms": 4482,
      "Ġsnap": 4483,
      "Ġsqueezed": 4484,
      "Ġtrusted": 4485,
      "Ġinvestigate": 4486,
      "Ġfog": 4487,
      "anges": 4488,
      "Ġpist": 4489,
      "Ġpur": 4490,
      "Ġaccepted": 4491,
      "omes": 4492,
      "Ġgym": 4493,
      "Ġthumb": 4494,
      "ĠHelp": 4495,
      "chie": 4496,
      "ĠEach": 4497,
      "Ġtelevision": 4498,
      "Ġweep": 4499,
      "Ġberry": 4500,
      "Ġpistol": 4501,
      "Ġpra": 4502,
      "ĠLuck": 4503,
      "Ġradish": 4504,
      "Ġkisses": 4505,
      "Ġwhisper": 4506,
      "ab": 4507,
      "Ġsteam": 4508,
      "Qu": 4509,
      "ĠSnowy": 4510,
      "ction": 4511,
      "Ġsqueeze": 4512,
      "Ġattach": 4513,
      "Ġshrink": 4514,
      "Ġreaches": 4515,
      "Ġnews": 4516,
      "Ġticket": 4517,
      "ĠitÃ¢": 4518,
      "Ġyield": 4519,
      "Ġpuddles": 4520,
      "Ġsplashing": 4521,
      "Ġappro": 4522,
      "Ġperfu": 4523,
      "Ġceiling": 4524,
      "Ġrelaxed": 4525,
      "ĠLuckily": 4526,
      "oh": 4527,
      "Ġmusician": 4528,
      "Ġamazement": 4529,
      "Ġentered": 4530,
      "Ġrake": 4531,
      "Did": 4532,
      "Ġsigh": 4533,
      "Ġunif": 4534,
      "Ġjewelry": 4535,
      "Ġblood": 4536,
      "Ġblinked": 4537,
      "Ġletting": 4538,
      "Ġlicks": 4539,
      "ĠBuzz": 4540,
      "Ġwandered": 4541,
      "Ġteleph": 4542,
      "Ġbirdc": 4543,
      "Ġcastles": 4544,
      "Ġwigg": 4545,
      "sters": 4546,
      "Ġperfume": 4547,
      "ives": 4548,
      "Ġdelay": 4549,
      "Ġchairs": 4550,
      "ups": 4551,
      "Ġharb": 4552,
      "Ġuniform": 4553,
      "Ġbirdcage": 4554,
      "mend": 4555,
      "Ġstro": 4556,
      "Ġeasily": 4557,
      "ÅĵItÃ¢": 4558,
      "ising": 4559,
      "Ġyucky": 4560,
      "Ġopera": 4561,
      "Ġdemand": 4562,
      "Ġhelper": 4563,
      "Ġsuff": 4564,
      "Ġfiref": 4565,
      "Ġtelephone": 4566,
      "Sara": 4567,
      "Thanks": 4568,
      "Ġyoga": 4569,
      "house": 4570,
      "Ġhurting": 4571,
      "ĠRuby": 4572,
      "And": 4573,
      "ĠTina": 4574,
      "Ġserve": 4575,
      "omeday": 4576,
      "ommend": 4577,
      "Ġblueberries": 4578,
      "hic": 4579,
      "Ġrise": 4580,
      "Ġraz": 4581,
      "Ġbookcase": 4582,
      "Ġgrowled": 4583,
      "ĠWho": 4584,
      "chor": 4585,
      "Ġrecommend": 4586,
      "Ġpinch": 4587,
      "Ġfreezer": 4588,
      "sit": 4589,
      "Ġrequ": 4590,
      "Ġspear": 4591,
      "Ġclaws": 4592,
      "Ġkeeping": 4593,
      "Ġvehic": 4594,
      "Ġcliff": 4595,
      "Ġsandcastle": 4596,
      "Ġgrill": 4597,
      "Ġchess": 4598,
      "Ġcrash": 4599,
      "ĠHowever": 4600,
      "Ġbathe": 4601,
      "achel": 4602,
      "Ġwaffle": 4603,
      "Ġsub": 4604,
      "Ġpuzzles": 4605,
      "Ġmatches": 4606,
      "Ġplates": 4607,
      "Ġdisappear": 4608,
      "Is": 4609,
      "cakes": 4610,
      "nce": 4611,
      "Ġtucked": 4612,
      "Ġcrossed": 4613,
      "Ġmustache": 4614,
      "Ġtong": 4615,
      "Ġfile": 4616,
      "Ġward": 4617,
      "Ġsurprises": 4618,
      "ĠRachel": 4619,
      "Ġrail": 4620,
      "Ġconf": 4621,
      "Ġhearts": 4622,
      "Ġribbon": 4623,
      "Ġharbor": 4624,
      "ival": 4625,
      "Ġimprove": 4626,
      "Ġdried": 4627,
      "Ġtrade": 4628,
      "Ġplanes": 4629,
      "ĠKatie": 4630,
      "Ġwardrobe": 4631,
      "Ġsi": 4632,
      "ĠFreddy": 4633,
      "ived": 4634,
      "Ġtut": 4635,
      "Ġmint": 4636,
      "Ġwine": 4637,
      "alley": 4638,
      "Ġbelow": 4639,
      "Ġrequest": 4640,
      "Ġcabinet": 4641,
      "Ġbill": 4642,
      "ĠMe": 4643,
      "ionary": 4644,
      "Ġanchor": 4645,
      "Ġvac": 4646,
      "Ġsomeday": 4647,
      "raged": 4648,
      "Ġwarmth": 4649,
      "Ġtoes": 4650,
      "ĠPoppy": 4651,
      "Ġcaptain": 4652,
      "ictionary": 4653,
      "Ġrazor": 4654,
      "ĠFo": 4655,
      "Ġrefre": 4656,
      "Ġapron": 4657,
      "Ġpoked": 4658,
      "Ġincre": 4659,
      "Ġbleed": 4660,
      "Ġdictionary": 4661,
      "amber": 4662,
      "Ġvalley": 4663,
      "fortunately": 4664,
      "Ġscattered": 4665,
      "lier": 4666,
      "Ġwaste": 4667,
      "Ġpear": 4668,
      "Ġfuel": 4669,
      "Ġboot": 4670,
      "Ġspade": 4671,
      "Ġkneel": 4672,
      "Ġskills": 4673,
      "uch": 4674,
      "Ġmass": 4675,
      "ucture": 4676,
      "Ġsupply": 4677,
      "Ġknown": 4678,
      "Ġstructure": 4679,
      "Ġsafety": 4680,
      "ah": 4681,
      "Ġblouse": 4682,
      "ĠPeople": 4683,
      "Ġlaught": 4684,
      "Ġspending": 4685,
      "Ġlemonade": 4686,
      "Ġmuffin": 4687,
      "Ġlumber": 4688,
      "Ġspots": 4689,
      "Ġfollowing": 4690,
      "Ġdresses": 4691,
      "Ġexperience": 4692,
      "Ġinstr": 4693,
      "Ġcuddled": 4694,
      "Ġisn": 4695,
      "âĤ¬.": 4696,
      "Ġmoments": 4697,
      "Ġbalan": 4698,
      "ĠOllie": 4699,
      "ĠV": 4700,
      "Ġaut": 4701,
      "Ġsaving": 4702,
      "ĠSpike": 4703,
      "Ġlaughter": 4704,
      "ĠMilly": 4705,
      "Ġcub": 4706,
      "ĠPenny": 4707,
      "Ġfallen": 4708,
      "'.": 4709,
      "Ġsnapped": 4710,
      "Ġideas": 4711,
      "Ġunderstanding": 4712,
      "Yuck": 4713,
      "Ġmyself": 4714,
      "Ġfastest": 4715,
      "Ġprop": 4716,
      "Ġstrawberries": 4717,
      "Ġcale": 4718,
      "Ġairpl": 4719,
      "ampoo": 4720,
      "Ġcalend": 4721,
      "oral": 4722,
      "Ġworms": 4723,
      "Ġtornado": 4724,
      "Ġfest": 4725,
      "Ġraise": 4726,
      "Ġrow": 4727,
      "Ġmissile": 4728,
      "Ġjewels": 4729,
      "Ġcalendar": 4730,
      "Ġsneeze": 4731,
      "Ġremove": 4732,
      "Ġflutter": 4733,
      "Ġbeans": 4734,
      "Ġlugg": 4735,
      "ĠLiz": 4736,
      "icing": 4737,
      "Ġburied": 4738,
      "Ġluggage": 4739,
      "aped": 4740,
      "Ġtaller": 4741,
      "Ġyawned": 4742,
      "Ġweap": 4743,
      "Ġimmediately": 4744,
      "riger": 4745,
      "Ġbravely": 4746,
      "Ġsparkling": 4747,
      "Ġringing": 4748,
      "Ġenter": 4749,
      "Ġrefriger": 4750,
      "Ġbegged": 4751,
      "Ġreverse": 4752,
      "Ġrefrigerator": 4753,
      "Ġshampoo": 4754,
      "Ġrabbits": 4755,
      "Ġearlier": 4756,
      "Ġbumped": 4757,
      "ero": 4758,
      "Ġroot": 4759,
      "Ġbookshe": 4760,
      "Ġhits": 4761,
      "Ġdestroyed": 4762,
      "Ġlic": 4763,
      "ĠJoy": 4764,
      "Ġignore": 4765,
      "Ġinfant": 4766,
      "Ġport": 4767,
      "Ġsettled": 4768,
      "Welcome": 4769,
      "Ġhardly": 4770,
      "Ġdire": 4771,
      "Ġappreciate": 4772,
      "vet": 4773,
      "Ġhomes": 4774,
      "Ġwashing": 4775,
      "Ġgear": 4776,
      "Ġbeamed": 4777,
      "ĠZoe": 4778,
      "Ġpages": 4779,
      "ĠHave": 4780,
      "Ġrhy": 4781,
      "Ġsocks": 4782,
      "htray": 4783,
      "Ġashtray": 4784,
      "Ġdestination": 4785,
      "rm": 4786,
      "ĠCo": 4787,
      "ĠIts": 4788,
      "Ġchores": 4789,
      "Ġchamber": 4790,
      "Ġclimbs": 4791,
      "Ġprepare": 4792,
      "Ġtore": 4793,
      "Ġhanger": 4794,
      "anna": 4795,
      "Ġsigns": 4796,
      "'ve": 4797,
      "Ġcherry": 4798,
      "Ġbreathe": 4799,
      "Ġremain": 4800,
      "Ġtherm": 4801,
      "Ġtutor": 4802,
      "Ġpalm": 4803,
      "Ġreplace": 4804,
      "Ġsparkle": 4805,
      "Ġinvite": 4806,
      "Ġplays": 4807,
      "ission": 4808,
      "Ġdecorations": 4809,
      "Ġvanished": 4810,
      "Ġuniverse": 4811,
      "Ġtide": 4812,
      "reat": 4813,
      "ĠBetsy": 4814,
      "ari": 4815,
      "ĠEveryday": 4816,
      "Ġsolved": 4817,
      "Ġpermission": 4818,
      "Ġpraised": 4819,
      "Ġpride": 4820,
      "inky": 4821,
      "Ġvacation": 4822,
      "Ġtongue": 4823,
      "Ġbookshelf": 4824,
      "Ġpoison": 4825,
      "bbie": 4826,
      "Ġhills": 4827,
      "Ġadmir": 4828,
      "Ġdeeper": 4829,
      "Ġscooped": 4830,
      "Ġsits": 4831,
      "Ġscore": 4832,
      "Ġsparkles": 4833,
      "Ġexamine": 4834,
      "Ġstomach": 4835,
      "Ġthermomet": 4836,
      "nies": 4837,
      "Ġfestival": 4838,
      "Ġteaching": 4839,
      "Ġinsisted": 4840,
      "omob": 4841,
      "ĠNut": 4842,
      "Ġfloated": 4843,
      "Ġquiz": 4844,
      "Ġcrunch": 4845,
      "Ġscratch": 4846,
      "ĠSteve": 4847,
      "Ġalright": 4848,
      "ĠGood": 4849,
      "bbles": 4850,
      "Ġautomob": 4851,
      "osed": 4852,
      "Ġsimp": 4853,
      "xture": 4854,
      "Ġmailman": 4855,
      "Ġdifference": 4856,
      "Ġreceived": 4857,
      "Ġdaisy": 4858,
      "ops": 4859,
      "Ġbelieved": 4860,
      "Ġchirping": 4861,
      "Ġthermometer": 4862,
      "Ġbang": 4863,
      "Ġdigg": 4864,
      "Ġoranges": 4865,
      "Ġfloating": 4866,
      "Ġpatiently": 4867,
      "Ġpanic": 4868,
      "ents": 4869,
      "Ġstruggling": 4870,
      "Sp": 4871,
      "Ġachie": 4872,
      "asp": 4873,
      "Ġpulling": 4874,
      "Ġdigging": 4875,
      "ĠIs": 4876,
      "Ġhers": 4877,
      "Ġdrain": 4878,
      "Ġpunish": 4879,
      "Ġlicense": 4880,
      "Ġmodel": 4881,
      "Ġranch": 4882,
      "thm": 4883,
      "Ġprovide": 4884,
      "Ġdare": 4885,
      "Ġsty": 4886,
      "Ġupstairs": 4887,
      "Ġrepeat": 4888,
      "Ok": 4889,
      "ĠMat": 4890,
      "Ġgifts": 4891,
      "Ġencouraged": 4892,
      "Ġmeasured": 4893,
      "Ġbuzzing": 4894,
      "Ġrestore": 4895,
      "ĠChirp": 4896,
      "igail": 4897,
      "antly": 4898,
      "Ġshooting": 4899,
      "Ġjail": 4900,
      "Ġglo": 4901,
      "Ġcollection": 4902,
      "Ġneighborhood": 4903,
      "Ġinvit": 4904,
      "iers": 4905,
      "Ġbrain": 4906,
      "Ġguy": 4907,
      "Ġbathrobe": 4908,
      "Ġrhythm": 4909,
      "Ġbites": 4910,
      "Ġnone": 4911,
      "Ġequ": 4912,
      "Ġrespons": 4913,
      "bey": 4914,
      "osity": 4915,
      "sity": 4916,
      "Ġinclud": 4917,
      "ging": 4918,
      "Ġsew": 4919,
      "Ġgrape": 4920,
      "Ġcollecting": 4921,
      "Ġlabel": 4922,
      "Ġsausage": 4923,
      "Ġshot": 4924,
      "Ġworse": 4925,
      "ĠKing": 4926,
      "Ġpatterns": 4927,
      "Ġapproached": 4928,
      "Ġsubway": 4929,
      "rise": 4930,
      "Ġmention": 4931,
      "ĠAbigail": 4932,
      "Ġdiscuss": 4933,
      "Ġmall": 4934,
      "allen": 4935,
      "izard": 4936,
      "Ġelephants": 4937,
      "Ġweeks": 4938,
      "Ġwhip": 4939,
      "Ġtease": 4940,
      "Ġmassage": 4941,
      "Mmm": 4942,
      "Ġjazz": 4943,
      "Ġspaces": 4944,
      "Ġsprinkles": 4945,
      "xy": 4946,
      "Ġsore": 4947,
      "Ġmelted": 4948,
      "ĠFro": 4949,
      "Ġchallen": 4950,
      "Ġsetting": 4951,
      "Ġsupposed": 4952,
      "Ġsip": 4953,
      "Ġshed": 4954,
      "act": 4955,
      "Ġbuckle": 4956,
      "Ġsunrise": 4957,
      "Ġunite": 4958,
      "These": 4959,
      "Ġbillboard": 4960,
      "Ġgirls": 4961,
      "Ġtwisted": 4962,
      "Ġbricks": 4963,
      "ium": 4964,
      "Ġspit": 4965,
      "Ġleak": 4966,
      "Ġoper": 4967,
      "Ġexercise": 4968,
      "Ġitem": 4969,
      "Ġmeowed": 4970,
      "Ġflav": 4971,
      "Ġairplane": 4972,
      "Ġvehicle": 4973,
      "Ġwizard": 4974,
      "allow": 4975,
      "Ġparts": 4976,
      "Ġwatches": 4977,
      "Ġdiscovery": 4978,
      "Ġjogging": 4979,
      "Ġsoldiers": 4980,
      "fied": 4981,
      "Ġfut": 4982,
      "Ġhesit": 4983,
      "atch": 4984,
      "Ġbak": 4985,
      "Ġpoppy": 4986,
      "Ġfuture": 4987,
      "Ġpillows": 4988,
      "shing": 4989,
      "Ġhate": 4990,
      "Ġglowed": 4991,
      "Ġautomobile": 4992,
      "Ġgrey": 4993,
      "ude": 4994,
      "Ġuniversity": 4995,
      "Ġmarbles": 4996,
      "Ġgust": 4997,
      "Ġsport": 4998,
      "aspoon": 4999,
      "gy": 5000,
      "Ġmister": 5001,
      "Ġteaspoon": 5002,
      "Ġpigs": 5003,
      "Ġwhistled": 5004,
      "Ġgrocery": 5005,
      "Ġbrings": 5006,
      "Ġrush": 5007,
      "Ġfixing": 5008,
      "Ġgain": 5009,
      "Ġawe": 5010,
      "Ġevent": 5011,
      "ĠĠĠ": 5012,
      "Ġactually": 5013,
      "Ġheat": 5014,
      "Ġmanage": 5015,
      "Ġurge": 5016,
      "Ġlets": 5017,
      "Ġwarning": 5018,
      "Ġscratched": 5019,
      "ĠUnfortunately": 5020,
      "Ġsuffer": 5021,
      "Ġbeg": 5022,
      "Ġslice": 5023,
      "Ġremained": 5024,
      "Ġthrilled": 5025,
      "Ġburning": 5026,
      "Not": 5027,
      "cles": 5028,
      "asc": 5029,
      "ases": 5030,
      "Ġseats": 5031,
      "Ġgrinned": 5032,
      "bers": 5033,
      "ĠJam": 5034,
      "ÅĵNo": 5035,
      "Ġgrowl": 5036,
      "Ġpaused": 5037,
      "Ġsurrounded": 5038,
      "umble": 5039,
      "Ġproblems": 5040,
      "Ġsings": 5041,
      "Ġstad": 5042,
      "Ġlick": 5043,
      "ĠNutty": 5044,
      "Ġstadium": 5045,
      "ĠJe": 5046,
      "Ġchir": 5047,
      "Ġworks": 5048,
      "Ġzipped": 5049,
      "Would": 5050,
      "ĠSharing": 5051,
      "Ġtoe": 5052,
      "ĠCat": 5053,
      "Ġchirped": 5054,
      "ishing": 5055,
      "Ġspill": 5056,
      "ĠSomeone": 5057,
      "Ġnation": 5058,
      "Ġweapon": 5059,
      "Ġdrinking": 5060,
      "Ġdrinks": 5061,
      "Ġtwigs": 5062,
      "Ouch": 5063,
      "Ġcakes": 5064,
      "Ġrust": 5065,
      "emember": 5066,
      "Ġwhistling": 5067,
      "Ġscur": 5068,
      "Ġpossible": 5069,
      "Ġracing": 5070,
      "Ġordered": 5071,
      "Ġeff": 5072,
      "Ġbeat": 5073,
      "Ġstrang": 5074,
      "Ġtracks": 5075,
      "Ġhurric": 5076,
      "Ġobserve": 5077,
      "eed": 5078,
      "Ġlect": 5079,
      "Ġpaints": 5080,
      "Ġreceive": 5081,
      "Ġtour": 5082,
      "Ġduring": 5083,
      "Ġsneezed": 5084,
      "Ġmarching": 5085,
      "Ġprayed": 5086,
      "ĠLuna": 5087,
      "Ġwaffles": 5088,
      "Ġlaid": 5089,
      "Ġdecision": 5090,
      "Ġwatered": 5091,
      "Ġhated": 5092,
      "cious": 5093,
      "Ġours": 5094,
      "Ġsliding": 5095,
      "Ġmemory": 5096,
      "Ġx": 5097,
      "!\",": 5098,
      "ĠEl": 5099,
      "Ġwherever": 5100,
      "Ġpotatoes": 5101,
      "Ġcontain": 5102,
      "Ġscreams": 5103,
      "Ġlecture": 5104,
      "Ġraised": 5105,
      "Ġwaits": 5106,
      "Ready": 5107,
      "Ġcrunchy": 5108,
      "Ġspaceship": 5109,
      "Ġpetted": 5110,
      "Ġspoons": 5111,
      "Ġcartoons": 5112,
      "Ġinvitation": 5113,
      "Ġhurricane": 5114,
      "!'": 5115,
      "Ġearthqu": 5116,
      "Ġcrashed": 5117,
      "Ġolive": 5118,
      "Ġsatis": 5119,
      "Ġlily": 5120,
      "Ġwarn": 5121,
      "fy": 5122,
      "walk": 5123,
      "Ġfasc": 5124,
      "ities": 5125,
      "Ġflood": 5126,
      "Ġskipping": 5127,
      "Ġpeanuts": 5128,
      "Ġstrangers": 5129,
      "Ġtomatoes": 5130,
      "Ġfed": 5131,
      "Ġswims": 5132,
      "Ġcurled": 5133,
      "Ġoperation": 5134,
      "oved": 5135,
      "Ġmitten": 5136,
      "Ġfireworks": 5137,
      "Ġpupp": 5138,
      "Ġsunlight": 5139,
      "Ġrecognized": 5140,
      "ÅĵThatÃ¢": 5141,
      "Ġmineral": 5142,
      "cc": 5143,
      "do": 5144,
      "Ġremem": 5145,
      "Ġbeds": 5146,
      "ĠNot": 5147,
      "Ġstrip": 5148,
      "Ġmeasuring": 5149,
      "hest": 5150,
      "Ġvel": 5151,
      "Ġcircus": 5152,
      "Ġchewed": 5153,
      "ĠJan": 5154,
      "Ġdisagreed": 5155,
      "Ġremembers": 5156,
      "Ġvelvet": 5157,
      "nday": 5158,
      "ĠSunday": 5159,
      "ĠAnne": 5160,
      "Ġsafari": 5161,
      "Sh": 5162,
      "Ġplanted": 5163,
      "Yum": 5164,
      "Ġkindly": 5165,
      "ĠFrank": 5166,
      "ĠChirpy": 5167,
      "ipment": 5168,
      "Ġtalent": 5169,
      "Ġcontinue": 5170,
      "Ġlands": 5171,
      "Ġmouths": 5172,
      "Ġbuildings": 5173,
      "Ġsidewalk": 5174,
      "Ġeasier": 5175,
      "Ġprice": 5176,
      "Ġadmiring": 5177,
      "Ġequipment": 5178,
      "mother": 5179,
      "Ġcomfy": 5180,
      "Ġwond": 5181,
      "Ġmonsters": 5182,
      "Ġbrick": 5183,
      "Ġbes": 5184,
      "Ġsecrets": 5185,
      "ÅĵIÃ¢": 5186,
      "bbled": 5187,
      "Ġattached": 5188,
      "Ġfascin": 5189,
      "Ġmeow": 5190,
      "Ġglitter": 5191,
      "Ġappear": 5192,
      "ĠRemy": 5193,
      "Ġmountains": 5194,
      "Ġblueberry": 5195,
      "Ġhappiest": 5196,
      "Ġtremb": 5197,
      "Ġflap": 5198,
      "Ġfet": 5199,
      "Ġescaped": 5200,
      "Ġfolded": 5201,
      "Ġrefreshed": 5202,
      "Ġbones": 5203,
      "Ġclearing": 5204,
      "Really": 5205,
      "Ġeffort": 5206,
      "seek": 5207,
      "ĠLetÃ¢": 5208,
      "ĠChr": 5209,
      "Ġselling": 5210,
      "\",": 5211,
      "Ġwre": 5212,
      "Ġcompany": 5213,
      "Ġbringing": 5214,
      "son": 5215,
      "Ġgaz": 5216,
      "Ġapologize": 5217,
      "ĠJosh": 5218,
      "Ġprepared": 5219,
      "Ġgloves": 5220,
      "Ġrevealed": 5221,
      "ĠSadly": 5222,
      "Ġearthquake": 5223,
      "ĠOl": 5224,
      "ĠMoral": 5225,
      "Ġofficer": 5226,
      "ĠUncle": 5227,
      "Ġlips": 5228,
      "ĠAn": 5229,
      "Ġbeside": 5230,
      "Ġwid": 5231,
      "Ġobey": 5232,
      "Ġnavy": 5233,
      "Ġonwards": 5234,
      "Ġweren": 5235,
      "Ġturning": 5236,
      "Ġtrapped": 5237,
      "Ġbleeding": 5238,
      "Ġcopper": 5239,
      "Ġanytime": 5240,
      "Ġsimple": 5241,
      "Ġweight": 5242,
      "Ġdoggy": 5243,
      "Ġmenu": 5244,
      "Ġsix": 5245,
      "Ġmuddy": 5246,
      "Ġguessed": 5247,
      "Ġleather": 5248,
      "Ġstripes": 5249,
      "enty": 5250,
      "Ġprecious": 5251,
      "Ġreminder": 5252,
      "ĠQu": 5253,
      "Ġladyb": 5254,
      "Ġpets": 5255,
      "Ġwanting": 5256,
      "Ġdinosaurs": 5257,
      "Ġwaist": 5258,
      "Ġslip": 5259,
      "ĠSunny": 5260,
      "zag": 5261,
      "Ġgotten": 5262,
      "Ġsucceeded": 5263,
      "Ġhist": 5264,
      "Ġallow": 5265,
      "Ġbye": 5266,
      "ĠChl": 5267,
      "Ġcatching": 5268,
      "Ġsteel": 5269,
      "ĠJamie": 5270,
      "Ġhistory": 5271,
      "aded": 5272,
      "Ġkeeper": 5273,
      "Ġsettle": 5274,
      "ĠBy": 5275,
      "Ġpeered": 5276,
      "Ġfirefight": 5277,
      "Will": 5278,
      "ĠBeth": 5279,
      "ĠDav": 5280,
      "Ġbrand": 5281,
      "Ġcuddle": 5282,
      "Spot": 5283,
      "To": 5284,
      "Ġfash": 5285,
      "Ġoats": 5286,
      "ÅĵWe": 5287,
      "joyed": 5288,
      "Ġserved": 5289,
      "Ġeveryday": 5290,
      "Ġoverjoyed": 5291,
      "Ġvillag": 5292,
      "Ġfreeze": 5293,
      "idges": 5294,
      "Ġwisdom": 5295,
      "ĠChloe": 5296,
      "ĠTiny": 5297,
      "Ġpies": 5298,
      "Ġgained": 5299,
      "Ġscoop": 5300,
      "ÅĵThank": 5301,
      "Ġrested": 5302,
      "ĠFloppy": 5303,
      "Ġpermit": 5304,
      "Ġstyle": 5305,
      "Ġrained": 5306,
      "Ġperched": 5307,
      "Ġsoared": 5308,
      "Ġeats": 5309,
      "Ġpedal": 5310,
      "ĠSure": 5311,
      "Ġcutting": 5312,
      "Ġwonders": 5313,
      "ĠDavid": 5314,
      "Ġimage": 5315,
      "Ġtastes": 5316,
      "Ġshopping": 5317,
      "amb": 5318,
      "Ġprinter": 5319,
      "Ġbowed": 5320,
      "ĠKe": 5321,
      "Ġcomforted": 5322,
      "Ġeagle": 5323,
      "One": 5324,
      "igzag": 5325,
      "ĠAm": 5326,
      "Ġwooden": 5327,
      "Ġshadows": 5328,
      "Ġpupil": 5329,
      "Ġbridges": 5330,
      "Ġrang": 5331,
      "ĠRa": 5332,
      "Ġwhatever": 5333,
      "Ġvoices": 5334,
      "Ġsnowball": 5335,
      "Ġanswers": 5336,
      "ĠLucky": 5337,
      "Ġfamil": 5338,
      "Ġacorns": 5339,
      "mble": 5340,
      "rs": 5341,
      "Ġstealing": 5342,
      "ĠBig": 5343,
      "Ġfashion": 5344,
      "Ġdecides": 5345,
      "Ġvisiting": 5346,
      "anta": 5347,
      "Ġdrag": 5348,
      "Ġhurried": 5349,
      "Ġcostumes": 5350,
      "Ġstitch": 5351,
      "ĠSpark": 5352,
      "Ġbene": 5353,
      "ĠSomething": 5354,
      "Ġbrushed": 5355,
      "Ġagreement": 5356,
      "Ġdownstairs": 5357,
      "Ġwrites": 5358,
      "Ġnails": 5359,
      "oming": 5360,
      "Ġbreaking": 5361,
      "Ġemerg": 5362,
      "ien": 5363,
      "nie": 5364,
      "ĠNina": 5365,
      "Ġcrept": 5366,
      "len": 5367,
      "Ġexact": 5368,
      "Ġstruggled": 5369,
      "Ġcreation": 5370,
      "Ġresponsible": 5371,
      "Ġvillagers": 5372,
      "ĠHoppy": 5373,
      "ĠHanna": 5374,
      "Ġripped": 5375,
      "Ġtwirling": 5376,
      "Ġsadness": 5377,
      "Ġcuriosity": 5378,
      "Ġdisturbed": 5379,
      "Ġbeneath": 5380,
      "ding": 5381,
      "icorn": 5382,
      "Ġunderground": 5383,
      "ĠPr": 5384,
      "Ġunicorn": 5385,
      "Ġemergen": 5386,
      "Ġpitch": 5387,
      "Ġtip": 5388,
      "Ġbun": 5389,
      "Ġweighed": 5390,
      "Ġtremble": 5391,
      "izing": 5392,
      "Ġaccidents": 5393,
      "neath": 5394,
      "Ġmice": 5395,
      "ĠThese": 5396,
      "Ġpancakes": 5397,
      "ĠJulie": 5398,
      "ĠLu": 5399,
      "gen": 5400,
      "ĠSuzy": 5401,
      "Ġchef": 5402,
      "Ġfiremen": 5403,
      "Ġcomple": 5404,
      "Ġpracticing": 5405,
      "ĠBubbles": 5406,
      "ays": 5407,
      "ĠSanta": 5408,
      "ĠCar": 5409,
      "iggy": 5410,
      "isten": 5411,
      "Ġneighbors": 5412,
      "ĠBetty": 5413,
      "terday": 5414,
      "Ġexamined": 5415,
      "Ġvict": 5416,
      "ĠTilly": 5417,
      "Ġdoctors": 5418,
      "Ġgrandmother": 5419,
      "xygen": 5420,
      "Ġbare": 5421,
      "Ġdied": 5422,
      "Ġdecorated": 5423,
      "Ġlemons": 5424,
      "Ġargued": 5425,
      "ira": 5426,
      "ĠLul": 5427,
      "Ġknelt": 5428,
      "Ġspiders": 5429,
      "Ġclaps": 5430,
      "Ġbegin": 5431,
      "Ġowned": 5432,
      "Ġnetwork": 5433,
      "Ġrides": 5434,
      "Ġpadd": 5435,
      "ĠLike": 5436,
      "Ġsting": 5437,
      "Ġsoak": 5438,
      "ĠPip": 5439,
      "ales": 5440,
      "ĠCla": 5441,
      "Ġrecognize": 5442,
      "Ġladybug": 5443,
      "Ġrealize": 5444,
      "Ġpeel": 5445,
      "Ġyelling": 5446,
      "Ġbeha": 5447,
      "Ġactiv": 5448,
      "rr": 5449,
      "ishes": 5450,
      "Ġbend": 5451,
      "Ġarea": 5452,
      "ĠJessie": 5453,
      "anny": 5454,
      "Ġinch": 5455,
      "Ġkeeps": 5456,
      "Ġzero": 5457,
      "Goodbye": 5458,
      "ĠMil": 5459,
      "Ġrele": 5460,
      "ĠRob": 5461,
      "Ġpinched": 5462,
      "She": 5463,
      "ĠAd": 5464,
      "Ġsnail": 5465,
      "Ġsitu": 5466,
      "Ġmission": 5467,
      "Ġkeys": 5468,
      "Ġencourage": 5469,
      "Ġprune": 5470,
      "uing": 5471,
      "ashed": 5472,
      "va": 5473,
      "ffic": 5474,
      "Ġwinning": 5475,
      "ley": 5476,
      "Ġexit": 5477,
      "rol": 5478,
      "Ġwondering": 5479,
      "Ġruin": 5480,
      "mare": 5481,
      "ĠYes": 5482,
      "Ġwagging": 5483,
      "ĠBir": 5484,
      "Ġjogged": 5485,
      "Ġtraffic": 5486,
      "Ġaccom": 5487,
      "Ġexactly": 5488,
      "ĠAbby": 5489,
      "Ġloose": 5490,
      "Ġzooming": 5491,
      "Ġstirring": 5492,
      "Ġolives": 5493,
      "Ġstudied": 5494,
      "Ġlines": 5495,
      "ĠFor": 5496,
      "Ġzigzag": 5497,
      "ĠKay": 5498,
      "Ġpastel": 5499,
      "Ġtune": 5500,
      "Ġcape": 5501,
      "riage": 5502,
      "Ġsneaked": 5503,
      "Ġtugged": 5504,
      "Ġrelease": 5505,
      "Ġtickets": 5506,
      "Ġsatisfied": 5507,
      "Ġwreck": 5508,
      "ib": 5509,
      "Ġoxygen": 5510,
      "Ġeight": 5511,
      "Ġsiren": 5512,
      "Ġbunnies": 5513,
      "looking": 5514,
      "gers": 5515,
      "Ġunderneath": 5516,
      "Ġunlocked": 5517,
      "Or": 5518,
      "Daddy": 5519,
      "Ġago": 5520,
      "Ġnightmare": 5521,
      "Ġbuckets": 5522,
      "Ġchallenge": 5523,
      "Ye": 5524,
      "Ġoutdo": 5525,
      "Ġslapped": 5526,
      "Ġlandsc": 5527,
      "Ġhonk": 5528,
      "Ġinstruct": 5529,
      "ĠClaire": 5530,
      "Ġfascinated": 5531,
      "Ġcaut": 5532,
      "Ġnicer": 5533,
      "Ġaccompl": 5534,
      "Ġweb": 5535,
      "ĠStop": 5536,
      "Ġshivering": 5537,
      "ĠMart": 5538,
      "Ġloving": 5539,
      "Ġpockets": 5540,
      "Ġstretching": 5541,
      "Ġpiles": 5542,
      "Ġpunished": 5543,
      "ĠHannah": 5544,
      "zen": 5545,
      "Ġdent": 5546,
      "Ġmittens": 5547,
      "ĠCarl": 5548,
      "Ġplanned": 5549,
      "Ġprotected": 5550,
      "Ġsolut": 5551,
      "Ġneighbourhood": 5552,
      "Ġcompetition": 5553,
      "Ġdraws": 5554,
      "Ġgathering": 5555,
      "Ġproperly": 5556,
      "ĠLulu": 5557,
      "ĠAfterwards": 5558,
      "Ġitems": 5559,
      "ĠHa": 5560,
      "Ġcontrol": 5561,
      "Ġsupplies": 5562,
      "Ġemergency": 5563,
      "Ġlied": 5564,
      "Ġshoulders": 5565,
      "ĠThom": 5566,
      "indy": 5567,
      "Ġparked": 5568,
      "Ġtravell": 5569,
      "ĠMad": 5570,
      "Ġsights": 5571,
      "Ġsoaring": 5572,
      "Ġmarkers": 5573,
      "ĠSusan": 5574,
      "Ġlandscape": 5575,
      "ik": 5576,
      "kins": 5577,
      "ÅĵCan": 5578,
      "Ġperfor": 5579,
      "ĠItÃ¢": 5580,
      "Ġpearl": 5581,
      "ÅĵDon": 5582,
      "Ġruler": 5583,
      "Ġdeser": 5584,
      "ĠCoco": 5585,
      "Ġfetch": 5586,
      "ĠOut": 5587,
      "Ġfrosting": 5588,
      "Ġbouncy": 5589,
      "Ġann": 5590,
      "ica": 5591,
      "Ġstruck": 5592,
      "Ġtouching": 5593,
      "Ġinstructions": 5594,
      "Ġburrow": 5595,
      ".'": 5596,
      "Ġpeaches": 5597,
      "Ġprinted": 5598,
      "Ġloaded": 5599,
      "Happy": 5600,
      "ĠMatt": 5601,
      "inda": 5602,
      "Ġsisters": 5603,
      "thank": 5604,
      "Ġfoods": 5605,
      "Ġmuscles": 5606,
      "Ġintroduc": 5607,
      "Ġbarely": 5608,
      "ÅĵLook": 5609,
      "Ġmarks": 5610,
      "bbing": 5611,
      "Ġopin": 5612,
      "Ġstole": 5613,
      "Ġcrumb": 5614,
      "Ġdrift": 5615,
      "Ġmixing": 5616,
      "Ġincrease": 5617,
      "Ġvictory": 5618,
      "Ġtonight": 5619,
      "Ġdam": 5620,
      "agull": 5621,
      "Ġfrozen": 5622,
      "Ġrainbows": 5623,
      "Ġapplauded": 5624,
      "Ġmast": 5625,
      "Ġbudge": 5626,
      "Ġsilence": 5627,
      "bric": 5628,
      "ury": 5629,
      "Ġsides": 5630,
      "Ġeast": 5631,
      "Ġfabric": 5632,
      "Ġstrings": 5633,
      "Ġrocked": 5634,
      "Ġune": 5635,
      "ĠRabbit": 5636,
      "ĠDid": 5637,
      "Ġourselves": 5638,
      "ĠThomas": 5639,
      "Mama": 5640,
      "Ġteasing": 5641,
      "Ġrubbing": 5642,
      "Ġvent": 5643,
      "Ġgiggling": 5644,
      "âĤ¬âĢĿ": 5645,
      "Ġsoaked": 5646,
      "Ġguns": 5647,
      "Ġbank": 5648,
      "ĠMira": 5649,
      "Ġseagull": 5650,
      "Ġoutdoors": 5651,
      "ena": 5652,
      "Ġpretti": 5653,
      "aky": 5654,
      "Ġplanets": 5655,
      "Ġprettiest": 5656,
      "Ġbottles": 5657,
      "Ġbrushes": 5658,
      "Ġcompleted": 5659,
      "Ġreleased": 5660,
      "edding": 5661,
      "Ġchases": 5662,
      "Ġsweeties": 5663,
      "Ġpouring": 5664,
      "uesday": 5665,
      "Ġscurried": 5666,
      "Ġdragons": 5667,
      "Ġbunch": 5668,
      "Ġvowed": 5669,
      "Ġpears": 5670,
      "Ġprints": 5671,
      "Ġseason": 5672,
      "oed": 5673,
      "Ġ1": 5674,
      "Ġwest": 5675,
      "ĠTuesday": 5676,
      "Ġstair": 5677,
      "Ġmovies": 5678,
      "Ġsurface": 5679,
      "Ġpurred": 5680,
      "bies": 5681,
      "Ġtim": 5682,
      "ĠHop": 5683,
      "Ġpoking": 5684,
      "Ġbloomed": 5685,
      "Ġdemanded": 5686,
      "nes": 5687,
      "ĠletÃ¢": 5688,
      "Ġbaked": 5689,
      "Ġtickle": 5690,
      "Ġintroduce": 5691,
      "ux": 5692,
      "Ġmater": 5693,
      "Ġsteep": 5694,
      "Ġdiscovering": 5695,
      "Ġcamping": 5696,
      "Ġmateri": 5697,
      "Ġbroom": 5698,
      "imy": 5699,
      "Ġdragged": 5700,
      "Ġwinner": 5701,
      "Ġmuffins": 5702,
      "uctantly": 5703,
      "Ġsighs": 5704,
      "ĠJeff": 5705,
      "Ex": 5706,
      "ednes": 5707,
      "ĠJon": 5708,
      "Ġcatches": 5709,
      "Ġbabies": 5710,
      "ednesday": 5711,
      "ĠJu": 5712,
      "ĠWednesday": 5713,
      "Ġmachines": 5714,
      "Ġurged": 5715,
      "Ġmentioned": 5716,
      "Mia": 5717,
      "zie": 5718,
      "Ġlux": 5719,
      "ĠSlow": 5720,
      "ĠGr": 5721,
      "Ġherbs": 5722,
      "Ġda": 5723,
      "icked": 5724,
      "ÅĵHello": 5725,
      "ÅĵThis": 5726,
      "Ġbeard": 5727,
      "Ġroaring": 5728,
      "Ġsinger": 5729,
      "Ġscreaming": 5730,
      "Ġstamps": 5731,
      "Ġconfident": 5732,
      "ora": 5733,
      "Ġcones": 5734,
      "ĠJenna": 5735,
      "Ġproject": 5736,
      "Ġinterest": 5737,
      "Ġguys": 5738,
      "ĠLou": 5739,
      "Ġdrives": 5740,
      "Ġhorns": 5741,
      "jam": 5742,
      "Ġpretends": 5743,
      "avi": 5744,
      "Ġpowers": 5745,
      "ĠJones": 5746,
      "Ġtexture": 5747,
      "though": 5748,
      "Ġpassing": 5749,
      "ern": 5750,
      "Ġcontest": 5751,
      "Ġribbons": 5752,
      "Ġcrowd": 5753,
      "Ġwound": 5754,
      "ĠBoth": 5755,
      "Ġgoals": 5756,
      "ason": 5757,
      "Ġranger": 5758,
      "Ġchips": 5759,
      "Ġstudying": 5760,
      "Ġbalancing": 5761,
      "Ah": 5762,
      "Ġmatched": 5763,
      "Ġexpect": 5764,
      "Ġresult": 5765,
      "Ġsausages": 5766,
      "Ġdisagree": 5767,
      "ĠAdam": 5768,
      "Ġcal": 5769,
      "Ġpout": 5770,
      "ĠLizzy": 5771,
      "Ġsorted": 5772,
      "Ġmarriage": 5773,
      "Ġhighest": 5774,
      "Ġpebbles": 5775,
      "Ġcurly": 5776,
      "ĠPipp": 5777,
      "Ġsuitc": 5778,
      "Ġkicking": 5779,
      "Ġgazed": 5780,
      "Ġshock": 5781,
      "Ġforgi": 5782,
      "Ġcuts": 5783,
      "Ġreluctantly": 5784,
      "Ġpatience": 5785,
      "Ġshelves": 5786,
      "Ġshivered": 5787,
      "Ġge": 5788,
      "Ġhugging": 5789,
      "Ġchat": 5790,
      "Ġstrike": 5791,
      "Ġrepeated": 5792,
      "ĠLinda": 5793,
      "fit": 5794,
      "Ġyouth": 5795,
      "Ġwaiter": 5796,
      "ĠZoom": 5797,
      "Ġcurtains": 5798,
      "Ġfault": 5799,
      "Ġacted": 5800,
      "Ġsway": 5801,
      "Ġwedding": 5802,
      "Ġgrant": 5803,
      "Ġflags": 5804,
      "Ġplenty": 5805,
      "die": 5806,
      "Ġti": 5807,
      "Ġfigured": 5808,
      "ĠLuke": 5809,
      "xp": 5810,
      "ĠBye": 5811,
      "Ġgoodnight": 5812,
      "ĠCindy": 5813,
      "Ġmatching": 5814,
      "ĠAlways": 5815,
      "Somet": 5816,
      "Ġthreat": 5817,
      "Ġpaintings": 5818,
      "Ġtwinkling": 5819,
      "Ġfart": 5820,
      "Ġoutfit": 5821,
      "Ġincluded": 5822,
      "Ġcautious": 5823,
      "Ġslimy": 5824,
      "Ġpoliceman": 5825,
      "Ġchewing": 5826,
      "eezing": 5827,
      "Ġdusty": 5828,
      "Ġregretted": 5829,
      "Joh": 5830,
      "esome": 5831,
      "Ġtheirs": 5832,
      "Ġsweets": 5833,
      "Ġentire": 5834,
      "Ġsolution": 5835,
      "Ġintroduced": 5836,
      "Remember": 5837,
      "ĠMon": 5838,
      "Ġtowels": 5839,
      "irts": 5840,
      "Ġsorting": 5841,
      "Ġblooming": 5842,
      "Ġpenguins": 5843,
      "Ġsituation": 5844,
      "Ġthro": 5845,
      "usted": 5846,
      "ledge": 5847,
      "Ġrecorded": 5848,
      "xpected": 5849,
      "Ġstare": 5850,
      "Ġguest": 5851,
      "Ġinclude": 5852,
      "ĠKayla": 5853,
      "ĠSlowly": 5854,
      "Ġthroat": 5855,
      "ivery": 5856,
      "you": 5857,
      "Ġflat": 5858,
      "Ġrocking": 5859,
      "ults": 5860,
      "Ġachieve": 5861,
      "hins": 5862,
      "uly": 5863,
      "Ġunexpected": 5864,
      "Uh": 5865,
      "bl": 5866,
      "mas": 5867,
      "Ġheel": 5868,
      "Ġknowledge": 5869,
      "bert": 5870,
      "ĠChrist": 5871,
      "ĠLizz": 5872,
      "ĠcanÃ¢": 5873,
      "ĠSuzie": 5874,
      "Ġprunes": 5875,
      "ĠMilo": 5876,
      "Ġdentist": 5877,
      "igi": 5878,
      "Ġblink": 5879,
      "Ġsticking": 5880,
      "Ġcheering": 5881,
      "Ġlibrarian": 5882,
      "Ġrescued": 5883,
      "Ġagrees": 5884,
      "Ġstaring": 5885,
      "Ġtruly": 5886,
      "Ġsnugg": 5887,
      "Ġspraying": 5888,
      "cuse": 5889,
      "Ġroots": 5890,
      "Ġawesome": 5891,
      "Ġluxury": 5892,
      "jamas": 5893,
      "vin": 5894,
      "Ġcompletely": 5895,
      "Yeah": 5896,
      "ÅĵDonÃ¢": 5897,
      "iar": 5898,
      "hell": 5899,
      "Ġast": 5900,
      "itely": 5901,
      "Ġcaused": 5902,
      "Ġhomework": 5903,
      "Ġwritten": 5904,
      "ĠAunt": 5905,
      "Ġmotion": 5906,
      "...": 5907,
      "Ġlap": 5908,
      "Ġlearns": 5909,
      "Ġuses": 5910,
      "Ġgrowling": 5911,
      "Ġarguing": 5912,
      "Ġboom": 5913,
      "Ġimportance": 5914,
      "Ġcreating": 5915,
      "Ġzookeeper": 5916,
      "ĠChristmas": 5917,
      "Al": 5918,
      "Ġbravery": 5919,
      "Ġwandering": 5920,
      "Ġtrembling": 5921,
      "Excuse": 5922,
      "ĠLizzie": 5923,
      "hello": 5924,
      "Ġdared": 5925,
      "Ġshined": 5926,
      "ĠJazz": 5927,
      "Ġexha": 5928,
      "Ġscales": 5929,
      "Ġrolls": 5930,
      "Ġroads": 5931,
      "go": 5932,
      "ĠMel": 5933,
      "Ġslap": 5934,
      "Ġdelivery": 5935,
      "Ġworkers": 5936,
      "Ġcrackers": 5937,
      "njoy": 5938,
      "vers": 5939,
      "oys": 5940,
      "Ġarrive": 5941,
      "Ġdirection": 5942,
      "ĠTess": 5943,
      "immer": 5944,
      "ÅĵOh": 5945,
      "Ġreaching": 5946,
      "Ġsafer": 5947,
      "Ġreplac": 5948,
      "Ġbead": 5949,
      "Ġkneeled": 5950,
      "Ġbelly": 5951,
      "asm": 5952,
      "Ġsnakes": 5953,
      "Ġwires": 5954,
      "Ġscra": 5955,
      "Ġcomm": 5956,
      "ĠNick": 5957,
      "Ġstruggle": 5958,
      "opes": 5959,
      "boat": 5960,
      "Ġexpected": 5961,
      "Ġexhausted": 5962,
      "une": 5963,
      "Ġhealed": 5964,
      "Ġorganizing": 5965,
      "Ġventured": 5966,
      "Gra": 5967,
      "Ġwink": 5968,
      "Ġmane": 5969,
      "Mum": 5970,
      "Ġlamb": 5971,
      "Ġbecoming": 5972,
      "Ġgreet": 5973,
      "ĠGigi": 5974,
      "lowers": 5975,
      "Ġcrumbs": 5976,
      "Mummy": 5977,
      "ences": 5978,
      "lee": 5979,
      "ĠLena": 5980,
      "Ġflames": 5981,
      "Ġusual": 5982,
      "ĠLeave": 5983,
      "Ġcrabs": 5984,
      "Ġdolphins": 5985,
      "ĠEx": 5986,
      "ĠJohnson": 5987,
      "oline": 5988,
      "Ġpajamas": 5989,
      "Ġinviting": 5990,
      "ĠMick": 5991,
      "Ġworries": 5992,
      "angled": 5993,
      "Ġleader": 5994,
      "Ġpencils": 5995,
      "When": 5996,
      "irm": 5997,
      "Ġunited": 5998,
      "Ġowners": 5999,
      "Ġstorekeeper": 6000,
      "ĠTwo": 6001,
      "ĠMa": 6002,
      "ÅĵWhy": 6003,
      "ĠPandy": 6004,
      "Ġpacking": 6005,
      "Ġrelief": 6006,
      "ĠBuzzy": 6007,
      "Ġbaker": 6008,
      "Ġheav": 6009,
      "ĠDolly": 6010,
      "ĠHappy": 6011,
      "John": 6012,
      "ĠY": 6013,
      "Ġboo": 6014,
      "Ġfirm": 6015,
      "Ġpolishing": 6016,
      "Ġpots": 6017,
      "ĠJulia": 6018,
      "Ġtraveled": 6019,
      "Ġtimer": 6020,
      "Ġcash": 6021,
      "Ġfairies": 6022,
      "Ġsuitcase": 6023,
      "ĠyouÃ¢": 6024,
      "Ġcloses": 6025,
      "ĠNan": 6026,
      "Ġcough": 6027,
      "Ġworker": 6028,
      "Ġpartic": 6029,
      "Ġrockets": 6030,
      "ĠMomo": 6031,
      "Ġpatted": 6032,
      "Ġtrips": 6033,
      "Ġvanish": 6034,
      "Ġradishes": 6035,
      "Ġpeeking": 6036,
      "Ġdirect": 6037,
      "Just": 6038,
      "ĠwasnÃ¢": 6039,
      "Ġvalued": 6040,
      "Ġprayer": 6041,
      "Ġseems": 6042,
      "Ġquacked": 6043,
      "ĠQuack": 6044,
      "Ġfara": 6045,
      "Ġstartled": 6046,
      "ĠFinn": 6047,
      "Ġmisses": 6048,
      "ĠFox": 6049,
      "Ġfaraway": 6050,
      "Ġcent": 6051,
      "iding": 6052,
      "Ġcountryside": 6053,
      "ĠFriend": 6054,
      "Ġmelting": 6055,
      "Ġphotos": 6056,
      "Ġitchy": 6057,
      "Ġusually": 6058,
      "ĠJessica": 6059,
      "Ġgroceries": 6060,
      "Ġflavor": 6061,
      "Ġcans": 6062,
      "Ġrestored": 6063,
      "Ġreveal": 6064,
      "Ġwiggled": 6065,
      "Ġinterested": 6066,
      "Sometimes": 6067,
      "ords": 6068,
      "Ġstern": 6069,
      "Ġremoved": 6070,
      "Ġfuzzy": 6071,
      "Ġbalanced": 6072,
      "ĠTara": 6073,
      "ĠChe": 6074,
      "Ġseesaw": 6075,
      "Ġresting": 6076,
      "ĠBeing": 6077,
      "Ġscru": 6078,
      "Ġknights": 6079,
      "Ġstem": 6080,
      "Ġchuck": 6081,
      "Ġopening": 6082,
      "Ġteaches": 6083,
      "Bad": 6084,
      "Fine": 6085,
      "Ġrisk": 6086,
      "Ġwrist": 6087,
      "Ġcracked": 6088,
      "Ġwinked": 6089,
      "Ġopinion": 6090,
      "Ġcous": 6091,
      "ids": 6092,
      "Ġleap": 6093,
      "Ġeverybody": 6094,
      "Ġdesert": 6095,
      "Ġsneaky": 6096,
      "Ġhissed": 6097,
      "Ġrubs": 6098,
      "Ġobserved": 6099,
      "Ġtwinkle": 6100,
      "pite": 6101,
      "Ġcause": 6102,
      "Ġcott": 6103,
      "Ġsled": 6104,
      "Ġunf": 6105,
      "Ġparticular": 6106,
      "Ġlined": 6107,
      "Ġden": 6108,
      "Ġseven": 6109,
      "Ġroses": 6110,
      "Ġprincesses": 6111,
      "Ġpastels": 6112,
      "Ġpoems": 6113,
      "Ġsigned": 6114,
      "Ġtickled": 6115,
      "ĠFollow": 6116,
      "ĠJac": 6117,
      "Ġfaced": 6118,
      "Ġtractor": 6119,
      "Ġmagnets": 6120,
      "Ġactivities": 6121,
      "Ġwasted": 6122,
      "Ġswooped": 6123,
      "brush": 6124,
      "Ġseashell": 6125,
      "Ġsnowballs": 6126,
      "Run": 6127,
      "dies": 6128,
      "rance": 6129,
      "Ġrings": 6130,
      "ĠDoggy": 6131,
      "Ġreply": 6132,
      "Ġsilent": 6133,
      "umm": 6134,
      "Ġstaying": 6135,
      "Ġsingle": 6136,
      "Ġadding": 6137,
      "Ġcubes": 6138,
      "Ġbeads": 6139,
      "Ġcoloured": 6140,
      "Ġsandcastles": 6141,
      "Ġreplaced": 6142,
      "Ġhi": 6143,
      "Ġkites": 6144,
      "Ġswirl": 6145,
      "Ġstolen": 6146,
      "Ġtricked": 6147,
      "Ġmarker": 6148,
      "Ġprovided": 6149,
      "Ġfirefighters": 6150,
      "Ġga": 6151,
      "ĠSorry": 6152,
      "Ġhowever": 6153,
      "Ġremote": 6154,
      "ĠSophia": 6155,
      "Ġfarther": 6156,
      "Ġfreed": 6157,
      "isies": 6158,
      "ĠLarry": 6159,
      "ĠPut": 6160,
      "Then": 6161,
      "ĠEmmy": 6162,
      "Ġnaps": 6163,
      "Ġlollipops": 6164,
      "Ġdaisies": 6165,
      "Ġlung": 6166,
      "Ġdipped": 6167,
      "Ġwears": 6168,
      "Ġbowls": 6169,
      "ÅĵWhatÃ¢": 6170,
      "Ġpaddled": 6171,
      "Ġspike": 6172,
      "Ġcashier": 6173,
      "ĠEarth": 6174,
      "ĠDays": 6175,
      "Ġcolored": 6176,
      "Ġpastries": 6177,
      "ĠJacob": 6178,
      "Ġnect": 6179,
      "ĠEnjoy": 6180,
      "Ġbadge": 6181,
      "Ġnectar": 6182,
      "Ġsobbed": 6183,
      "ĠWithout": 6184,
      "Ġcelebration": 6185,
      "ĠKeep": 6186,
      "ĠOw": 6187,
      "ĠMany": 6188,
      "Ġlogs": 6189,
      "coat": 6190,
      "Ġslam": 6191,
      "ĠEverybody": 6192,
      "ÅĵMommy": 6193,
      "Ġdarkness": 6194,
      "Ġprotecting": 6195,
      "Ġminerals": 6196,
      "Ġaff": 6197,
      "Ġliqu": 6198,
      "ĠJacky": 6199,
      "Ġtallest": 6200,
      "Ġmarked": 6201,
      "Ġawake": 6202,
      "Ġcopy": 6203,
      "Ġsquealed": 6204,
      "Ġstroll": 6205,
      "Ġty": 6206,
      "Ġbumpy": 6207,
      "Ġsnat": 6208,
      "Ġforehead": 6209,
      "Ġsmiley": 6210,
      "Ġfilling": 6211,
      "Ġsplashes": 6212,
      "ĠRover": 6213,
      "ĠBess": 6214,
      "Ġrobb": 6215,
      "Ġwipes": 6216,
      "Ġhelmets": 6217,
      "Ġmasks": 6218,
      "abel": 6219,
      "Ġtalented": 6220,
      "hile": 6221,
      "Ġyounger": 6222,
      "bbly": 6223,
      "Ġtwin": 6224,
      "Ġgems": 6225,
      "ĠMaya": 6226,
      "Ġcautiously": 6227,
      "tle": 6228,
      "Ġyourselves": 6229,
      "Ġstays": 6230,
      "Ġglasses": 6231,
      "ĠNothing": 6232,
      "Ġgaze": 6233,
      "yond": 6234,
      "Ġwow": 6235,
      "Ġbeyond": 6236,
      "Ġexplorers": 6237,
      "Ġraincoat": 6238,
      "Ġreads": 6239,
      "Ġpolished": 6240,
      "Ġblows": 6241,
      "Ġcovers": 6242,
      "Ġdirections": 6243,
      "Ġcust": 6244,
      "Ġhealth": 6245,
      "Ġtipt": 6246,
      "boo": 6247,
      "ĠWater": 6248,
      "ĠWatch": 6249,
      "ddled": 6250,
      "Ġlistens": 6251,
      "Ġattack": 6252,
      "Ġactions": 6253,
      "Ġsweat": 6254,
      "ĠSqu": 6255,
      "Ġsailboat": 6256,
      "Ġmiles": 6257,
      "Ġentrance": 6258,
      "Ġfluttered": 6259,
      "Ġaccomplish": 6260,
      "ĠExc": 6261,
      "hee": 6262,
      "Ġbehavi": 6263,
      "ĠRobby": 6264,
      "Ġmushrooms": 6265,
      "Ġpedals": 6266,
      "Ġfamilies": 6267,
      "Ġchuckled": 6268,
      "Ġdots": 6269,
      "ĠJay": 6270,
      "ĠGet": 6271,
      "Ġyesterday": 6272,
      "Ġsecure": 6273,
      "Ġclowns": 6274,
      "Ġrefle": 6275,
      "fl": 6276,
      "Ġsomebody": 6277,
      "Ġknees": 6278,
      "Ġspeaking": 6279,
      "Ġtricky": 6280,
      "cers": 6281,
      "Ġbars": 6282,
      "sty": 6283,
      "Ġjoking": 6284,
      "Ġbuying": 6285,
      "Ġseeker": 6286,
      "affes": 6287,
      "Ġinsects": 6288,
      "Ġcustom": 6289,
      "ĠExcited": 6290,
      "Ġopp": 6291,
      "Ġripe": 6292,
      "ppers": 6293,
      "ĠPinky": 6294,
      "Ġconn": 6295,
      "Ġhider": 6296,
      "iki": 6297,
      "Ġfroze": 6298,
      "Ġbumps": 6299,
      "Ġknocks": 6300,
      "Ġcheeks": 6301,
      "ners": 6302,
      "Ġparties": 6303,
      "Ġgiraffes": 6304,
      "ĠOlive": 6305,
      "Ġbeginning": 6306,
      "Ëľ": 6307,
      "Ġmes": 6308,
      "âĤ¬Ëľ": 6309,
      "itches": 6310,
      "Ġliquid": 6311,
      "Ġmesmer": 6312,
      "Ġthorn": 6313,
      "ĠLia": 6314,
      "ĠLau": 6315,
      "Ġscaring": 6316,
      "Tommy": 6317,
      "Ġscarves": 6318,
      "Ġpleasure": 6319,
      "Ġdetermination": 6320,
      "Ġcandies": 6321,
      "uzz": 6322,
      "Ġmi": 6323,
      "ĠBird": 6324,
      "Ġbacked": 6325,
      "Ġhandful": 6326,
      "Ġfolding": 6327,
      "Ġdrums": 6328,
      "ĠMikey": 6329,
      "Ġvideos": 6330,
      "Ġleading": 6331,
      "Ġrecording": 6332,
      "Ġpaddle": 6333,
      "ĠSparky": 6334,
      "Jack": 6335,
      "Ro": 6336,
      "ouch": 6337,
      "iles": 6338,
      "Ġdeal": 6339,
      "Ġmixture": 6340,
      "Ġpause": 6341,
      "Ġarrows": 6342,
      "Ġtangled": 6343,
      "Ġglee": 6344,
      "Ġchoices": 6345,
      "Ġinstrum": 6346,
      "band": 6347,
      "Ġpiggy": 6348,
      "alph": 6349,
      "Those": 6350,
      "Ġlighter": 6351,
      "Ġtasks": 6352,
      "Ġweeping": 6353,
      "Ġsense": 6354,
      "Ġlower": 6355,
      "ĠMo": 6356,
      "Ġyells": 6357,
      "Ġimproved": 6358,
      "Ġrecommended": 6359,
      "Ġcalmed": 6360,
      "Ġpouted": 6361,
      "igers": 6362,
      "urry": 6363,
      "Ġclick": 6364,
      "ĠRobert": 6365,
      "eke": 6366,
      "ĠFar": 6367,
      "ths": 6368,
      "Ġcupcakes": 6369,
      "Ġsalty": 6370,
      "Ġrusty": 6371,
      "lay": 6372,
      "Ġinsp": 6373,
      "Ġfever": 6374,
      "Ġpaying": 6375,
      "Ġsnatched": 6376,
      "ĠLaura": 6377,
      "arter": 6378,
      "arling": 6379,
      "ĠRalph": 6380,
      "Ġdef": 6381,
      "Ġsteer": 6382,
      "Ġbakery": 6383,
      "vest": 6384,
      "Ġrumble": 6385,
      "ĠCu": 6386,
      "Ġbedtime": 6387,
      "Ġruining": 6388,
      "ĠPrin": 6389,
      "Ġdiving": 6390,
      "Ġcelebrating": 6391,
      "Rex": 6392,
      "Ġhesitated": 6393,
      "Ġwidened": 6394,
      "ĠAmel": 6395,
      "ĠHoot": 6396,
      "indr": 6397,
      "icky": 6398,
      "Ġraindr": 6399,
      "ĠGina": 6400,
      "Ġafterwards": 6401,
      "Ġsnowmen": 6402,
      "Ġkicks": 6403,
      "rig": 6404,
      "rious": 6405,
      "Ġsmarter": 6406,
      "?\",": 6407,
      "Ġjackets": 6408,
      "Ġbehaved": 6409,
      "Ġwins": 6410,
      "Ġflapping": 6411,
      "aker": 6412,
      "Ġsnuck": 6413,
      "Ġstroked": 6414,
      "Ġlun": 6415,
      "iled": 6416,
      "ĠPam": 6417,
      "Ġsquares": 6418,
      "ĠSque": 6419,
      "ĠBinky": 6420,
      "Ġdances": 6421,
      "Ġobjects": 6422,
      "no": 6423,
      "Ġshirts": 6424,
      "sequ": 6425,
      "Ġcowb": 6426,
      "Ch": 6427,
      "ossible": 6428,
      "ĠMabel": 6429,
      "Ġimpossible": 6430,
      "Ġunpacked": 6431,
      "Ġperforman": 6432,
      "Ġannoy": 6433,
      "Ġtigers": 6434,
      "ans": 6435,
      "ishy": 6436,
      "Ġconsequ": 6437,
      "ĠTodd": 6438,
      "ĠBluey": 6439,
      "Ġstomped": 6440,
      "Next": 6441,
      "bell": 6442,
      "cope": 6443,
      "oey": 6444,
      "Ġcreamy": 6445,
      "Ġacting": 6446,
      "Ġdelivered": 6447,
      "Ġhallway": 6448,
      "Ġachieved": 6449,
      "Ġaren": 6450,
      "Ġchoo": 6451,
      "Ġtramp": 6452,
      "Ġrule": 6453,
      "ronaut": 6454,
      "Ġartist": 6455,
      "Ġdeserve": 6456,
      "Ġmaterials": 6457,
      "Ġastronaut": 6458,
      "atur": 6459,
      "igning": 6460,
      "ĠWally": 6461,
      "Ġnoon": 6462,
      "Ġnoses": 6463,
      "Ġindeed": 6464,
      "Ġchefs": 6465,
      "itched": 6466,
      "Ġrip": 6467,
      "ĠwouldnÃ¢": 6468,
      "Ġpans": 6469,
      "Ġtemper": 6470,
      "Ġornaments": 6471,
      "ccoon": 6472,
      "Ġraindrops": 6473,
      "tuce": 6474,
      "ĠAsh": 6475,
      "Ġraccoon": 6476,
      "Ġlettuce": 6477,
      "Ġneedles": 6478,
      "Ġpointy": 6479,
      "Ġwraps": 6480,
      "Ġscratches": 6481,
      "Ġbasement": 6482,
      "Ġcomplained": 6483,
      "Ġcomplaining": 6484,
      "Ġsibl": 6485,
      "ĠFrosty": 6486,
      "ĠEls": 6487,
      "Shh": 6488,
      "Ġsiblings": 6489,
      "ility": 6490,
      "ĠAbbie": 6491,
      "Ġlosing": 6492,
      "ivity": 6493,
      "ĠPrincess": 6494,
      "?'": 6495,
      "Ġhus": 6496,
      "Ġsale": 6497,
      "ĠJune": 6498,
      "Ġdarker": 6499,
      "ĠRobbie": 6500,
      "Ġtempt": 6501,
      "ĠSadie": 6502,
      "Ġdrifted": 6503,
      "Ġscrubbed": 6504,
      "Ġtrampoline": 6505,
      "cl": 6506,
      "oni": 6507,
      "Ġrefu": 6508,
      "Ġmeals": 6509,
      "Ġpassen": 6510,
      "Ġscrews": 6511,
      "Ġburst": 6512,
      "Ġfluttering": 6513,
      "Ġtravelled": 6514,
      "weet": 6515,
      "Ġdads": 6516,
      "ĠCra": 6517,
      "Ġteased": 6518,
      "ndpare": 6519,
      "ĠMartha": 6520,
      "aren": 6521,
      "Ġchop": 6522,
      "Ġcreativity": 6523,
      "Ġexperien": 6524,
      "Ġdiscussed": 6525,
      "Ġswimsuit": 6526,
      "Ġpuppies": 6527,
      "rigued": 6528,
      "Ġconsequences": 6529,
      "Ġneither": 6530,
      "ĠPo": 6531,
      "ĠKiki": 6532,
      "Ġforgets": 6533,
      "ĠThanks": 6534,
      "Ġcoup": 6535,
      "Ġmerry": 6536,
      "Ġstool": 6537,
      "Ġweeke": 6538,
      "umbling": 6539,
      "Ġwrapping": 6540,
      "Ġweekend": 6541,
      "Ġhelpers": 6542,
      "Ġgrandpare": 6543,
      "ÅĵDo": 6544,
      "Ġstung": 6545,
      "Ġgracefully": 6546,
      "Ġincluding": 6547,
      "Ġperformance": 6548,
      "ades": 6549,
      "Ġfears": 6550,
      "ÅĵWow": 6551,
      "Ġtunnels": 6552,
      "ĠGoodbye": 6553,
      "Ġtiptoed": 6554,
      "Great": 6555,
      "ded": 6556,
      "Ġmer": 6557,
      "Ġthird": 6558,
      "ĠLi": 6559,
      "Ġstain": 6560,
      "Ġdollars": 6561,
      "ĠKaren": 6562,
      "Ġcuddly": 6563,
      "Ġavoid": 6564,
      "Ġenthusi": 6565,
      "Ġtemperature": 6566,
      "ĠQ": 6567,
      "Ġgross": 6568,
      "ept": 6569,
      "ĠwonÃ¢": 6570,
      "anging": 6571,
      "ĠAlong": 6572,
      "Ġsource": 6573,
      "Ġenthusiasm": 6574,
      "Ġhearing": 6575,
      "itted": 6576,
      "Ġfact": 6577,
      "Ġseparated": 6578,
      "Today": 6579,
      "Ġonions": 6580,
      "Ġcoloring": 6581,
      "Ġhandsome": 6582,
      "ĠAlthough": 6583,
      "Ġshrinking": 6584,
      "Ġneatly": 6585,
      "Ġgrowls": 6586,
      "immering": 6587,
      "oke": 6588,
      "Ġlimes": 6589,
      "Ġchip": 6590,
      "ĠDuring": 6591,
      "ÅĵCome": 6592,
      "Ġzipping": 6593,
      "ĠAbi": 6594,
      "Ġafford": 6595,
      "Ġhusband": 6596,
      "Ġcouple": 6597,
      "atul": 6598,
      "anes": 6599,
      "Ġech": 6600,
      "Ġrising": 6601,
      "river": 6602,
      "step": 6603,
      "ueen": 6604,
      "Ġsnowfl": 6605,
      "Ġhides": 6606,
      "Ġrivers": 6607,
      "Ġaccomplishment": 6608,
      "ĠFarmer": 6609,
      "cus": 6610,
      "Ġslices": 6611,
      "Ġdollhouse": 6612,
      "uggles": 6613,
      "ĠZoey": 6614,
      "Meow": 6615,
      "Ġcousin": 6616,
      "ky": 6617,
      "ntil": 6618,
      "Ġswept": 6619,
      "Ġgrabbing": 6620,
      "Ġbully": 6621,
      "Ġwindy": 6622,
      "Ġbeloved": 6623,
      "Ġpromises": 6624,
      "Ġplans": 6625,
      "ĠJudy": 6626,
      "Ew": 6627,
      "int": 6628,
      "Ġcor": 6629,
      "Ġgri": 6630,
      "Ġbeam": 6631,
      "choo": 6632,
      "Ġgrassy": 6633,
      "Ġpeacefully": 6634,
      "Ġhoriz": 6635,
      "ĠUntil": 6636,
      "ĠPatty": 6637,
      "ĠJanie": 6638,
      "hog": 6639,
      "pr": 6640,
      "Ġblocking": 6641,
      "Ġbows": 6642,
      "Ġbatteries": 6643,
      "ĠSnuggles": 6644,
      "Ġrewarded": 6645,
      "mallow": 6646,
      "weed": 6647,
      "Ġnine": 6648,
      "ĠBee": 6649,
      "Ġthrown": 6650,
      "arshmallow": 6651,
      "Ġsprinkled": 6652,
      "ĠAmelia": 6653,
      "Ġhorizon": 6654,
      "Ġplayers": 6655,
      "Ġwilling": 6656,
      "ĠDavey": 6657,
      "Ġstudents": 6658,
      "Ġdamage": 6659,
      "Roar": 6660,
      "Have": 6661,
      "Ġtodd": 6662,
      "ĠThose": 6663,
      "Ġamong": 6664,
      "Ġdreamt": 6665,
      "Ġmuscle": 6666,
      "Ġnapkins": 6667,
      "Ġneighbours": 6668,
      "Ġmatters": 6669,
      "Ġleaning": 6670,
      "Oops": 6671,
      "Whee": 6672,
      "Ġaud": 6673,
      "Ġdarling": 6674,
      "Ġbackwards": 6675,
      "Ġpecked": 6676,
      "Ġrecipe": 6677,
      "ĠZip": 6678,
      "Ġbodies": 6679,
      "iece": 6680,
      "ĠRy": 6681,
      "Ġtails": 6682,
      "Ġseaweed": 6683,
      "Ġwishing": 6684,
      "Ġseconds": 6685,
      "Ġforgiven": 6686,
      "Ġhitting": 6687,
      "ĠSince": 6688,
      "Ġwept": 6689,
      "Ġprinting": 6690,
      "Ġdecorating": 6691,
      "Ġhour": 6692,
      "Ġalien": 6693,
      "Ġprett": 6694,
      "ÅĵHi": 6695,
      "Ġheading": 6696,
      "Ġplanning": 6697,
      "the": 6698,
      "ĠTuna": 6699,
      "Ġdod": 6700,
      "Ġreass": 6701,
      "Ġgobbled": 6702,
      "Ġstarfish": 6703,
      "Ġfeeding": 6704,
      "Ġpraying": 6705,
      "Ġbuzzed": 6706,
      "ĠBirthday": 6707,
      "ĠSim": 6708,
      "Ġconcer": 6709,
      "Ġtriangles": 6710,
      "ÅĵYouÃ¢": 6711,
      "Ġcenter": 6712,
      "Ġdancers": 6713,
      "Ġpops": 6714,
      "Ġrepa": 6715,
      "Ġgasp": 6716,
      "ĠNobody": 6717,
      "Ġforks": 6718,
      "Ġrustling": 6719,
      "Ġsnuggle": 6720,
      "Ġheavier": 6721,
      "Ġprettier": 6722,
      "Woof": 6723,
      "ĠListen": 6724,
      "Ġdrawn": 6725,
      "Ġsurroundings": 6726,
      "Ġrequested": 6727,
      "Ġwarnings": 6728,
      "ĠMickey": 6729,
      "Ġrepaired": 6730,
      "wk": 6731,
      "Ġdet": 6732,
      "ĠSun": 6733,
      "Ġspong": 6734,
      "Ġuns": 6735,
      "Ġstreets": 6736,
      "Ġdesigned": 6737,
      "Ġhedgehog": 6738,
      "Ġ10": 6739,
      "ĠQueen": 6740,
      "Ġdie": 6741,
      "ados": 6742,
      "Ġarr": 6743,
      "Ġtreehouse": 6744,
      "Ġtwice": 6745,
      "ĠRemember": 6746,
      "Ġslower": 6747,
      "Ġwoof": 6748,
      "Ġtouc": 6749,
      "Ġplain": 6750,
      "Ġposter": 6751,
      "Ġmagician": 6752,
      "ĠStella": 6753,
      "Ġwiping": 6754,
      "Ġvanilla": 6755,
      "Le": 6756,
      "itude": 6757,
      "Ġmarshmallow": 6758,
      "arrow": 6759,
      "Ġhawk": 6760,
      "ĠBack": 6761,
      "ĠBoun": 6762,
      "fus": 6763,
      "Ġache": 6764,
      "Ġembarrass": 6765,
      "Ġslammed": 6766,
      "Ġlungs": 6767,
      "fall": 6768,
      "ippy": 6769,
      "eds": 6770,
      "irrel": 6771,
      "Ġropes": 6772,
      "ongr": 6773,
      "Ġintrigued": 6774,
      "Ġcreations": 6775,
      "Ġforgetting": 6776,
      "Ġthud": 6777,
      "Ġsuperheroes": 6778,
      "Ġhesitant": 6779,
      "Time": 6780,
      "Ġsy": 6781,
      "Ġadult": 6782,
      "Ġcounts": 6783,
      "ments": 6784,
      "Ġspoonful": 6785,
      "Ġavocados": 6786,
      "Ġnood": 6787,
      "Ġskunk": 6788,
      "Ġpotion": 6789,
      "Ġaudience": 6790,
      "ongratul": 6791,
      "Ġwag": 6792,
      "Ġpens": 6793,
      "ĠSc": 6794,
      "ĠOwl": 6795,
      "Ġscamp": 6796,
      "Ġflas": 6797,
      "ĠDr": 6798,
      "ausing": 6799,
      "Ġspreading": 6800,
      "Ġborrowed": 6801,
      "Ġresisted": 6802,
      "Ġblast": 6803,
      "Ġfocu": 6804,
      "Ġstands": 6805,
      "Ġbreathed": 6806,
      "ably": 6807,
      "Ġgeese": 6808,
      "Ġtoddler": 6809,
      "Boo": 6810,
      "Lila": 6811,
      "ition": 6812,
      "Ġsofter": 6813,
      "ently": 6814,
      "ĠAng": 6815,
      "Ġswords": 6816,
      "Ġwarmer": 6817,
      "Ġfamiliar": 6818,
      "Ġsponge": 6819,
      "cake": 6820,
      "Ġsan": 6821,
      "llen": 6822,
      "Ġpeppers": 6823,
      "Ġjoyful": 6824,
      "Ġimagining": 6825,
      "Ġpresses": 6826,
      "Ġdelivering": 6827,
      "ĠFriends": 6828,
      "--": 6829,
      "Ġscrewd": 6830,
      "ĠPippin": 6831,
      "Ġscraped": 6832,
      "ĠRyan": 6833,
      "Ġtouches": 6834,
      "Ġpours": 6835,
      "ido": 6836,
      "Ġage": 6837,
      "ĠEva": 6838,
      "Ġthroughout": 6839,
      "ĠStan": 6840,
      "Ġmunch": 6841,
      "Ġnibb": 6842,
      "endy": 6843,
      "Ġchanging": 6844,
      "Ġhonked": 6845,
      "Ġzebras": 6846,
      "Ġsqueak": 6847,
      "Ġfirefighter": 6848,
      "Ġmesmerized": 6849,
      "Yummy": 6850,
      "eal": 6851,
      "Ġroars": 6852,
      "Ġglued": 6853,
      "Ġwrink": 6854,
      "Ġremembering": 6855,
      "Ġtalks": 6856,
      "Ġpolar": 6857,
      "Ġbaths": 6858,
      "Ġshops": 6859,
      "ĠZara": 6860,
      "Ġsports": 6861,
      "Ġfocused": 6862,
      "Ġscrewdriver": 6863,
      "opsy": 6864,
      "ĠMomma": 6865,
      "Ġcuriously": 6866,
      "Ġdropping": 6867,
      "Ġcorners": 6868,
      "Ġwhispers": 6869,
      "Ġsank": 6870,
      "Ġnur": 6871,
      "allowed": 6872,
      "Ġleast": 6873,
      "Ġswallowed": 6874,
      "aster": 6875,
      "Ġlifts": 6876,
      "ael": 6877,
      "ĠOnly": 6878,
      "Ġspices": 6879,
      "ĠFido": 6880,
      "Ġblinking": 6881,
      "Ġpuff": 6882,
      "ichael": 6883,
      "Ġmints": 6884,
      "ounced": 6885,
      "Ġexpress": 6886,
      "ĠMaddy": 6887,
      "ĠGranny": 6888,
      "Ġgranted": 6889,
      "Ġspikes": 6890,
      "Ġsquishy": 6891,
      "Ġsailors": 6892,
      "Ġhopeful": 6893,
      "Ġtoaster": 6894,
      "ĠMeg": 6895,
      "ĠBessie": 6896,
      "ĠSqueaky": 6897,
      "jo": 6898,
      "ĠMichael": 6899,
      "Ġneare": 6900,
      "ĠElly": 6901,
      "arac": 6902,
      "Ġpeck": 6903,
      "Ġcrew": 6904,
      "Ġnecklaces": 6905,
      "Ġpostman": 6906,
      "Ġreflection": 6907,
      "ĠTake": 6908,
      "Ġfeast": 6909,
      "Ġcond": 6910,
      "Ġposs": 6911,
      "Ġslips": 6912,
      "Ġsteady": 6913,
      "Ġpennies": 6914,
      "Ġrefreshing": 6915,
      "Grandma": 6916,
      "ĠSquirrel": 6917,
      "ears": 6918,
      "Ġwobbled": 6919,
      "ĠRay": 6920,
      "Ġtested": 6921,
      "Ġsniffs": 6922,
      "Ġgrandparents": 6923,
      "Ġmarshmallows": 6924,
      "yes": 6925,
      "Ġwakes": 6926,
      "Ġoh": 6927,
      "Ġrout": 6928,
      "Ġchos": 6929,
      "Ġsneezing": 6930,
      "Ġshaped": 6931,
      "Ġdived": 6932,
      "Ġoysters": 6933,
      "Ġincreased": 6934,
      "ĠFrog": 6935,
      "Ġchosen": 6936,
      "Like": 6937,
      "vil": 6938,
      "worm": 6939,
      "Ġ2": 6940,
      "ĠOur": 6941,
      "Ġreason": 6942,
      "Ġspins": 6943,
      "Ġflight": 6944,
      "ĠStay": 6945,
      "ĠDani": 6946,
      "Ġsewing": 6947,
      "Ġgreeted": 6948,
      "mates": 6949,
      "Ġtiss": 6950,
      "ĠLove": 6951,
      "Ġaside": 6952,
      "Ġrushing": 6953,
      "otten": 6954,
      "Ġjoining": 6955,
      "Ġheroes": 6956,
      "Ġbehaving": 6957,
      "ĠBirdy": 6958,
      "ĠSimon": 6959,
      "unched": 6960,
      "Ġkittens": 6961,
      "attered": 6962,
      "Ġpigeons": 6963,
      "Our": 6964,
      "Some": 6965,
      "stick": 6966,
      "ertain": 6967,
      "Ġswans": 6968,
      "Ġwiggle": 6969,
      "fire": 6970,
      "Ġaimed": 6971,
      "Ġdip": 6972,
      "Ġocc": 6973,
      "ĠSpl": 6974,
      "Ġplayroom": 6975,
      "Ġtapped": 6976,
      "Ġdefe": 6977,
      "Ġdresser": 6978,
      "Ġbiting": 6979,
      "years": 6980,
      "Ġpuppet": 6981,
      "lves": 6982,
      "Ġrotten": 6983,
      "Ġonward": 6984,
      "Ġplucked": 6985,
      "Ġappreciation": 6986,
      "ĠLouise": 6987,
      "vant": 6988,
      "rect": 6989,
      "Ġmoo": 6990,
      "ĠMina": 6991,
      "ĠFe": 6992,
      "ĠFire": 6993,
      "Ġcharac": 6994,
      "Ġtrot": 6995,
      "Ġadults": 6996,
      "Ġwrigg": 6997,
      "ĠThatÃ¢": 6998,
      "Ġsparks": 6999,
      "Ġencourag": 7000,
      "ĠBaa": 7001,
      "Ġsending": 7002,
      "Ġconfl": 7003,
      "Ġtrembled": 7004,
      "Ġscampered": 7005,
      "Ġcharacter": 7006,
      "Fo": 7007,
      "iment": 7008,
      "Ġscored": 7009,
      "Ġexplo": 7010,
      "Ġoffic": 7011,
      "eezes": 7012,
      "Lucy": 7013,
      "Ġspat": 7014,
      "ĠWendy": 7015,
      "Ġcoc": 7016,
      "ÅĵNow": 7017,
      "Ġwarri": 7018,
      "Ġhops": 7019,
      "meal": 7020,
      "Ġbells": 7021,
      "Ġflavors": 7022,
      "Ġmaster": 7023,
      "Ġwaddled": 7024,
      "Ġdaring": 7025,
      "Ġconvers": 7026,
      "Ġstrongest": 7027,
      "Ġdrawers": 7028,
      "Ġpanicked": 7029,
      "Ġguests": 7030,
      "while": 7031,
      "Ġtossed": 7032,
      "Ġpins": 7033,
      "Ġnapping": 7034,
      "Ġmanag": 7035,
      "Ġrainy": 7036,
      "Ġamount": 7037,
      "Ġworrying": 7038,
      "ĠUnder": 7039,
      "Ġstacked": 7040,
      "Ġperforming": 7041,
      "Ġoatmeal": 7042,
      "Ġcausing": 7043,
      "cky": 7044,
      "ĠAna": 7045,
      "Ġscen": 7046,
      "Ġwobbly": 7047,
      "ÅĵMy": 7048,
      "Ġrespected": 7049,
      "Ġsunflowers": 7050,
      "Ġproper": 7051,
      "rrr": 7052,
      "Ġfreedom": 7053,
      "Ġnoodles": 7054,
      "Mine": 7055,
      "ĠTry": 7056,
      "Ġmate": 7057,
      "Ġevil": 7058,
      "ĠWell": 7059,
      "retty": 7060,
      "ĠFlopsy": 7061,
      "ĠZero": 7062,
      "Ġangels": 7063,
      "Ġloading": 7064,
      "Ġseashells": 7065,
      "Ġgest": 7066,
      "Ġsadd": 7067,
      "ĠJaney": 7068,
      "Ġbattle": 7069,
      "ĠUp": 7070,
      "...\"": 7071,
      "Ġcorrect": 7072,
      "isc": 7073,
      "Ġstitches": 7074,
      "Ġgardener": 7075,
      "Ġlessons": 7076,
      "Ġprove": 7077,
      "Ġrespond": 7078,
      "ppies": 7079,
      "Ġdoorway": 7080,
      "Ġcraft": 7081,
      "Ġtables": 7082,
      "Ġcloudy": 7083,
      "Ġshrug": 7084,
      "Ġcushions": 7085,
      "ĠCurious": 7086,
      "ĠAshley": 7087,
      "Ġunsure": 7088,
      "Ġfaded": 7089,
      "onna": 7090,
      "ĠIm": 7091,
      "Ġworn": 7092,
      "ĠDes": 7093,
      "ĠJoan": 7094,
      "Ġbravest": 7095,
      "ĠGa": 7096,
      "Ġgrows": 7097,
      "Ġleads": 7098,
      "Ġwatering": 7099,
      "iley": 7100,
      "ÅĵMom": 7101,
      "ĠRock": 7102,
      "Ġrains": 7103,
      "Ġcrashing": 7104,
      "Ġduckling": 7105,
      "Ġaction": 7106,
      "ĠZoomy": 7107,
      "Ġfrowning": 7108,
      "Ġdesigns": 7109,
      "Ġfirefly": 7110,
      "Ġfirmly": 7111,
      "Ġcoral": 7112,
      "Ġearn": 7113,
      "Ġund": 7114,
      "Ġclues": 7115,
      "ĠJackie": 7116,
      "Ġsmallest": 7117,
      "Ġmonths": 7118,
      "Ġsails": 7119,
      "Ġsurv": 7120,
      "Ġtwisty": 7121,
      "Ġwider": 7122,
      "ĠYesterday": 7123,
      "Ġdefin": 7124,
      "Ġpassengers": 7125,
      "Ġtissue": 7126,
      "please": 7127,
      "hew": 7128,
      "Ġais": 7129,
      "Ġheight": 7130,
      "Ġcosy": 7131,
      "bbling": 7132,
      "Ġpolitely": 7133,
      "Ġpays": 7134,
      "Ġnervously": 7135,
      "Ġhumans": 7136,
      "ĠMean": 7137,
      "ĠQuick": 7138,
      "Ġbehavior": 7139,
      "dress": 7140,
      "ĠHoney": 7141,
      "ĠMouse": 7142,
      "Ġbru": 7143,
      "ĠSof": 7144,
      "Ġovercome": 7145,
      "urprise": 7146,
      "Ġbelts": 7147,
      "Ġstreamers": 7148,
      "Ġrobber": 7149,
      "Ġencouraging": 7150,
      "Ġties": 7151,
      "onies": 7152,
      "Ġplaytime": 7153,
      "child": 7154,
      "Ġflown": 7155,
      "emma": 7156,
      "Ġdrivers": 7157,
      "Ġsurrendered": 7158,
      "Ġgonna": 7159,
      "ening": 7160,
      "Ġnearly": 7161,
      "ĠStar": 7162,
      "Ġpumpkins": 7163,
      "Ġgrandchild": 7164,
      "Ġfleas": 7165,
      "Ġyielded": 7166,
      "Ġmerma": 7167,
      "Ġdefinitely": 7168,
      "bird": 7169,
      "Ġni": 7170,
      "Ġinj": 7171,
      "Ġpoppies": 7172,
      "iona": 7173,
      "Ġcrossing": 7174,
      "undred": 7175,
      "Ġtravelling": 7176,
      "Follow": 7177,
      "Bob": 7178,
      "ody": 7179,
      "Ġtuck": 7180,
      "Ġnuzz": 7181,
      "Ġyel": 7182,
      "ĠthatÃ¢": 7183,
      "Ġshady": 7184,
      "ÅĵWell": 7185,
      "Ġraces": 7186,
      "Ġblocked": 7187,
      "Ġlifting": 7188,
      "ĠStill": 7189,
      "Ġlaying": 7190,
      "Ġignoring": 7191,
      "Ġshovels": 7192,
      "Ġquarreling": 7193,
      "alloween": 7194,
      "ĠChris": 7195,
      "Ġperformed": 7196,
      "ĠMeanwhile": 7197,
      "lets": 7198,
      "Ġease": 7199,
      "ĠBow": 7200,
      "ĠBong": 7201,
      "Ġscient": 7202,
      "antastic": 7203,
      "Ġwobble": 7204,
      "athy": 7205,
      "issa": 7206,
      "Ġresults": 7207,
      "Ġsuggestion": 7208,
      "Beep": 7209,
      "Ġsuits": 7210,
      "Ġcampfire": 7211,
      "Ġbrushing": 7212,
      "Ġsymbols": 7213,
      "Ġtwinkled": 7214,
      "Quick": 7215,
      "Ġcommun": 7216,
      "Ġyelped": 7217,
      "Ġscientist": 7218,
      "Very": 7219,
      "Watch": 7220,
      "ibbit": 7221,
      "upt": 7222,
      "rey": 7223,
      "ĠHalloween": 7224,
      "eling": 7225,
      "Ġshown": 7226,
      "Ġreun": 7227,
      "roken": 7228,
      "Ġscurry": 7229,
      "Ġleapt": 7230,
      "Ġpound": 7231,
      "Ġponies": 7232,
      "acles": 7233,
      "Ġcolder": 7234,
      "Ġquieter": 7235,
      "Ġappreciated": 7236,
      "fly": 7237,
      "Ġbless": 7238,
      "ighting": 7239,
      "Ġwaterfall": 7240,
      "Ġfinal": 7241,
      "Ġsqueezing": 7242,
      "Ġfills": 7243,
      "Ġhairdress": 7244,
      "Ġfishes": 7245,
      "Ġcobwebs": 7246,
      "Ġthorns": 7247,
      "Ġsnowflakes": 7248,
      "Ġfantastic": 7249,
      "ĠJax": 7250,
      "ĠFu": 7251,
      "ĠFiona": 7252,
      "Ġsurprising": 7253,
      "Ġtricycle": 7254,
      "ĠKelly": 7255,
      "Ġedges": 7256,
      "ĠPepper": 7257,
      "Ġpreparing": 7258,
      "Ġgrandd": 7259,
      "Ġreversed": 7260,
      "Ġpunishment": 7261,
      "ĠEliz": 7262,
      "ĠPippa": 7263,
      "Ġofficers": 7264,
      "ĠBongo": 7265,
      "Sue": 7266,
      "Ġanger": 7267,
      "Ġfinishing": 7268,
      "Ġchopped": 7269,
      "Ġpaths": 7270,
      "Ġgenie": 7271,
      "ĠPatch": 7272,
      "Ġpassports": 7273,
      "Listen": 7274,
      "ooky": 7275,
      "Ġhanding": 7276,
      "Ġtighter": 7277,
      "Ġpaintbrush": 7278,
      "Ġloops": 7279,
      "Ġburying": 7280,
      "Ġsuffered": 7281,
      "Ġoccas": 7282,
      "ĠDespite": 7283,
      "Ġhairdresser": 7284,
      "Ġsever": 7285,
      "Ġslither": 7286,
      "Ġbraver": 7287,
      "Ġunw": 7288,
      "Ġhealing": 7289,
      "Ġdistract": 7290,
      "Ġbandages": 7291,
      "Ġgiggles": 7292,
      "Ġreminding": 7293,
      "Ġdisturbing": 7294,
      "ĠSnowman": 7295,
      "Ġechoed": 7296,
      "Bun": 7297,
      "rup": 7298,
      "ĠX": 7299,
      "Ġtying": 7300,
      "Ġgap": 7301,
      "ĠIzzy": 7302,
      "ppa": 7303,
      "ĠBecause": 7304,
      "Ġnotes": 7305,
      "Ġforests": 7306,
      "Ġsmelling": 7307,
      "Ġbaskets": 7308,
      "Ġsniffing": 7309,
      "Ġsurfing": 7310,
      "Ġsurfboard": 7311,
      "laying": 7312,
      "ĠDaniel": 7313,
      "Ġseveral": 7314,
      "cent": 7315,
      "Ġcertain": 7316,
      "ÅĵWhere": 7317,
      "Ġcleaner": 7318,
      "ĠGreen": 7319,
      "Ġcollap": 7320,
      "Ġfits": 7321,
      "ĠAli": 7322,
      "ĠQuackers": 7323,
      "Ġconnected": 7324,
      "Ġsyrup": 7325,
      "Ġtipped": 7326,
      "Ġsou": 7327,
      "Ġcongratul": 7328,
      "Ġrays": 7329,
      "rier": 7330,
      "Ġsnort": 7331,
      "ĠCle": 7332,
      "ÅĵIf": 7333,
      "Ġspits": 7334,
      "Ġlicking": 7335,
      "Ġrisks": 7336,
      "Ġconflict": 7337,
      "Ġhundred": 7338,
      "Ġcoug": 7339,
      "Ġmaker": 7340,
      "ĠPretty": 7341,
      "Ġstopping": 7342,
      "Ġsweetest": 7343,
      "ushed": 7344,
      "Ġpackages": 7345,
      "Ġpuzzled": 7346,
      "Ġseller": 7347,
      "Ġtravels": 7348,
      "ĠFroggy": 7349,
      "Ġcottage": 7350,
      "iscuit": 7351,
      "ĠSofia": 7352,
      "broken": 7353,
      "vroom": 7354,
      "inger": 7355,
      "ĠAlly": 7356,
      "Ġspooky": 7357,
      "Ġconqu": 7358,
      "Ġdrown": 7359,
      "Ġbelieving": 7360,
      "Ġships": 7361,
      "Ġexamining": 7362,
      "Ġmagnif": 7363,
      "Ġbreathing": 7364,
      "Ġsqueaked": 7365,
      "Ġpurr": 7366,
      "Ġefforts": 7367,
      "bage": 7368,
      "ca": 7369,
      "erm": 7370,
      "ĠAva": 7371,
      "ÅĵBut": 7372,
      "ÅĵOkay": 7373,
      "ÅĵOf": 7374,
      "athan": 7375,
      "Ġmailed": 7376,
      "Ġgarbage": 7377,
      "Ġcuddles": 7378,
      "Jo": 7379,
      "Surprise": 7380,
      "rian": 7381,
      "Ġprob": 7382,
      "ĠDin": 7383,
      "Ġslipping": 7384,
      "Ġfrowns": 7385,
      "Ġlending": 7386,
      "Ġwhispering": 7387,
      "Ġsuffering": 7388,
      "ĠKevin": 7389,
      "Ġprobably": 7390,
      "Wh": 7391,
      "cher": 7392,
      "Ġlent": 7393,
      "ading": 7394,
      "ĠMother": 7395,
      "Ġshoo": 7396,
      "asty": 7397,
      "ĠRain": 7398,
      "Ġelf": 7399,
      "Ġbuses": 7400,
      "ĠStart": 7401,
      "Ġaddress": 7402,
      "ĠMarie": 7403,
      "Ġtubes": 7404,
      "Ġinchworm": 7405,
      "Ġmermaid": 7406,
      "line": 7407,
      "isions": 7408,
      "onse": 7409,
      "Ġthoughts": 7410,
      "inkle": 7411,
      "Ġguide": 7412,
      "Ġplanting": 7413,
      "Ġresponse": 7414,
      "Ġspells": 7415,
      "Ġrepeating": 7416,
      "Ġbothering": 7417,
      "ĠJean": 7418,
      "Ġgears": 7419,
      "Ġarranged": 7420,
      "ĠFeeling": 7421,
      "?!\"": 7422,
      "but": 7423,
      "Ġdump": 7424,
      "ĠOkay": 7425,
      "Ġexcept": 7426,
      "Ġmemb": 7427,
      "Ġcharge": 7428,
      "Ġtablet": 7429,
      "Ġhumming": 7430,
      "Ġsharks": 7431,
      "Ġmasterp": 7432,
      "Ġforgiving": 7433,
      "Ġtrotted": 7434,
      "Ġgesture": 7435,
      "Ġmembers": 7436,
      "found": 7437,
      "inted": 7438,
      "ĠAny": 7439,
      "Ġcoach": 7440,
      "Ġfins": 7441,
      "Ġluckily": 7442,
      "Ġresponsib": 7443,
      "Ġsewed": 7444,
      "Ġdamaged": 7445,
      "Ġcustomers": 7446,
      "Ġgrip": 7447,
      "Ġtil": 7448,
      "ĠHolly": 7449,
      "utter": 7450,
      "Ġrather": 7451,
      "Ġwithin": 7452,
      "ĠBarry": 7453,
      "Ġgoodby": 7454,
      "Ġdecisions": 7455,
      "bba": 7456,
      "Ġexplorer": 7457,
      "Ġdriveway": 7458,
      "Ġchocolates": 7459,
      "ĠPeggy": 7460,
      "Ġsupported": 7461,
      "ĠMegan": 7462,
      "ĠNana": 7463,
      "Ġinstruments": 7464,
      "Vroom": 7465,
      "ĠTy": 7466,
      "Ġwasting": 7467,
      "Ġlies": 7468,
      "âĤ¬,": 7469,
      "Ġwhose": 7470,
      "antha": 7471,
      "ĠPeppa": 7472,
      "Ġcotton": 7473,
      "Ġannoyed": 7474,
      "ĠAngel": 7475,
      "Ġgoodbyes": 7476,
      "ĠSatur": 7477,
      "Ġsoaking": 7478,
      "Ġweeds": 7479,
      "Ġknots": 7480,
      "ĠFighting": 7481,
      "ĠPau": 7482,
      "Ġunderstands": 7483,
      "ĠStitch": 7484,
      "Ġantic": 7485,
      "Ġrotting": 7486,
      "Ġvehicles": 7487,
      "Ġpupils": 7488,
      "Ġaccomplished": 7489,
      "ĠMaddie": 7490,
      "Ġnurses": 7491,
      "ĠSplash": 7492,
      "Ġwarrior": 7493,
      "Ġreunited": 7494,
      "ĠFuzzy": 7495,
      "ĠSaturday": 7496,
      "Get": 7497,
      "ĠHelen": 7498,
      "Ġreapp": 7499,
      "Ġalthough": 7500,
      "Ġpeas": 7501,
      "Ġteles": 7502,
      "Ġcheers": 7503,
      "ĠPh": 7504,
      "Ġdangers": 7505,
      "ails": 7506,
      "Ġcalmly": 7507,
      "Ġrobots": 7508,
      "Ġnovels": 7509,
      "ĠExcitedly": 7510,
      "Ġtelescope": 7511,
      "Ġmood": 7512,
      "Ġstumble": 7513,
      "ĠMaisy": 7514,
      "asers": 7515,
      "Ġnewfound": 7516,
      "ĠSamantha": 7517,
      "Ġtweet": 7518,
      "Ġfocus": 7519,
      "ilda": 7520,
      "acle": 7521,
      "Ġelbow": 7522,
      "Ġdespite": 7523,
      "Ġstomp": 7524,
      "Ġdiscussing": 7525,
      "Ġmaterial": 7526,
      "Ġcowboy": 7527,
      "mies": 7528,
      "Ġheartbroken": 7529,
      "Ġrescu": 7530,
      "Ġcrowns": 7531,
      "Ġwisely": 7532,
      "Ġtwisting": 7533,
      "Ġpermitted": 7534,
      "steps": 7535,
      "Ġconversation": 7536,
      "ooking": 7537,
      "Ġchanges": 7538,
      "Ġswo": 7539,
      "Ġbuddy": 7540,
      "Ġbelongings": 7541,
      "Ġwhistles": 7542,
      "Ġtidied": 7543,
      "Ġclassmates": 7544,
      "Ġspills": 7545,
      "crow": 7546,
      "Ġtar": 7547,
      "Ġdarl": 7548,
      "dding": 7549,
      "ĠPu": 7550,
      "Ġbits": 7551,
      "ugging": 7552,
      "Ġteachers": 7553,
      "Ġfootsteps": 7554,
      "Ġguessing": 7555,
      "Ġawoke": 7556,
      "Ġwealth": 7557,
      "Ġcrystals": 7558,
      "Ġexplains": 7559,
      "ĠRobo": 7560,
      "Ġrefuse": 7561,
      "Ġreassured": 7562,
      "Ġmasterpiece": 7563,
      "Ġswollen": 7564,
      "Ġdarlings": 7565,
      "iens": 7566,
      "wise": 7567,
      "Ġaim": 7568,
      "ĠLina": 7569,
      "rie": 7570,
      "Ġaliens": 7571,
      "Ġdecl": 7572,
      "ÅĵPlease": 7573,
      "Ġvegg": 7574,
      "perate": 7575,
      "Ġprayers": 7576,
      "Ġbracelets": 7577,
      "Ġinsisting": 7578,
      "ĠKaty": 7579,
      "Ġstudent": 7580,
      "ĠFrankie": 7581,
      "Ġpeeled": 7582,
      "ĠOutside": 7583,
      "ĠJonny": 7584,
      "Take": 7585,
      "aven": 7586,
      "mered": 7587,
      "Ġdot": 7588,
      "Ġgerm": 7589,
      "ĠSk": 7590,
      "Ġnasty": 7591,
      "Ġrin": 7592,
      "ammy": 7593,
      "Ġscent": 7594,
      "Ġvines": 7595,
      "ĠBubba": 7596,
      "Ġfigures": 7597,
      "Ġspeeding": 7598,
      "ĠMae": 7599,
      "Ġnibbled": 7600,
      "Ġsill": 7601,
      "Ġspies": 7602,
      "Ġflipped": 7603,
      "Ġtroubles": 7604,
      "Ġtoolbox": 7605,
      "Ġsolving": 7606,
      "Ġencount": 7607,
      "Ġvibr": 7608,
      "ĠSeeing": 7609,
      "Ġseagulls": 7610,
      "Ġnibble": 7611,
      "aa": 7612,
      "whe": 7613,
      "rest": 7614,
      "ĠTiger": 7615,
      "ĠOther": 7616,
      "Ġform": 7617,
      "Ġtreated": 7618,
      "Ġchilly": 7619,
      "Ġuntied": 7620,
      "Ġbeautifully": 7621,
      "Ġstored": 7622,
      "Ġtoward": 7623,
      "Ġbusiness": 7624,
      "Ġemer": 7625,
      "Ġcomforting": 7626,
      "Ġartwork": 7627,
      "Alright": 7628,
      "ĠElsa": 7629,
      "Ġtarget": 7630,
      "aby": 7631,
      "lor": 7632,
      "ider": 7633,
      "order": 7634,
      "chy": 7635,
      "Ġexch": 7636,
      "Ġbirdhouse": 7637,
      "sol": 7638,
      "Ġunfortunately": 7639,
      "Ġafar": 7640,
      "Ġtaped": 7641,
      "Ġexercises": 7642,
      "Ġsurvive": 7643,
      "Ġgranddaughter": 7644,
      "Ġcongratulated": 7645,
      "ĠPaula": 7646,
      "Little": 7647,
      "what": 7648,
      "idey": 7649,
      "ĠWin": 7650,
      "Ġposit": 7651,
      "Ġmarve": 7652,
      "ĠFlora": 7653,
      "Goodnight": 7654,
      "Ġhonking": 7655,
      "Ġservant": 7656,
      "Ġbanged": 7657,
      "Ġaware": 7658,
      "Ġstatues": 7659,
      "Ġmosquitoes": 7660,
      "Ġdelayed": 7661,
      "Ġsimply": 7662,
      "Ġinspired": 7663,
      "Ġveggies": 7664,
      "Boys": 7665,
      "ĠLion": 7666,
      "Ġforce": 7667,
      "Ġkings": 7668,
      "Ġturtles": 7669,
      "Ġrats": 7670,
      "ĠRufus": 7671,
      "Ġsweaty": 7672,
      "five": 7673,
      "father": 7674,
      "ighing": 7675,
      "Ġthanking": 7676,
      "Ġtrans": 7677,
      "ĠPing": 7678,
      "ĠSpidey": 7679,
      "Ġsquished": 7680,
      "ĠRudy": 7681,
      "Ġgazing": 7682,
      "Ġactivity": 7683,
      "Ġwounds": 7684,
      "Always": 7685,
      "ĠLiam": 7686,
      "ĠStartled": 7687,
      "gain": 7688,
      "pen": 7689,
      "sm": 7690,
      "Ġrely": 7691,
      "Ġloses": 7692,
      "ecca": 7693,
      "Ġmanners": 7694,
      "Ġtapping": 7695,
      "Ġuntie": 7696,
      "ĠSpe": 7697,
      "Ġapologised": 7698,
      "ĠRoger": 7699,
      "Cl": 7700,
      "we": 7701,
      "Ġtoss": 7702,
      "Ġdep": 7703,
      "ĠSe": 7704,
      "elvet": 7705,
      "Ġsmashed": 7706,
      "Ġjars": 7707,
      "Ġspy": 7708,
      "Ġjoins": 7709,
      "ipes": 7710,
      "Ġfoxes": 7711,
      "Ġscram": 7712,
      "Ġsweep": 7713,
      "Ġlabels": 7714,
      "Ġbeeped": 7715,
      "Ġscurrying": 7716,
      "Ġemerged": 7717,
      "Ġbitten": 7718,
      "orter": 7719,
      "onnie": 7720,
      "ĠDory": 7721,
      "Ġtwenty": 7722,
      "ÅĵThe": 7723,
      "Ġconvin": 7724,
      "Ġdressing": 7725,
      "Ġwarmly": 7726,
      "Ġpurpose": 7727,
      "Ġshrunk": 7728,
      "Ġpresented": 7729,
      "Ġpleaded": 7730,
      "Ġcurl": 7731,
      "Ġghosts": 7732,
      "Ġpandas": 7733,
      "Ġflaps": 7734,
      "ĠTessa": 7735,
      "Ġoppos": 7736,
      "Ġconcert": 7737,
      "Ġcorrectly": 7738,
      "Ġhen": 7739,
      "Ġstall": 7740,
      "ĠAlf": 7741,
      "Ġsped": 7742,
      "ĠEver": 7743,
      "ĠGinger": 7744,
      "Ġsquaw": 7745,
      "ĠFreddie": 7746,
      "ivia": 7747,
      "Ġtires": 7748,
      "Ġencouragement": 7749,
      "Ġswaying": 7750,
      "Ġwrinkled": 7751,
      "Ġaisle": 7752,
      "Ġanticip": 7753,
      "Ġrowed": 7754,
      "Ġbea": 7755,
      "elie": 7756,
      "ortun": 7757,
      "ĠNora": 7758,
      "ĠDog": 7759,
      "Ġjud": 7760,
      "Ġnests": 7761,
      "ĠBecky": 7762,
      "ĠZee": 7763,
      "Ġtrusting": 7764,
      "Ġprick": 7765,
      "Ġmagazines": 7766,
      "ĠVelvet": 7767,
      "Ġglittering": 7768,
      "ummies": 7769,
      "Ġopportun": 7770,
      "Ġnearest": 7771,
      "Ġtransf": 7772,
      "ĠTerry": 7773,
      "ats": 7774,
      "Ġsav": 7775,
      "Ġinter": 7776,
      "Ġramp": 7777,
      "ĠBrian": 7778,
      "ĠCara": 7779,
      "Ġcleared": 7780,
      "Ġtasting": 7781,
      "ĠStep": 7782,
      "Ġpicnics": 7783,
      "Ġgrandfather": 7784,
      "Ġotters": 7785,
      "Ġpedaled": 7786,
      "Ġwiggly": 7787,
      "Ġtype": 7788,
      "Ġnuzzled": 7789,
      "Ġrescuing": 7790,
      "Ġopposite": 7791,
      "Every": 7792,
      "Ġgall": 7793,
      "ĠSw": 7794,
      "ators": 7795,
      "Ġshimmering": 7796,
      "Ġloc": 7797,
      "ĠgirlÃ¢": 7798,
      "ddie": 7799,
      "Ġblond": 7800,
      "roll": 7801,
      "ÅĵA": 7802,
      "ÅĵHey": 7803,
      "ĠSpring": 7804,
      "Ġswimmer": 7805,
      "Ġadds": 7806,
      "Ġcovering": 7807,
      "Ġscarecrow": 7808,
      "Ġwindowsill": 7809,
      "Ġdisplayed": 7810,
      "Ġuniforms": 7811,
      "Ġswayed": 7812,
      "Leave": 7813,
      "Ġcocoon": 7814,
      "Ġdeclared": 7815,
      "Ġanticipation": 7816,
      "mo": 7817,
      "rily": 7818,
      "its": 7819,
      "idence": 7820,
      "ĠHope": 7821,
      "amma": 7822,
      "ĠJojo": 7823,
      "acy": 7824,
      "Ġvisits": 7825,
      "Ġdesigning": 7826,
      "screen": 7827,
      "Ġlipstick": 7828,
      "Ġdodged": 7829,
      "Ġhoo": 7830,
      "ĠSl": 7831,
      "ĠShelly": 7832,
      "Ġbeating": 7833,
      "Ġends": 7834,
      "Ġdoorbell": 7835,
      "Ġdisc": 7836,
      "ĠElle": 7837,
      "Ġdiscoveries": 7838,
      "Ġpurrs": 7839,
      "Ġattacked": 7840,
      "Ġsadder": 7841,
      "Ġcollapsed": 7842,
      "Ġscrambled": 7843,
      "munk": 7844,
      "Ġtumbled": 7845,
      "ĠTime": 7846,
      "ĠSand": 7847,
      "Ġsheets": 7848,
      "ĠMan": 7849,
      "Ġflick": 7850,
      "Ġflips": 7851,
      "Ġpeep": 7852,
      "Ġjoked": 7853,
      "Ġsnug": 7854,
      "ĠGret": 7855,
      "Ġcracks": 7856,
      "Ġimages": 7857,
      "Ġdecoration": 7858,
      "illiam": 7859,
      "Ġbackpacks": 7860,
      "manda": 7861,
      "ĠPoor": 7862,
      "Ġforgiveness": 7863,
      "Ġroutine": 7864,
      "Ġmanager": 7865,
      "Fl": 7866,
      "da": 7867,
      "pit": 7868,
      "Ġicing": 7869,
      "Ġtummies": 7870,
      "Ġwhoo": 7871,
      "ĠAmanda": 7872,
      "romise": 7873,
      "ĠWelcome": 7874,
      "Ġfailed": 7875,
      "ĠEddie": 7876,
      "ĠFort": 7877,
      "Ġswap": 7878,
      "Ġsunscreen": 7879,
      "ĠRuth": 7880,
      "ordinary": 7881,
      "Ġbathing": 7882,
      "Ġgenerosity": 7883,
      "Ġtoothbrush": 7884,
      "ĠMonkey": 7885,
      "ĠNancy": 7886,
      "Ġexperienced": 7887,
      "Dear": 7888,
      "water": 7889,
      "Ġting": 7890,
      "ĠLuc": 7891,
      "Ġyum": 7892,
      "Ġgoodies": 7893,
      "Ġflip": 7894,
      "usty": 7895,
      "Ġgrat": 7896,
      "ĠJoJo": 7897,
      "Ġsingers": 7898,
      "Ġsprout": 7899,
      "Ġbeeh": 7900,
      "ĠOlivia": 7901,
      "Ġobeyed": 7902,
      "ĠCrabby": 7903,
      "Ġencountered": 7904,
      "So": 7905,
      "Ġsens": 7906,
      "Ġheaven": 7907,
      "ĠWil": 7908,
      "ĠWilliam": 7909,
      "Ġnodding": 7910,
      "Ġlapt": 7911,
      "aus": 7912,
      "empt": 7913,
      "ĠPin": 7914,
      "Ġbadger": 7915,
      "Ġconv": 7916,
      "boards": 7917,
      "Ġdripping": 7918,
      "Ġadmiration": 7919,
      "Ġsternly": 7920,
      "Ġcustomer": 7921,
      "Ġastronauts": 7922,
      "ĠFortunately": 7923,
      "Ġgratitude": 7924,
      "uel": 7925,
      "ilities": 7926,
      "ative": 7927,
      "Ġinches": 7928,
      "Ġshall": 7929,
      "ument": 7930,
      "Ġbrightest": 7931,
      "Ġamu": 7932,
      "Ġslowed": 7933,
      "Ġattempt": 7934,
      "Ġminds": 7935,
      "Ġcrawls": 7936,
      "Ġsnaps": 7937,
      "ĠMelissa": 7938,
      "ĠPhil": 7939,
      "Ġconvince": 7940,
      "lied": 7941,
      "erk": 7942,
      "ĠJason": 7943,
      "ĠYouÃ¢": 7944,
      "ddles": 7945,
      "elle": 7946,
      "Ġblown": 7947,
      "ÅĵSee": 7948,
      "Ġstew": 7949,
      "Ġvisitors": 7950,
      "ĠFlo": 7951,
      "ĠAlan": 7952,
      "ĠBeh": 7953,
      "Ġrobin": 7954,
      "Ġextraordinary": 7955,
      "Ġscooters": 7956,
      "Ġapplauding": 7957,
      "Ġfloats": 7958,
      "Ġmeows": 7959,
      "ĠJonathan": 7960,
      "Ġchipmunk": 7961,
      "ĠBounce": 7962,
      "cie": 7963,
      "olp": 7964,
      "ulp": 7965,
      "ances": 7966,
      "ĠMin": 7967,
      "Ġsculp": 7968,
      "Ġflashed": 7969,
      "Ġexplor": 7970,
      "Ġdiso": 7971,
      "Ġfires": 7972,
      "Ġparted": 7973,
      "Ġrecorder": 7974,
      "Ġsoapy": 7975,
      "Ġorders": 7976,
      "Ġlowered": 7977,
      "Ġumbrellas": 7978,
      "Ġgrandson": 7979,
      "Ġmillion": 7980,
      "udolp": 7981,
      "Ġfilms": 7982,
      "Ġmatey": 7983,
      "ĠGabby": 7984,
      "Ġlaptop": 7985,
      "udolph": 7986,
      "ĠTaking": 7987,
      "ĠSay": 7988,
      "Ġshin": 7989,
      "ÅĵGood": 7990,
      "bee": 7991,
      "Ġreminds": 7992,
      "Ġtidying": 7993,
      "Ġbreaths": 7994,
      "Ġpriz": 7995,
      "Ġcheckout": 7996,
      "Ġgoats": 7997,
      "Ġmember": 7998,
      "Ġdiamonds": 7999,
      "Ġscolds": 8000,
      "Ġmeowing": 8001,
      "Ġdrowned": 8002,
      "Ġgerms": 8003,
      "Bang": 8004,
      "ĠSir": 8005,
      "Ġshorter": 8006,
      "lyn": 8007,
      "Ġswitched": 8008,
      "Ġfond": 8009,
      "ĠPen": 8010,
      "ctric": 8011,
      "angle": 8012,
      "Ġbounces": 8013,
      "Ġteams": 8014,
      "Ġscratching": 8015,
      "Ġapplause": 8016,
      "Ġquacking": 8017,
      "Ġinstrument": 8018,
      "Ġbeaming": 8019,
      "Ġmunching": 8020,
      "Ġconduct": 8021,
      "Ġresponded": 8022,
      "ĠSpeedy": 8023,
      "Too": 8024,
      "str": 8025,
      "Ġforts": 8026,
      "Ġclicked": 8027,
      "Ġclerk": 8028,
      "ĠFel": 8029,
      "ĠJoanna": 8030,
      "ĠRudolph": 8031,
      "Ġsupplied": 8032,
      "Ġtentacles": 8033,
      "Ġterrified": 8034,
      "Ġquestioned": 8035,
      "Ġgroan": 8036,
      "Ġincreasing": 8037,
      "Ġweapons": 8038,
      "Ġconnect": 8039,
      "Ġsteering": 8040,
      "Ġunwra": 8041,
      "rink": 8042,
      "ĠHold": 8043,
      "Ġrumbling": 8044,
      "Ġcarries": 8045,
      "Ġcares": 8046,
      "Ġque": 8047,
      "Ġcheated": 8048,
      "Ġcons": 8049,
      "Ġdears": 8050,
      "Ġsets": 8051,
      "Ġscrub": 8052,
      "Ġbothered": 8053,
      "belle": 8054,
      "Ġflashing": 8055,
      "Ġcharacters": 8056,
      "ĠBehind": 8057,
      "Arrr": 8058,
      "Ġfif": 8059,
      "anie": 8060,
      "storm": 8061,
      "Ġscri": 8062,
      "ĠDuck": 8063,
      "ÅĵSure": 8064,
      "Ġrealizes": 8065,
      "Ġforgives": 8066,
      "Ġpetting": 8067,
      "Ġzooms": 8068,
      "Ġmicrow": 8069,
      "Ġtilted": 8070,
      "Ġconductor": 8071,
      "off": 8072,
      "Ġhood": 8073,
      "ĠLenny": 8074,
      "ĠMoo": 8075,
      "aint": 8076,
      "ĠDra": 8077,
      "ĠRight": 8078,
      "Ġfloors": 8079,
      "ĠChick": 8080,
      "Ġawful": 8081,
      "Ġunlo": 8082,
      "Ġmischie": 8083,
      "Ġprevented": 8084,
      "Ġconfidence": 8085,
      "Ġconvinced": 8086,
      "Ġbeaver": 8087,
      "Ġmischievous": 8088,
      "Ġhaven": 8089,
      "Ġsoot": 8090,
      "uno": 8091,
      "Ġket": 8092,
      "Ġseals": 8093,
      "Ġflock": 8094,
      "Ġconcent": 8095,
      "Ġtops": 8096,
      "Ġmovements": 8097,
      "Ġelectric": 8098,
      "Ġcourt": 8099,
      "ĠBobbie": 8100,
      "Ġmodels": 8101,
      "ĠClaus": 8102,
      "Ġknocking": 8103,
      "Ġenviron": 8104,
      "Ġoffering": 8105,
      "ĠEliza": 8106,
      "Ġconquered": 8107,
      "ĠTyler": 8108,
      "Ġbeehive": 8109,
      "Ġmicrowave": 8110,
      "Ġconcentr": 8111,
      "Ġenvironment": 8112,
      "All": 8113,
      "Mr": 8114,
      "On": 8115,
      "lt": 8116,
      "Ġbou": 8117,
      "Ġwashes": 8118,
      "idnight": 8119,
      "ĠBang": 8120,
      "quet": 8121,
      "Ġhardest": 8122,
      "ÅĵWho": 8123,
      "ship": 8124,
      "ĠGary": 8125,
      "ĠTwinkle": 8126,
      "Ġstretches": 8127,
      "Ġtesting": 8128,
      "Ġtwists": 8129,
      "Ġhunters": 8130,
      "Ġenvelopes": 8131,
      "Ġdestroying": 8132,
      "Ġsprinkle": 8133,
      "Ġshorts": 8134,
      "Ġstrips": 8135,
      "Ġrobbers": 8136,
      "Ġqueens": 8137,
      "Nice": 8138,
      "now": 8139,
      "Ġtips": 8140,
      "Ġsigning": 8141,
      "Ġwaded": 8142,
      "Ġpuck": 8143,
      "Ġchecks": 8144,
      "Ġdeed": 8145,
      "Ġyoungest": 8146,
      "Stay": 8147,
      "udged": 8148,
      "ĠMatilda": 8149,
      "Ġcontainer": 8150,
      "Ġpaddling": 8151,
      "Ġsirens": 8152,
      "Ġexpecting": 8153,
      "Ġcommon": 8154,
      "Choo": 8155,
      "lest": 8156,
      "ĠAgain": 8157,
      "Ġstrum": 8158,
      "ĠGus": 8159,
      "Ġjobs": 8160,
      "Ġexpert": 8161,
      "ĠStri": 8162,
      "Ġdisappoint": 8163,
      "Ġtickling": 8164,
      "ĠPeep": 8165,
      "Ġstamped": 8166,
      "Ġobserving": 8167,
      "Ġannounced": 8168,
      "Ġgallop": 8169,
      "Ġsculpture": 8170,
      "Molly": 8171,
      "lers": 8172,
      "rough": 8173,
      "ĠLy": 8174,
      "ooks": 8175,
      "ĠAnnabelle": 8176,
      "LetÃ¢": 8177,
      "ĠGemma": 8178,
      "Ġwinding": 8179,
      "Ġmesses": 8180,
      "Ġmattered": 8181,
      "Ġargument": 8182,
      "Ġunpacking": 8183,
      "Ġstroke": 8184,
      "ĠAnother": 8185,
      "elieve": 8186,
      "Billy": 8187,
      "bu": 8188,
      "earing": 8189,
      "ĠHar": 8190,
      "ĠLooking": 8191,
      "arable": 8192,
      "Ġgrumbled": 8193,
      "Ġteap": 8194,
      "Ġtearing": 8195,
      "Ġraising": 8196,
      "ĠNell": 8197,
      "otte": 8198,
      "Ġcupcake": 8199,
      "ĠReady": 8200,
      "Ġshrank": 8201,
      "Ġwhisk": 8202,
      "Ġclearly": 8203,
      "Ġcombed": 8204,
      "ĠCharlotte": 8205,
      "ĠVroom": 8206,
      "Ġcowboys": 8207,
      "eople": 8208,
      "flowers": 8209,
      "ware": 8210,
      "Ġtin": 8211,
      "ĠHank": 8212,
      "Ġbride": 8213,
      "ĠNice": 8214,
      "Ġsoundly": 8215,
      "Ġsurely": 8216,
      "ĠGracie": 8217,
      "Ġcompan": 8218,
      "Ġdragonfly": 8219,
      "Ġbuckled": 8220,
      "Ġstorms": 8221,
      "ĠMartin": 8222,
      "Ġoutfits": 8223,
      "ĠElsie": 8224,
      "Ġexperiences": 8225,
      "Ġexploded": 8226,
      "ĠImmediately": 8227,
      "ĠSandra": 8228,
      "Ġexploration": 8229,
      "Ġbouquet": 8230,
      "Kids": 8231,
      "otch": 8232,
      "ended": 8233,
      "Ġsmelt": 8234,
      "ĠDe": 8235,
      "Ġgardens": 8236,
      "ÅĵMaybe": 8237,
      "ĠPick": 8238,
      "Ġsqueezes": 8239,
      "Ġnights": 8240,
      "Ġimaginary": 8241,
      "Ġsalon": 8242,
      "Ġtests": 8243,
      "Ġrelaxing": 8244,
      "Ġsincere": 8245,
      "Ġresponsibility": 8246,
      "Ġvibrant": 8247,
      "free": 8248,
      "oor": 8249,
      "Ġhu": 8250,
      "Ġsteth": 8251,
      "ĠMuff": 8252,
      "ĠMamma": 8253,
      "ĠMidnight": 8254,
      "ittered": 8255,
      "Ġwhoever": 8256,
      "Ġmoat": 8257,
      "Ġleaking": 8258,
      "airy": 8259,
      "idents": 8260,
      "Ġactive": 8261,
      "Ġself": 8262,
      "Ġsprays": 8263,
      "Ġ''": 8264,
      "Ġpizzas": 8265,
      "Ġchecking": 8266,
      "ippers": 8267,
      "Ġzips": 8268,
      "Ġexplaining": 8269,
      "Ġhaircuts": 8270,
      "Ġburnt": 8271,
      "ĠFoxy": 8272,
      "ccidents": 8273,
      "ĠAuntie": 8274,
      "Ġbehaviour": 8275,
      "Ġtemptation": 8276,
      "Ġpossess": 8277,
      "Someone": 8278,
      "Ġdisobey": 8279,
      "Ġteapot": 8280,
      "Ġstethos": 8281,
      "bank": 8282,
      "val": 8283,
      "Ġill": 8284,
      "ĠSleep": 8285,
      "anced": 8286,
      "ĠBer": 8287,
      "ĠBad": 8288,
      "Ġmommies": 8289,
      "Ġswallow": 8290,
      "Ġtraded": 8291,
      "Ġquilt": 8292,
      "Ġoverhead": 8293,
      "Ġglimmering": 8294,
      "ÅĵOk": 8295,
      "Ġpapa": 8296,
      "Ġsnowy": 8297,
      "uggy": 8298,
      "Ġinstantly": 8299,
      "balls": 8300,
      "ĠBruno": 8301,
      "Ġpressing": 8302,
      "Ġburger": 8303,
      "Ġsqueaky": 8304,
      "abra": 8305,
      "ĠWhoever": 8306,
      "ĠLiza": 8307,
      "Ġoccasion": 8308,
      "Ġpeeped": 8309,
      "Ġcompanion": 8310,
      "yl": 8311,
      "Ġkilled": 8312,
      "Ġrewards": 8313,
      "Ġbond": 8314,
      "Ġfaith": 8315,
      "ĠRiley": 8316,
      "ĠFinny": 8317,
      "ĠGrand": 8318,
      "Ġcrocodiles": 8319,
      "Ġcheaper": 8320,
      "Ġlanguages": 8321,
      "Ġcubs": 8322,
      "Ġrows": 8323,
      "Ġpuppets": 8324,
      "Ġexpression": 8325,
      "Ġwriggled": 8326,
      "Ġcommunic": 8327,
      "Ġstethoscope": 8328,
      "Jim": 8329,
      "parable": 8330,
      "Ġouch": 8331,
      "ĠTammy": 8332,
      "igger": 8333,
      "ĠBonnie": 8334,
      "Ġkit": 8335,
      "Ġposes": 8336,
      "Ġtrigger": 8337,
      "Ġwaters": 8338,
      "Ġsandpit": 8339,
      "ĠAllie": 8340,
      "Ġhunting": 8341,
      "Ġerase": 8342,
      "Ġinseparable": 8343,
      "ĠIsn": 8344,
      "Ġparticularly": 8345,
      "Ġpopsic": 8346,
      "Fluffy": 8347,
      "Â¦": 8348,
      "ĠYum": 8349,
      "ita": 8350,
      "Ġnatur": 8351,
      "Ġplayd": 8352,
      "Ġlocks": 8353,
      "Ġjugg": 8354,
      "Ġsometime": 8355,
      "âĤ¬Â¦": 8356,
      "ĠEr": 8357,
      "Ġchin": 8358,
      "Ġprod": 8359,
      "Ġawhile": 8360,
      "ĠTrust": 8361,
      "Ġproviding": 8362,
      "Ġopinions": 8363,
      "pril": 8364,
      "Ġdefeated": 8365,
      "ĠDino": 8366,
      "Ġopportunity": 8367,
      "jack": 8368,
      "lo": 8369,
      "Ġhab": 8370,
      "Ġplugged": 8371,
      "Ġupside": 8372,
      "ĠMila": 8373,
      "venir": 8374,
      "Ġflowing": 8375,
      "Ġcleans": 8376,
      "Ġclosing": 8377,
      "ĠRavi": 8378,
      "Ġcrops": 8379,
      "Ġcalmer": 8380,
      "ĠShow": 8381,
      "Ġmeatballs": 8382,
      "Quack": 8383,
      "Ġtextures": 8384,
      "Ġtypes": 8385,
      "ĠRocky": 8386,
      "Ġsouvenir": 8387,
      "An": 8388,
      "Ġpouch": 8389,
      "omb": 8390,
      "Ġnapped": 8391,
      "Ġthump": 8392,
      "Ġmomma": 8393,
      "Ġshattered": 8394,
      "ĠApril": 8395,
      "Ġfunn": 8396,
      "Ġclut": 8397,
      "Ġchill": 8398,
      "Ġbrains": 8399,
      "Ġglided": 8400,
      "Ġsquinted": 8401,
      "Ġgrassho": 8402,
      "Ġhotter": 8403,
      "Ġpreschool": 8404,
      "Ġcheerfully": 8405,
      "Ġburns": 8406,
      "Ġhangers": 8407,
      "Ġfascinating": 8408,
      "ĠOliver": 8409,
      "Ġannoying": 8410,
      "ĠMuffin": 8411,
      "Hold": 8412,
      "Sally": 8413,
      "emy": 8414,
      "Ġborn": 8415,
      "Ġodd": 8416,
      "ĠSummer": 8417,
      "ana": 8418,
      "Ġplug": 8419,
      "Ġrebu": 8420,
      "Ġroast": 8421,
      "ĠwhatÃ¢": 8422,
      "Ġcheat": 8423,
      "ÅĵBe": 8424,
      "ĠPet": 8425,
      "ĠDoes": 8426,
      "ĠKy": 8427,
      "Ġgulp": 8428,
      "Ġvisitor": 8429,
      "Ġdryer": 8430,
      "Ġwildflowers": 8431,
      "ĠCarla": 8432,
      "Ġgasps": 8433,
      "Ġprickly": 8434,
      "His": 8435,
      "Put": 8436,
      "gr": 8437,
      "jest": 8438,
      "py": 8439,
      "vy": 8440,
      "Ġbound": 8441,
      "aron": 8442,
      "Ġthie": 8443,
      "ĠOff": 8444,
      "Ġhisses": 8445,
      "ĠJasm": 8446,
      "ĠDoug": 8447,
      "Ġbund": 8448,
      "anda": 8449,
      "Ġskies": 8450,
      "Ġenemy": 8451,
      "Ġdollar": 8452,
      "ĠNever": 8453,
      "Ġmessages": 8454,
      "Ġsmoking": 8455,
      "Ġreturning": 8456,
      "Ġstuffing": 8457,
      "Ġwiser": 8458,
      "Ġpantry": 8459,
      "Ġmelody": 8460,
      "ĠShare": 8461,
      "amboo": 8462,
      "Ġswirls": 8463,
      "ĠStanley": 8464,
      "Ġbruises": 8465,
      "Ġlocal": 8466,
      "Ġamused": 8467,
      "In": 8468,
      "ĠBra": 8469,
      "Ġhiss": 8470,
      "ĠmomÃ¢": 8471,
      "eline": 8472,
      "getic": 8473,
      "Ġbecomes": 8474,
      "Ġbubbly": 8475,
      "Ġbubbling": 8476,
      "ĠPl": 8477,
      "shadow": 8478,
      "Ġunco": 8479,
      "Ġriverbank": 8480,
      "Ġpleas": 8481,
      "Ġcops": 8482,
      "ĠMona": 8483,
      "ĠChickie": 8484,
      "iving": 8485,
      "mel": 8486,
      "Ġ5": 8487,
      "ouraged": 8488,
      "Ġinvent": 8489,
      "Ġyumm": 8490,
      "elope": 8491,
      "Ġshines": 8492,
      "Ġshallow": 8493,
      "ending": 8494,
      "Ġwhimp": 8495,
      "Ġwhales": 8496,
      "ĠAr": 8497,
      "Ġbacks": 8498,
      "Ġtreas": 8499,
      "ĠJose": 8500,
      "ĠPink": 8501,
      "Ġfinishes": 8502,
      "Ġunable": 8503,
      "Ġcreams": 8504,
      "Ġanswering": 8505,
      "Ġmysteries": 8506,
      "Ġpasses": 8507,
      "Ġcaw": 8508,
      "Ġengines": 8509,
      "Ġfreezing": 8510,
      "Ġtraveling": 8511,
      "Ġlumberjack": 8512,
      "ĠPrince": 8513,
      "Ahoy": 8514,
      "Ġhealthier": 8515,
      "Ġnatural": 8516,
      "',": 8517,
      "Jill": 8518,
      "ĠTre": 8519,
      "Ġmac": 8520,
      "iliar": 8521,
      "orking": 8522,
      "ige": 8523,
      "amiliar": 8524,
      "ĠOuch": 8525,
      "stand": 8526,
      "Ġwhined": 8527,
      "aret": 8528,
      "Ġscow": 8529,
      "ĠSuper": 8530,
      "Ġwatermel": 8531,
      "ĠPlaying": 8532,
      "ĠRich": 8533,
      "Ġsweeter": 8534,
      "Ġsprang": 8535,
      "ĠThankfully": 8536,
      "Ġcoolest": 8537,
      "Ġpepperoni": 8538,
      "Ġchatted": 8539,
      "Ġunfamiliar": 8540,
      "ĠQuickly": 8541,
      "Ġgrasshopper": 8542,
      "belt": 8543,
      "Ġactor": 8544,
      "Ġsipped": 8545,
      "Ġtot": 8546,
      "Ġlar": 8547,
      "Ġlump": 8548,
      "Ġmunched": 8549,
      "ĠSweet": 8550,
      "Ġrack": 8551,
      "ĠOh": 8552,
      "Ġprank": 8553,
      "anted": 8554,
      "ĠPa": 8555,
      "acock": 8556,
      "ĠRicky": 8557,
      "Ġfarmers": 8558,
      "Ġinvites": 8559,
      "ĠChoo": 8560,
      "Ġserving": 8561,
      "Ġhonesty": 8562,
      "ĠDonÃ¢": 8563,
      "Ġscares": 8564,
      "Ġcuddling": 8565,
      "Ġearned": 8566,
      "whel": 8567,
      "ĠJasmine": 8568,
      "Hmm": 8569,
      "Ġbas": 8570,
      "Ġbomb": 8571,
      "Ġbamboo": 8572,
      "ĠSurpr": 8573,
      "Ġdoz": 8574,
      "Ġoverwhel": 8575,
      "Ġnecks": 8576,
      "Ġseatbelt": 8577,
      "Ġmoonlight": 8578,
      "Ġapology": 8579,
      "Ġcomputers": 8580,
      "Ġmiller": 8581,
      "Ġcompliment": 8582,
      "Ġrepairman": 8583,
      "Ġweighs": 8584,
      "Ġairplanes": 8585,
      "Ġspilling": 8586,
      "Ġhonks": 8587,
      "Ġdetails": 8588,
      "Ġmagnifying": 8589,
      "Ġreappeared": 8590,
      "For": 8591,
      "Soon": 8592,
      "Ġbiscuit": 8593,
      "Ġdashed": 8594,
      "ĠJilly": 8595,
      "ĠPiggy": 8596,
      "shaped": 8597,
      "ĠThrough": 8598,
      "Ġcris": 8599,
      "Ġdrip": 8600,
      "ĠKathy": 8601,
      "asha": 8602,
      "Ġcompete": 8603,
      "Ġsuccessfully": 8604,
      "Ġpinching": 8605,
      "faction": 8606,
      "Ġexperiment": 8607,
      "ĠSnowball": 8608,
      "Ġaeroplanes": 8609,
      "Ġsatisfaction": 8610,
      "Ġprizes": 8611,
      "Ġthieves": 8612,
      "Ġtreasured": 8613,
      "Any": 8614,
      "Che": 8615,
      "Tw": 8616,
      "ints": 8617,
      "Ġlim": 8618,
      "Ġgoo": 8619,
      "immered": 8620,
      "ormed": 8621,
      "chup": 8622,
      "ĠAccidents": 8623,
      "Ġexamp": 8624,
      "Ġcanv": 8625,
      "Ġknives": 8626,
      "ĠEd": 8627,
      "Ġsnapping": 8628,
      "Ġdonkey": 8629,
      "Ġraking": 8630,
      "ĠJohny": 8631,
      "ĠGre": 8632,
      "Ġsandy": 8633,
      "Ġcamel": 8634,
      "Ġspringtime": 8635,
      "ĠRosa": 8636,
      "Ġchatting": 8637,
      "ĠBirdie": 8638,
      "Ġwhimpered": 8639,
      "Never": 8640,
      "gar": 8641,
      "oc": 8642,
      "sie": 8643,
      "uess": 8644,
      "Ġ4": 8645,
      "Ġhike": 8646,
      "ouched": 8647,
      "Ġlasers": 8648,
      "Ġcages": 8649,
      "ergetic": 8650,
      "ĠOf": 8651,
      "Ġboil": 8652,
      "Ġjets": 8653,
      "ĠWo": 8654,
      "Ġenergetic": 8655,
      "Ġlongest": 8656,
      "Ġcheating": 8657,
      "Ġglittered": 8658,
      "ogo": 8659,
      "Ġpills": 8660,
      "ĠZack": 8661,
      "Ġmiracle": 8662,
      "Ġcroaked": 8663,
      "Ġtraps": 8664,
      "Ġalligators": 8665,
      "Ġapproach": 8666,
      "Ġsituations": 8667,
      "ĠHootie": 8668,
      "Ġsnorted": 8669,
      "Ġpositive": 8670,
      "Ġjudges": 8671,
      "Ġketchup": 8672,
      "Ġwatermelon": 8673,
      "Once": 8674,
      "cad": 8675,
      "over": 8676,
      "rupt": 8677,
      "Ġtopp": 8678,
      "Ġdou": 8679,
      "Ġdart": 8680,
      "ĠSasha": 8681,
      "rick": 8682,
      "ĠBelle": 8683,
      "Ġarrest": 8684,
      "Ġlevers": 8685,
      "ashes": 8686,
      "Ġability": 8687,
      "ĠJody": 8688,
      "Ġshares": 8689,
      "ĠGirl": 8690,
      "Ġmeaning": 8691,
      "Ġattitude": 8692,
      "Ġpractised": 8693,
      "Ġprotection": 8694,
      "ĠSteven": 8695,
      "ĠVery": 8696,
      "Ġrebuild": 8697,
      "Ġexample": 8698,
      "cadabra": 8699,
      "First": 8700,
      "eep": 8701,
      "Ġpounced": 8702,
      "Ġpipes": 8703,
      "Ġweighing": 8704,
      "Ġmoons": 8705,
      "Ġwolves": 8706,
      "ÅĵYay": 8707,
      "Ġthrill": 8708,
      "Ġbluebird": 8709,
      "Ġshoel": 8710,
      "ĠJenn": 8711,
      "Ġmedals": 8712,
      "Ġtrusts": 8713,
      "Ġdemanding": 8714,
      "Ġrepeats": 8715,
      "Ġbends": 8716,
      "Ġswimsuits": 8717,
      "Ġembarrassing": 8718,
      "Ġshrugs": 8719,
      "Ġdiscouraged": 8720,
      "Ġgroaned": 8721,
      "Ġcanvas": 8722,
      "!'.": 8723,
      "Ab": 8724,
      "Deal": 8725,
      "Em": 8726,
      "ai": 8727,
      "nces": 8728,
      "iter": 8729,
      "ering": 8730,
      "Ġrips": 8731,
      "adually": 8732,
      "Ġgoodness": 8733,
      "Ġswat": 8734,
      "Ġcompared": 8735,
      "Ġjoyfully": 8736,
      "Ġchopping": 8737,
      "Ġhummed": 8738,
      "Ġdigs": 8739,
      "Ġthicker": 8740,
      "scotch": 8741,
      "Ġrewarding": 8742,
      "Ġvests": 8743,
      "Ġwiggling": 8744,
      "Ġstyles": 8745,
      "ĠAmber": 8746,
      "Ġdistracted": 8747,
      "ĠPenelope": 8748,
      "HE": 8749,
      "ole": 8750,
      "ĠTears": 8751,
      "Ġding": 8752,
      "onest": 8753,
      "ĠOver": 8754,
      "Ġpopping": 8755,
      "Ġhoses": 8756,
      "Ġenem": 8757,
      "Ġfoam": 8758,
      "Ġbaa": 8759,
      "rench": 8760,
      "Ġmeadows": 8761,
      "Ġcaterpillars": 8762,
      "Ġguarding": 8763,
      "Ġsupporting": 8764,
      "Ġslee": 8765,
      "Ġnewspapers": 8766,
      "Sarah": 8767,
      "Ġdeserved": 8768,
      "ĠJoanne": 8769,
      "Ġslithered": 8770,
      "Ġblonde": 8771,
      "ĠPinchy": 8772,
      "Ġcommunicate": 8773,
      "Ġenemies": 8774,
      "Jane": 8775,
      "well": 8776,
      "Ġfade": 8777,
      "Ġfaint": 8778,
      "Ġlull": 8779,
      "Ġnic": 8780,
      "ĠHurry": 8781,
      "ĠLots": 8782,
      "Ġrecess": 8783,
      "iciest": 8784,
      "Ġfacing": 8785,
      "Ġblade": 8786,
      "Ġbud": 8787,
      "Ġpecks": 8788,
      "ĠJosie": 8789,
      "Ġskirts": 8790,
      "ĠCare": 8791,
      "Ġunderwater": 8792,
      "Ġenjoyable": 8793,
      "Ġdev": 8794,
      "Ġdifferently": 8795,
      "Ġsweetly": 8796,
      "Ġteamwork": 8797,
      "Ġcosts": 8798,
      "Ġscattering": 8799,
      "Ġhooks": 8800,
      "Ġluckiest": 8801,
      "Ġsweaters": 8802,
      "Ġinjured": 8803,
      "oss": 8804,
      "ris": 8805,
      "wen": 8806,
      "Ãĥ": 8807,
      "inging": 8808,
      "ani": 8809,
      "lephant": 8810,
      "Ġstur": 8811,
      "Ġnoticing": 8812,
      "Ġwhipped": 8813,
      "ĠEric": 8814,
      "ĠFly": 8815,
      "Ġpeak": 8816,
      "Ġtalents": 8817,
      "Ġsleeps": 8818,
      "Ġobst": 8819,
      "Ġembra": 8820,
      "Ġcafe": 8821,
      "iolet": 8822,
      "Ġthumbs": 8823,
      "Ġfireflies": 8824,
      "ĠSparkle": 8825,
      "ĠCarol": 8826,
      "ibly": 8827,
      "Ġdaily": 8828,
      "Ġpounds": 8829,
      "Ġcertainly": 8830,
      "Ġcoughed": 8831,
      "Ġnicest": 8832,
      "Keep": 8833,
      "becca": 8834,
      "lish": 8835,
      "Ġtugging": 8836,
      "Ġarom": 8837,
      "Ġwig": 8838,
      "Ġcuc": 8839,
      "isdom": 8840,
      "Ġgummy": 8841,
      "Ġgroom": 8842,
      "otion": 8843,
      "ĠBoo": 8844,
      "Ġformed": 8845,
      "Ġdolly": 8846,
      "Ġworst": 8847,
      "Ġslapping": 8848,
      "ĠCon": 8849,
      "Ġfishy": 8850,
      "Ġmonth": 8851,
      "Ġbowing": 8852,
      "Ġshoots": 8853,
      "Ġwelcoming": 8854,
      "Ġsmartest": 8855,
      "Ġbenches": 8856,
      "ĠRebecca": 8857,
      "Ġbats": 8858,
      "iana": 8859,
      "Ġangrily": 8860,
      "Ġhoops": 8861,
      "ĠMagic": 8862,
      "Ġpurring": 8863,
      "Ġpoisonous": 8864,
      "Ġreflect": 8865,
      "Joe": 8866,
      "Tr": 8867,
      "Ġgates": 8868,
      "orse": 8869,
      "Ġripp": 8870,
      "Ġhissing": 8871,
      "icious": 8872,
      "ĠDeal": 8873,
      "Ġblades": 8874,
      "Ġblushed": 8875,
      "Ġpeacock": 8876,
      "Ġdoorstep": 8877,
      "ĠGwen": 8878,
      "ounce": 8879,
      "Ġmarking": 8880,
      "Ġwrapper": 8881,
      "Ġcurre": 8882,
      "Ġlizards": 8883,
      "Ġbicycles": 8884,
      "Ġvinegar": 8885,
      "Ġkayaking": 8886,
      "Ġburgers": 8887,
      "Ġsilently": 8888,
      "Which": 8889,
      "solut": 8890,
      "Ġlarger": 8891,
      "Ġoverwhelmed": 8892,
      "Danger": 8893,
      "oard": 8894,
      "Ġicky": 8895,
      "ĠHello": 8896,
      "Ġank": 8897,
      "Ġexh": 8898,
      "ĠWoo": 8899,
      "ĠButter": 8900,
      "Ġclaw": 8901,
      "Ġlava": 8902,
      "rob": 8903,
      "Ġaboard": 8904,
      "Ġpokes": 8905,
      "Ġintently": 8906,
      "Ġowns": 8907,
      "Ġhopscotch": 8908,
      "Ġmustered": 8909,
      "ĠAlbert": 8910,
      "Ġtunes": 8911,
      "Ġloyalty": 8912,
      "Ġcherish": 8913,
      "Ġimproving": 8914,
      "Ġharvest": 8915,
      "Ġstrokes": 8916,
      "Ġflashes": 8917,
      "Ġscenery": 8918,
      "ĠSkip": 8919,
      "Ġmarveled": 8920,
      "ĠGreta": 8921,
      "Ġwhoosh": 8922,
      "Ġplaydate": 8923,
      "Bl": 8924,
      "Honey": 8925,
      "ĠYe": 8926,
      "nded": 8927,
      "edic": 8928,
      "ĠTHE": 8929,
      "ili": 8930,
      "ĠSa": 8931,
      "ĠSal": 8932,
      "ĠLight": 8933,
      "Ġshave": 8934,
      "ĠAnt": 8935,
      "ĠWigg": 8936,
      "ĠFish": 8937,
      "ĠJackÃ¢": 8938,
      "Ġsneezes": 8939,
      "Ġglisten": 8940,
      "ÅĵS": 8941,
      "Ġcrouched": 8942,
      "Ġmessed": 8943,
      "Ġdesper": 8944,
      "Ġstirs": 8945,
      "Ġtickles": 8946,
      "Ġchews": 8947,
      "Ġintelligence": 8948,
      "Ġmugs": 8949,
      "Ġhesitation": 8950,
      "Ġcrowded": 8951,
      "ĠYog": 8952,
      "Ġfacts": 8953,
      "ĠBouncy": 8954,
      "Ġexchange": 8955,
      "Ġtransformed": 8956,
      "ĠMinnie": 8957,
      "Ġaroma": 8958,
      "Hurry": 8959,
      "barrow": 8960,
      "Ġheels": 8961,
      "Ġhamb": 8962,
      "ĠHo": 8963,
      "ĠLa": 8964,
      "ĠLife": 8965,
      "Ġbeast": 8966,
      "aming": 8967,
      "rice": 8968,
      "Ġplayhouse": 8969,
      "ĠAvery": 8970,
      "ĠTomorrow": 8971,
      "ĠFairy": 8972,
      "andel": 8973,
      "ĠAndrew": 8974,
      "Ġracer": 8975,
      "Ġruff": 8976,
      "Ġguards": 8977,
      "Ġdrying": 8978,
      "ĠWhich": 8979,
      "Ġwheelbarrow": 8980,
      "Ġcracker": 8981,
      "Ġjogger": 8982,
      "Ġkneeling": 8983,
      "ÅĵWeÃ¢": 8984,
      "Ġscoops": 8985,
      "Ġrevealing": 8986,
      "Ġcousins": 8987,
      "Ġdefeat": 8988,
      "Ġrinse": 8989,
      "Ġhooves": 8990,
      "Only": 8991,
      "Ġhambur": 8992,
      "che": 8993,
      "ders": 8994,
      "ker": 8995,
      "Ġlil": 8996,
      "iring": 8997,
      "irty": 8998,
      "Ġwhir": 8999,
      "Ġbold": 9000,
      "Ġalley": 9001,
      "Ġlevel": 9002,
      "Ġrunner": 9003,
      "Ġunless": 9004,
      "Ġstores": 9005,
      "Ġmagically": 9006,
      "ĠJennie": 9007,
      "speople": 9008,
      "Ġtownspeople": 9009,
      "Ġalongside": 9010,
      "izza": 9011,
      "ĠLeah": 9012,
      "Ġbeetles": 9013,
      "Ġerupt": 9014,
      "Ġhippos": 9015,
      "Ġcrickets": 9016,
      "ĠOrange": 9017,
      "Ġcells": 9018,
      "Ġallowing": 9019,
      "Ġstrolled": 9020,
      "Ġunwrapped": 9021,
      "Ġelectricity": 9022,
      "Ġdisappointment": 9023,
      "Ġpleasant": 9024,
      "cri": 9025,
      "gress": 9026,
      "rum": 9027,
      "Ġtant": 9028,
      "ĠToni": 9029,
      "Ġsoda": 9030,
      "ĠweÃ¢": 9031,
      "ĠMoon": 9032,
      "Ġwhirl": 9033,
      "Ġallerg": 9034,
      "Ġscores": 9035,
      "ĠColin": 9036,
      "ĠPear": 9037,
      "Ġmajest": 9038,
      "ĠNe": 9039,
      "Ġstepping": 9040,
      "Ġmovement": 9041,
      "Ġlanding": 9042,
      "Ġdisappearing": 9043,
      "cycles": 9044,
      "colored": 9045,
      "Ġminded": 9046,
      "Ġspears": 9047,
      "ĠBruce": 9048,
      "Ġpilots": 9049,
      "ĠPatrick": 9050,
      "Ġyawning": 9051,
      "uction": 9052,
      "aitlyn": 9053,
      "Ġtongues": 9054,
      "ĠSparkles": 9055,
      "ĠCaroline": 9056,
      "Ġunfair": 9057,
      "Ġchoosing": 9058,
      "Ġstains": 9059,
      "Ġscene": 9060,
      "Ġshinier": 9061,
      "ĠYears": 9062,
      "Open": 9063,
      "just": 9064,
      "site": 9065,
      "Ġwaking": 9066,
      "ĠSid": 9067,
      "chief": 9068,
      "alled": 9069,
      "Ġboards": 9070,
      "Ġboiling": 9071,
      "bbi": 9072,
      "Ġtrading": 9073,
      "berry": 9074,
      "ĠPer": 9075,
      "Ġforeshadow": 9076,
      "ĠKen": 9077,
      "Ġcountries": 9078,
      "Ġacts": 9079,
      "Ġfootpr": 9080,
      "hole": 9081,
      "Ġcircled": 9082,
      "Ġbumping": 9083,
      "Ġbanging": 9084,
      "Ġallowance": 9085,
      "ĠSunshine": 9086,
      "ĠSteph": 9087,
      "Ġsensation": 9088,
      "Ġsoothing": 9089,
      "Ġshoelaces": 9090,
      "Ġankle": 9091,
      "Ġtantrum": 9092,
      "oto": 9093,
      "Ġroo": 9094,
      "cell": 9095,
      "ugs": 9096,
      "ĠWas": 9097,
      "umed": 9098,
      "Ġcluck": 9099,
      "ĠDay": 9100,
      "oured": 9101,
      "beep": 9102,
      "ĠGogo": 9103,
      "Ġwarmed": 9104,
      "ĠKaitlyn": 9105,
      "ormation": 9106,
      "Does": 9107,
      "ĠJohnnie": 9108,
      "Ġgroups": 9109,
      "Ġthunderstorm": 9110,
      "Ġperformers": 9111,
      "Ġkangaroos": 9112,
      "Ġglobe": 9113,
      "Ġchallenged": 9114,
      "Ġaston": 9115,
[...]
