{
  "version": "1.0",
  "truncation": null,
  "padding": null,
  "added_tokens": [
    {
      "id": 0,
      "content": "[PAD]",
      "single_word": false,
      "lstrip": false,
      "rstrip": false,
      "normalized": false,
      "special": true
    },
    {
      "id": 1,
      "content": "[UNK]",
      "single_word": false,
      "lstrip": false,
      "rstrip": false,
      "normalized": false,
      "special": true
    },
    {
      "id": 2,
      "content": "[BOS]",
      "single_word": false,
      "lstrip": false,
      "rstrip": false,
      "normalized": false,
      "special": true
    },
    {
      "id": 3,
      "content": "[EOS]",
      "single_word": false,
      "lstrip": false,
      "rstrip": false,
      "normalized": false,
      "special": true
    }
  ],
  "normalizer": null,
  "pre_tokenizer": {
    "type": "Whitespace"
  },
  "post_processor": null,
  "decoder": null,
  "model": {
    "type": "BPE",
    "dropout": null,
    "unk_token": "[UNK]",
    "continuing_subword_prefix": null,
    "end_of_word_suffix": null,
    "fuse_unk": false,
    "byte_fallback": false,
    "ignore_merges": false,
    "vocab": {
      "[PAD]": 0,
      "[UNK]": 1,
      "[BOS]": 2,
      "[EOS]": 3,
      "!": 4,
      "\"": 5,
      "'": 6,
      ",": 7,
      "-": 8,
      ".": 9,
      "3": 10,
      "8": 11,
      ":": 12,
      ";": 13,
      "?": 14,
      "A": 15,
      "B": 16,
      "C": 17,
      "D": 18,
      "E": 19,
      "F": 20,
      "G": 21,
      "H": 22,
      "I": 23,
      "J": 24,
      "L": 25,
      "M": 26,
      "N": 27,
      "O": 28,
      "P": 29,
      "Q": 30,
      "R": 31,
      "S": 32,
      "T": 33,
      "W": 34,
      "Y": 35,
      "Z": 36,
      "a": 37,
      "b": 38,
      "c": 39,
      "d": 40,
      "e": 41,
      "f": 42,
      "g": 43,
      "h": 44,
      "i": 45,
      "j": 46,
      "k": 47,
      "l": 48,
      "m": 49,
      "n": 50,
      "o": 51,
      "p": 52,
      "q": 53,
      "r": 54,
      "s": 55,
      "t": 56,
      "u": 57,
      "v": 58,
      "w": 59,
      "x": 60,
      "y": 61,
      "z": 62,
      "â": 63,
      "œ": 64,
      "€": 65,
      "™": 66,
      "he": 67,
      "the": 68,
      "nd": 69,
      "ed": 70,
      "to": 71,
      "wa": 72,
      "and": 73,
      "in": 74,
      "it": 75,
      "re": 76,
      "ou": 77,
      "ha": 78,
      "er": 79,
      "was": 80,
      "ar": 81,
      "im": 82,
      "The": 83,
      "is": 84,
      "le": 85,
      "ing": 86,
      "ll": 87,
      "ay": 88,
      "om": 89,
      "on": 90,
      "sa": 91,
      "id": 92,
      "st": 93,
      "an": 94,
      "lo": 95,
      "en": 96,
      "ne": 97,
      "or": 98,
      "ver": 99,
      "am": 100,
      "her": 101,
      "ce": 102,
      "il": 103,
      "be": 104,
      "th": 105,
      "ow": 106,
      "ri": 107,
      "at": 108,
      "hat": 109,
      "pl": 110,
      "He": 111,
      "ld": 112,
      "ir": 113,
      "ked": 114,
      "se": 115,
      "al": 116,
      "day": 117,
      "ke": 118,
      "ig": 119,
      "she": 120,
      "said": 121,
      "his": 122,
      "She": 123,
      "so": 124,
      "pp": 125,
      "ut": 126,
      "all": 127,
      "ith": 128,
      "with": 129,
      "of": 130,
      "we": 131,
      "Tim": 132,
      "un": 133,
      "end": 134,
      "itt": 135,
      "play": 136,
      "very": 137,
      "you": 138,
      "that": 139,
      "bo": 140,
      "ve": 141,
      "had": 142,
      "li": 143,
      "up": 144,
      "ad": 145,
      "ted": 146,
      "ould": 147,
      "ot": 148,
      "ra": 149,
      "they": 150,
      "ome": 151,
      "ent": 152,
      "sh": 153,
      "ther": 154,
      "ck": 155,
      "happ": 156,
      "ge": 157,
      "tim": 158,
      "time": 159,
      "ittle": 160,
      "fri": 161,
      "ound": 162,
      "sm": 163,
      "friend": 164,
      "there": 165,
      "big": 166,
      "fe": 167,
      "little": 168,
      "for": 169,
      "ter": 170,
      "ch": 171,
      "happy": 172,
      "One": 173,
      "On": 174,
      "my": 175,
      "ved": 176,
      "Once": 177,
      "gh": 178,
      "They": 179,
      "out": 180,
      "wan": 181,
      "It": 182,
      "sp": 183,
      "saw": 184,
      "ily": 185,
      "ro": 186,
      "um": 187,
      "as": 188,
      "go": 189,
      "upon": 190,
      "ag": 191,
      "ill": 192,
      "ry": 193,
      "went": 194,
      "amed": 195,
      "fu": 196,
      "la": 197,
      "ly": 198,
      "not": 199,
      "ca": 200,
      "named": 201,
      "hel": 202,
      "thing": 203,
      "were": 204,
      "but": 205,
      "some": 206,
      "ug": 207,
      "way": 208,
      "ide": 209,
      "too": 210,
      ".\"": 211,
      "could": 212,
      "ec": 213,
      "help": 214,
      "!\"": 215,
      "ic": 216,
      "irl": 217,
      "friends": 218,
      "girl": 219,
      "ho": 220,
      "loo": 221,
      "wanted": 222,
      "him": 223,
      "ore": 224,
      "ght": 225,
      "ab": 226,
      "ain": 227,
      "iled": 228,
      "ind": 229,
      "ree": 230,
      "hen": 231,
      "ame": 232,
      "ep": 233,
      "one": 234,
      "smiled": 235,
      "ack": 236,
      "car": 237,
      "ex": 238,
      "ran": 239,
      "mom": 240,
      "new": 241,
      "gether": 242,
      "me": 243,
      "rom": 244,
      "ake": 245,
      "other": 246,
      "Lily": 247,
      "co": 248,
      "ie": 249,
      "mu": 250,
      "od": 251,
      "hed": 252,
      "fa": 253,
      "together": 254,
      "ark": 255,
      "sad": 256,
      "loved": 257,
      "ful": 258,
      "lt": 259,
      "?\"": 260,
      "would": 261,
      "boy": 262,
      "rab": 263,
      "looked": 264,
      "do": 265,
      "es": 266,
      "now": 267,
      "felt": 268,
      "something": 269,
      "found": 270,
      "park": 271,
      "tree": 272,
      "ur": 273,
      "them": 274,
      "around": 275,
      "spec": 276,
      "asked": 277,
      "Su": 278,
      "back": 279,
      "can": 280,
      "fun": 281,
      "cat": 282,
      "po": 283,
      "wor": 284,
      "low": 285,
      "bir": 286,
      "home": 287,
      "side": 288,
      "water": 289,
      "small": 290,
      "So": 291,
      "did": 292,
      "el": 293,
      "ss": 294,
      "sto": 295,
      "get": 296,
      "again": 297,
      "bird": 298,
      "dy": 299,
      "et": 300,
      "playing": 301,
      "speci": 302,
      "But": 303,
      "from": 304,
      "ard": 305,
      "ong": 306,
      "igh": 307,
      "special": 308,
      "toy": 309,
      "war": 310,
      "ited": 311,
      "har": 312,
      "star": 313,
      "own": 314,
      "room": 315,
      "able": 316,
      "ny": 317,
      "op": 318,
      "ts": 319,
      "when": 320,
      "ouse": 321,
      "ought": 322,
      "boat": 323,
      "like": 324,
      "lived": 325,
      "started": 326,
      "pr": 327,
      "sun": 328,
      "han": 329,
      "thought": 330,
      "played": 331,
      "ave": 332,
      "away": 333,
      "ice": 334,
      "no": 335,
      "their": 336,
      "good": 337,
      "exc": 338,
      "bit": 339,
      "flow": 340,
      "ick": 341,
      "wo": 342,
      "then": 343,
      "excited": 344,
      "flower": 345,
      "Ell": 346,
      "came": 347,
      "ear": 348,
      "every": 349,
      "qu": 350,
      "uc": 351,
      "imal": 352,
      "ish": 353,
      "animal": 354,
      "this": 355,
      "took": 356,
      "fter": 357,
      "fore": 358,
      "got": 359,
      "pu": 360,
      "ust": 361,
      "use": 362,
      "wal": 363,
      "have": 364,
      "see": 365,
      "liked": 366,
      "And": 367,
      "are": 368,
      "br": 369,
      "fish": 370,
      "king": 371,
      "kitt": 372,
      "mad": 373,
      "ned": 374,
      "who": 375,
      "our": 376,
      "lear": 377,
      "never": 378,
      "pped": 379,
      "ump": 380,
      "care": 381,
      "ways": 382,
      "animals": 383,
      "kitty": 384,
      "made": 385,
      "When": 386,
      "bug": 387,
      "gum": 388,
      "if": 389,
      "make": 390,
      "pt": 391,
      "pre": 392,
      "feel": 393,
      "fast": 394,
      "ight": 395,
      "Let": 396,
      "ac": 397,
      "bu": 398,
      "bed": 399,
      "dad": 400,
      "gr": 401,
      "iz": 402,
      "ky": 403,
      "more": 404,
      "old": 405,
      "ta": 406,
      "always": 407,
      "race": 408,
      "about": 409,
      "rabbit": 410,
      "Luc": 411,
      "Mom": 412,
      "Sam": 413,
      "by": 414,
      "clo": 415,
      "dec": 416,
      "eep": 417,
      "lu": 418,
      "pe": 419,
      "put": 420,
      "pic": 421,
      "run": 422,
      "take": 423,
      "wh": 424,
      "what": 425,
      "€™": 426,
      "nder": 427,
      "oud": 428,
      "ided": 429,
      "any": 430,
      "box": 431,
      "ady": 432,
      "show": 433,
      "couldn": 434,
      "Lucy": 435,
      "decided": 436,
      "Jo": 437,
      "Tom": 438,
      "dd": 439,
      "dre": 440,
      "ever": 441,
      "house": 442,
      "ure": 443,
      "ous": 444,
      "Then": 445,
      "best": 446,
      "your": 447,
      "outside": 448,
      "cre": 449,
      "gre": 450,
      "how": 451,
      "knew": 452,
      "sha": 453,
      "than": 454,
      "into": 455,
      "off": 456,
      "lie": 457,
      "want": 458,
      "cause": 459,
      "much": 460,
      "Amy": 461,
      "In": 462,
      "ble": 463,
      "cha": 464,
      "long": 465,
      "scar": 466,
      "tri": 467,
      "here": 468,
      "need": 469,
      "bear": 470,
      "because": 471,
      "keep": 472,
      "illy": 473,
      "full": 474,
      "notic": 475,
      "learned": 476,
      "share": 477,
      "noticed": 478,
      "Jim": 479,
      "ber": 480,
      "call": 481,
      "down": 482,
      "ea": 483,
      "fo": 484,
      "find": 485,
      "just": 486,
      "ost": 487,
      "til": 488,
      "try": 489,
      "wis": 490,
      "told": 491,
      "ite": 492,
      "ste": 493,
      "sel": 494,
      "kept": 495,
      "until": 496,
      "laug": 497,
      "things": 498,
      "Mommy": 499,
      "picked": 500,
      "dden": 501,
      "laughed": 502,
      "Every": 503,
      "cher": 504,
      "game": 505,
      "know": 506,
      "ning": 507,
      "snow": 508,
      "two": 509,
      "lots": 510,
      "right": 511,
      "ate": 512,
      "both": 513,
      "exp": 514,
      "Sue": 515,
      "Elly": 516,
      "forest": 517,
      "ground": 518,
      "Joe": 519,
      "thanked": 520,
      "ddenly": 521,
      "As": 522,
      "Jill": 523,
      "Mi": 524,
      "That": 525,
      "Yes": 526,
      "ace": 527,
      "after": 528,
      "bun": 529,
      "ff": 530,
      "gave": 531,
      "hug": 532,
      "ile": 533,
      "jump": 534,
      "ok": 535,
      "pa": 536,
      "tal": 537,
      "ving": 538,
      "leave": 539,
      "loom": 540,
      "look": 541,
      "dog": 542,
      "word": 543,
      "pret": 544,
      "called": 545,
      "explo": 546,
      "Mia": 547,
      "bunny": 548,
      ",\"": 549,
      "His": 550,
      "Jack": 551,
      "Now": 552,
      "crab": 553,
      "pain": 554,
      "sed": 555,
      "tr": 556,
      "uck": 557,
      "wait": 558,
      "repl": 559,
      "ara": 560,
      "bet": 561,
      "shop": 562,
      "happily": 563,
      "lake": 564,
      "catch": 565,
      "proud": 566,
      "luff": 567,
      "scared": 568,
      "each": 569,
      "self": 570,
      "luffy": 571,
      "Bin": 572,
      "Beep": 573,
      "Fluffy": 574,
      "You": 575,
      "ak": 576,
      "cl": 577,
      "ct": 578,
      "dis": 579,
      "don": 580,
      "fle": 581,
      "ied": 582,
      "ive": 583,
      "lady": 584,
      "mer": 585,
      "mag": 586,
      "over": 587,
      "tur": 588,
      "will": 589,
      "heard": 590,
      "wat": 591,
      "real": 592,
      "ise": 593,
      "let": 594,
      "rior": 595,
      "irst": 596,
      "others": 597,
      "warrior": 598,
      "que": 599,
      "walking": 600,
      "tried": 601,
      "cherry": 602,
      "replied": 603,
      "Binky": 604,
      "After": 605,
      "Can": 606,
      "Fin": 607,
      "Mar": 608,
      "What": 609,
      "az": 610,
      "bad": 611,
      "com": 612,
      "cut": 613,
      "ev": 614,
      "ell": 615,
      "fl": 616,
      "far": 617,
      "gard": 618,
      "hand": 619,
      "man": 620,
      "mouse": 621,
      "nt": 622,
      "ol": 623,
      "per": 624,
      "pie": 625,
      "rong": 626,
      "ser": 627,
      "sur": 628,
      "shar": 629,
      "ty": 630,
      "yum": 631,
      "ton": 632,
      "iny": 633,
      "ough": 634,
      "still": 635,
      "stran": 636,
      "lot": 637,
      "ened": 638,
      "amaz": 639,
      "being": 640,
      "owl": 641,
      "alth": 642,
      "ket": 643,
      "Timmy": 644,
      "should": 645,
      "button": 646,
      "idea": 647,
      "Suddenly": 648,
      "wonder": 649,
      "Ella": 650,
      "closer": 651,
      "keeper": 652,
      "better": 653,
      "shopkeeper": 654,
      "Mary": 655,
      "garden": 656,
      "piece": 657,
      "surpr": 658,
      "Bloom": 659,
      "Char": 660,
      "From": 661,
      "Jan": 662,
      "Ma": 663,
      "Sara": 664,
      "Than": 665,
      "bar": 666,
      "ball": 667,
      "bro": 668,
      "come": 669,
      "ched": 670,
      "der": 671,
      "dif": 672,
      "em": 673,
      "fin": 674,
      "fam": 675,
      "ix": 676,
      "jo": 677,
      "kin": 678,
      "kind": 679,
      "na": 680,
      "pick": 681,
      "pump": 682,
      "ring": 683,
      "su": 684,
      "sie": 685,
      "sky": 686,
      "ush": 687,
      "ught": 688,
      "under": 689,
      "yard": 690,
      "its": 691,
      "hair": 692,
      "having": 693,
      "lled": 694,
      "anc": 695,
      "place": 696,
      "soon": 697,
      "pping": 698,
      "shroom": 699,
      "hole": 700,
      "mushroom": 701,
      "Susie": 702,
      "pole": 703,
      "toys": 704,
      "quick": 705,
      "walked": 706,
      "brush": 707,
      "careful": 708,
      "daddy": 709,
      "cream": 710,
      "green": 711,
      "leaves": 712,
      "painter": 713,
      "realiz": 714,
      "queen": 715,
      "yummy": 716,
      "Charlie": 717,
      "Jane": 718,
      "Max": 719,
      "Sarah": 720,
      "Thank": 721,
      "family": 722,
      "pumpkin": 723,
      "Ben": 724,
      "Bear": 725,
      "Don": 726,
      "Lo": 727,
      "Little": 728,
      "Zig": 729,
      "aut": 730,
      "deep": 731,
      "ey": 732,
      "est": 733,
      "ft": 734,
      "fly": 735,
      "first": 736,
      "ious": 737,
      "lk": 738,
      "led": 739,
      "mother": 740,
      "pot": 741,
      "row": 742,
      "sent": 743,
      "sound": 744,
      "sic": 745,
      "slow": 746,
      "ting": 747,
      "ugh": 748,
      "wn": 749,
      "win": 750,
      "wind": 751,
      "zag": 752,
      "town": 753,
      "inside": 754,
      "stu": 755,
      "ant": 756,
      "near": 757,
      "before": 758,
      "beaut": 759,
      "wear": 760,
      "endable": 761,
      "vest": 762,
      "teddy": 763,
      "ghost": 764,
      "hoop": 765,
      "himself": 766,
      "ependable": 767,
      "mommy": 768,
      "music": 769,
      "pond": 770,
      "didn": 771,
      "store": 772,
      "warm": 773,
      "flowers": 774,
      "ears": 775,
      "pulled": 776,
      "faster": 777,
      "tail": 778,
      "running": 779,
      "why": 780,
      "dream": 781,
      "chalk": 782,
      "Jimmy": 783,
      "even": 784,
      "strange": 785,
      "amazing": 786,
      "althy": 787,
      "wonderful": 788,
      "Benny": 789,
      "Zigzag": 790,
      "Dependable": 791,
      "No": 792,
      "Nor": 793,
      "To": 794,
      "We": 795,
      "av": 796,
      "che": 797,
      "con": 798,
      "eed": 799,
      "fr": 800,
      "flo": 801,
      "ga": 802,
      "ged": 803,
      "ip": 804,
      "iful": 805,
      "kay": 806,
      "mor": 807,
      "many": 808,
      "mber": 809,
      "most": 810,
      "oon": 811,
      "ple": 812,
      "pow": 813,
      "red": 814,
      "sy": 815,
      "sor": 816,
      "where": 817,
      "reac": 818,
      "ready": 819,
      "ist": 820,
      "ised": 821,
      "llow": 822,
      "safe": 823,
      "ster": 824,
      "ang": 825,
      "lost": 826,
      "enc": 827,
      "became": 828,
      "thin": 829,
      "ries": 830,
      "irt": 831,
      "ally": 832,
      "wet": 833,
      "raw": 834,
      "rake": 835,
      "rass": 836,
      "fere": 837,
      "fect": 838,
      "cho": 839,
      "speed": 840,
      "moment": 841,
      "metal": 842,
      "member": 843,
      "coin": 844,
      "cold": 845,
      "fav": 846,
      "story": 847,
      "goodby": 848,
      "brown": 849,
      "bedroom": 850,
      "jumped": 851,
      "pretty": 852,
      "explore": 853,
      "flew": 854,
      "magic": 855,
      "coming": 856,
      "perfect": 857,
      "surprise": 858,
      "differe": 859,
      "quickly": 860,
      "eyes": 861,
      "study": 862,
      "beautiful": 863,
      "kayak": 864,
      "powder": 865,
      "sorry": 866,
      "reached": 867,
      "goodbye": 868,
      "An": 869,
      "Bo": 870,
      "Bill": 871,
      "Cind": 872,
      "Do": 873,
      "Em": 874,
      "Grace": 875,
      "Hi": 876,
      "Rac": 877,
      "Tilly": 878,
      "Wh": 879,
      "ase": 880,
      "bra": 881,
      "cket": 882,
      "de": 883,
      "ded": 884,
      "done": 885,
      "eat": 886,
      "fro": 887,
      "grab": 888,
      "ient": 889,
      "loud": 890,
      "list": 891,
      "nie": 892,
      "nts": 893,
      "nice": 894,
      "night": 895,
      "oc": 896,
      "prom": 897,
      "pare": 898,
      "pour": 899,
      "penc": 900,
      "rough": 901,
      "sou": 902,
      "swe": 903,
      "uch": 904,
      "vis": 905,
      "wrong": 906,
      "zor": 907,
      "int": 908,
      "reed": 909,
      "rela": 910,
      "remember": 911,
      "less": 912,
      "idd": 913,
      "stry": 914,
      "love": 915,
      "nee": 916,
      "ort": 917,
      "been": 918,
      "through": 919,
      "plan": 920,
      "seen": 921,
      "book": 922,
      "veget": 923,
      "adv": 924,
      "razor": 925,
      "shiny": 926,
      "shirt": 927,
      "going": 928,
      "agreed": 929,
      "hopping": 930,
      "card": 931,
      "face": 932,
      "pocket": 933,
      "smaller": 934,
      "stove": 935,
      "birds": 936,
      "hard": 937,
      "ables": 938,
      "sunny": 939,
      "nose": 940,
      "everyone": 941,
      "ours": 942,
      "carefull": 943,
      "present": 944,
      "feeling": 945,
      "bush": 946,
      "izz": 947,
      "while": 948,
      "showed": 949,
      "dress": 950,
      "needle": 951,
      "pastry": 952,
      "exploring": 953,
      "clum": 954,
      "watched": 955,
      "flame": 956,
      "realized": 957,
      "Nora": 958,
      "float": 959,
      "different": 960,
      "Annie": 961,
      "Cindy": 962,
      "Emily": 963,
      "Rachel": 964,
      "brave": 965,
      "parents": 966,
      "pencil": 967,
      "soup": 968,
      "relax": 969,
      "vegetables": 970,
      "carefully": 971,
      "At": 972,
      "All": 973,
      "Her": 974,
      "Spot": 975,
      "cou": 976,
      "cle": 977,
      "cla": 978,
      "dro": 979,
      "dry": 980,
      "fit": 981,
      "fall": 982,
      "fill": 983,
      "free": 984,
      "fix": 985,
      "gone": 986,
      "hide": 987,
      "hur": 988,
      "med": 989,
      "mon": 990,
      "mat": 991,
      "mind": 992,
      "mone": 993,
      "ner": 994,
      "port": 995,
      "ride": 996,
      "sis": 997,
      "sure": 998,
      "silly": 999,
      "scho": 1000,
      "tin": 1001,
      "tie": 1002,
      "ued": 1003,
      "uri": 1004,
      "wy": 1005,
      "wed": 1006,
      "wha": 1007,
      "ze": 1008,
      "hes": 1009,
      "head": 1010,
      "topu": 1011,
      "touch": 1012,
      "outed": 1013,
      "ert": 1014,
      "arri": 1015,
      "import": 1016,
      "ished": 1017,
      "stand": 1018,
      "stle": 1019,
      "nex": 1020,
      "neigh": 1021,
      "orite": 1022,
      "beg": 1023,
      "belie": 1024,
      "ried": 1025,
      "ature": 1026,
      "plain": 1027,
      "sear": 1028,
      "also": 1029,
      "soft": 1030,
      "wel": 1031,
      "weight": 1032,
      "ves": 1033,
      "live": 1034,
      "shouted": 1035,
      "smell": 1036,
      "fell": 1037,
      "ching": 1038,
      "ross": 1039,
      "fuel": 1040,
      "laugh": 1041,
      "lawy": 1042,
      "case": 1043,
      "castle": 1044,
      "helped": 1045,
      "hopped": 1046,
      "explain": 1047,
      "must": 1048,
      "spect": 1049,
      "worry": 1050,
      "ward": 1051,
      "pty": 1052,
      "across": 1053,
      "taste": 1054,
      "close": 1055,
      "lue": 1056,
      "ures": 1057,
      "grew": 1058,
      "needed": 1059,
      "food": 1060,
      "follow": 1061,
      "wishes": 1062,
      "stepped": 1063,
      "words": 1064,
      "pretend": 1065,
      "farmer": 1066,
      "shared": 1067,
      "pieces": 1068,
      "empty": 1069,
      "finished": 1070,
      "naught": 1071,
      "Lola": 1072,
      "Together": 1073,
      "contin": 1074,
      "frame": 1075,
      "favorite": 1076,
      "Bob": 1077,
      "Why": 1078,
      "frog": 1079,
      "grabbed": 1080,
      "octopu": 1081,
      "promised": 1082,
      "sweet": 1083,
      "visit": 1084,
      "clumsy": 1085,
      "coun": 1086,
      "drove": 1087,
      "money": 1088,
      "school": 1089,
      "urious": 1090,
      "whale": 1091,
      "arrived": 1092,
      "important": 1093,
      "neighb": 1094,
      "lawyer": 1095,
      "naughty": 1096,
      "continued": 1097,
      "octopus": 1098,
      "Be": 1099,
      "Billy": 1100,
      "Dad": 1101,
      "Go": 1102,
      "If": 1103,
      "Lizz": 1104,
      "This": 1105,
      "Wil": 1106,
      "app": 1107,
      "bow": 1108,
      "bwe": 1109,
      "bla": 1110,
      "bur": 1111,
      "bble": 1112,
      "bloom": 1113,
      "blue": 1114,
      "curious": 1115,
      "dark": 1116,
      "eer": 1117,
      "fanc": 1118,
      "gi": 1119,
      "gl": 1120,
      "ger": 1121,
      "give": 1122,
      "grass": 1123,
      "hn": 1124,
      "hind": 1125,
      "hours": 1126,
      "knee": 1127,
      "lide": 1128,
      "lite": 1129,
      "mis": 1130,
      "mil": 1131,
      "mum": 1132,
      "mod": 1133,
      "mmer": 1134,
      "mix": 1135,
      "midd": 1136,
      "ng": 1137,
      "nod": 1138,
      "nature": 1139,
      "oice": 1140,
      "pro": 1141,
      "ru": 1142,
      "ray": 1143,
      "sw": 1144,
      "sna": 1145,
      "slide": 1146,
      "table": 1147,
      "twis": 1148,
      "tiny": 1149,
      "used": 1150,
      "voice": 1151,
      "zip": 1152,
      "hear": 1153,
      "healthy": 1154,
      "heav": 1155,
      "waited": 1156,
      "read": 1157,
      "reind": 1158,
      "respect": 1159,
      "hammer": 1160,
      "arrow": 1161,
      "There": 1162,
      "llo": 1163,
      "sack": 1164,
      "ider": 1165,
      "sted": 1166,
      "stuck": 1167,
      "strong": 1168,
      "straw": 1169,
      "lor": 1170,
      "net": 1171,
      "neck": 1172,
      "herself": 1173,
      "ild": 1174,
      "behind": 1175,
      "three": 1176,
      "river": 1177,
      "ater": 1178,
      "ired": 1179,
      "along": 1180,
      "alert": 1181,
      "shed": 1182,
      "ute": 1183,
      "wealthy": 1184,
      "young": 1185,
      "bot": 1186,
      "rain": 1187,
      "shore": 1188,
      "smile": 1189,
      "friendly": 1190,
      "spent": 1191,
      "spray": 1192,
      "spider": 1193,
      "lace": 1194,
      "caught": 1195,
      "ugly": 1196,
      "helping": 1197,
      "helpful": 1198,
      "cool": 1199,
      "cobwe": 1200,
      "color": 1201,
      "?\".": 1202,
      "trees": 1203,
      "poin": 1204,
      "polite": 1205,
      "work": 1206,
      "worked": 1207,
      "stopped": 1208,
      "ople": 1209,
      "opened": 1210,
      "print": 1211,
      "bugs": 1212,
      "Letâ": 1213,
      "bubble": 1214,
      "build": 1215,
      "grow": 1216,
      "tasted": 1217,
      "peat": 1218,
      "people": 1219,
      "pict": 1220,
      "white": 1221,
      "anymore": 1222,
      "John": 1223,
      "drew": 1224,
      "chain": 1225,
      "longer": 1226,
      "scary": 1227,
      "triang": 1228,
      "Everyone": 1229,
      "hugged": 1230,
      "magnet": 1231,
      "turn": 1232,
      "turned": 1233,
      "flute": 1234,
      "hands": 1235,
      "barber": 1236,
      "balloon": 1237,
      "brother": 1238,
      "joy": 1239,
      "suddenly": 1240,
      "haircut": 1241,
      "wine": 1242,
      "chewed": 1243,
      "gather": 1244,
      "moral": 1245,
      "please": 1246,
      "think": 1247,
      "magical": 1248,
      "deli": 1249,
      "listened": 1250,
      "remembered": 1251,
      "clean": 1252,
      "clapped": 1253,
      "filled": 1254,
      "monster": 1255,
      "sister": 1256,
      "next": 1257,
      "began": 1258,
      "believe": 1259,
      "smelly": 1260,
      "followed": 1261,
      "Daddy": 1262,
      "Lizzie": 1263,
      "Wilbur": 1264,
      "black": 1265,
      "fancy": 1266,
      "milk": 1267,
      "modest": 1268,
      "middle": 1269,
      "nodded": 1270,
      "snail": 1271,
      "reindeer": 1272,
      "strawber": 1273,
      "necklace": 1274,
      "cobweb": 1275,
      "triangle": 1276,
      "\".": 1277,
      "Ca": 1278,
      "End": 1279,
      "Just": 1280,
      "Oh": 1281,
      "Oli": 1282,
      "Qu": 1283,
      "ail": 1284,
      "bright": 1285,
      "ced": 1286,
      "clear": 1287,
      "craw": 1288,
      "din": 1289,
      "del": 1290,
      "duck": 1291,
      "fake": 1292,
      "gn": 1293,
      "gun": 1294,
      "gran": 1295,
      "gust": 1296,
      "grace": 1297,
      "gara": 1298,
      "hid": 1299,
      "hor": 1300,
      "hig": 1301,
      "hot": 1302,
      "hum": 1303,
      "hill": 1304,
      "high": 1305,
      "io": 1306,
      "ier": 1307,
      "ion": 1308,
      "kis": 1309,
      "ken": 1310,
      "land": 1311,
      "lin": 1312,
      "lun": 1313,
      "light": 1314,
      "late": 1315,
      "mou": 1316,
      "mar": 1317,
      "oke": 1318,
      "par": 1319,
      "rad": 1320,
      "sing": 1321,
      "sil": 1322,
      "sig": 1323,
      "sup": 1324,
      "tre": 1325,
      "tall": 1326,
      "tch": 1327,
      "tired": 1328,
      "ue": 1329,
      "ually": 1330,
      "wi": 1331,
      "wom": 1332,
      "wore": 1333,
      "years": 1334,
      "zi": 1335,
      "€.": 1336,
      "top": 1337,
      "today": 1338,
      "tough": 1339,
      "toward": 1340,
      "wag": 1341,
      "ining": 1342,
      "rest": 1343,
      "rece": 1344,
      "reco": 1345,
      "relie": 1346,
      "repeat": 1347,
      "retch": 1348,
      "imb": 1349,
      "les": 1350,
      "lend": 1351,
      "lebr": 1352,
      "left": 1353,
      "aybe": 1354,
      "sat": 1355,
      "sailed": 1356,
      "same": 1357,
      "stay": 1358,
      "stretch": 1359,
      "ance": 1360,
      "enough": 1361,
      "enjoy": 1362,
      "ors": 1363,
      "vered": 1364,
      "celebr": 1365,
      "ated": 1366,
      "plate": 1367,
      "Hello": 1368,
      "sea": 1369,
      "seco": 1370,
      "alone": 1371,
      "shel": 1372,
      "without": 1373,
      "body": 1374,
      "adm": 1375,
      "adow": 1376,
      "entually": 1377,
      "shing": 1378,
      "times": 1379,
      "forth": 1380,
      "chore": 1381,
      "myster": 1382,
      "spoon": 1383,
      "roll": 1384,
      "road": 1385,
      "cake": 1386,
      "cage": 1387,
      "cape": 1388,
      "sometimes": 1389,
      "icy": 1390,
      "looking": 1391,
      "ext": 1392,
      "met": 1393,
      "mess": 1394,
      "meet": 1395,
      "meadow": 1396,
      "covered": 1397,
      "iet": 1398,
      "mud": 1399,
      "door": 1400,
      "does": 1401,
      "backyard": 1402,
      "world": 1403,
      "worried": 1404,
      "Soon": 1405,
      "else": 1406,
      "getting": 1407,
      "birdcage": 1408,
      "noise": 1409,
      "eared": 1410,
      "everywhere": 1411,
      "quiet": 1412,
      "pudd": 1413,
      "pushed": 1414,
      "pushing": 1415,
      "walk": 1416,
      "seemed": 1417,
      "buy": 1418,
      "anything": 1419,
      "showing": 1420,
      "great": 1421,
      "Inside": 1422,
      "blem": 1423,
      "fox": 1424,
      "trying": 1425,
      "wise": 1426,
      "wished": 1427,
      "cherries": 1428,
      "path": 1429,
      "talk": 1430,
      "looks": 1431,
      "trou": 1432,
      "truck": 1433,
      "true": 1434,
      "climb": 1435,
      "disgust": 1436,
      "watch": 1437,
      "sharing": 1438,
      "barrass": 1439,
      "broke": 1440,
      "embarrass": 1441,
      "fine": 1442,
      "job": 1443,
      "ancient": 1444,
      "Look": 1445,
      "slowly": 1446,
      "window": 1447,
      "avail": 1448,
      "lesson": 1449,
      "plants": 1450,
      "advent": 1451,
      "advice": 1452,
      "standing": 1453,
      "search": 1454,
      "laughing": 1455,
      "country": 1456,
      "neighbors": 1457,
      "appeared": 1458,
      "problem": 1459,
      "swim": 1460,
      "pictures": 1461,
      "Caw": 1462,
      "Oliver": 1463,
      "Quick": 1464,
      "dinner": 1465,
      "gniz": 1466,
      "graceful": 1467,
      "garage": 1468,
      "higher": 1469,
      "lunch": 1470,
      "radio": 1471,
      "silver": 1472,
      "sign": 1473,
      "super": 1474,
      "woman": 1475,
      "towards": 1476,
      "receive": 1477,
      "recogniz": 1478,
      "second": 1479,
      "mysterious": 1480,
      "disgusting": 1481,
      "embarrassed": 1482,
      "available": 1483,
      "Are": 1484,
      "Lu": 1485,
      "Later": 1486,
      "Me": 1487,
      "My": 1488,
      "Mum": 1489,
      "Maybe": 1490,
      "Next": 1491,
      "Of": 1492,
      "Ow": 1493,
      "Ple": 1494,
      "Wow": 1495,
      "Where": 1496,
      "Well": 1497,
      "aking": 1498,
      "ahead": 1499,
      "bag": 1500,
      "bab": 1501,
      "bran": 1502,
      "buc": 1503,
      "bled": 1504,
      "cing": 1505,
      "cked": 1506,
      "cry": 1507,
      "cour": 1508,
      "cious": 1509,
      "crow": 1510,
      "dran": 1511,
      "dea": 1512,
      "dizz": 1513,
      "driver": 1514,
      "dance": 1515,
      "eas": 1516,
      "eac": 1517,
      "erest": 1518,
      "fla": 1519,
      "fic": 1520,
      "gu": 1521,
      "gy": 1522,
      "gig": 1523,
      "gry": 1524,
      "gled": 1525,
      "hi": 1526,
      "hun": 1527,
      "hidd": 1528,
      "ible": 1529,
      "ique": 1530,
      "jug": 1531,
      "ks": 1532,
      "lp": 1533,
      "lour": 1534,
      "later": 1535,
      "mo": 1536,
      "ms": 1537,
      "ming": 1538,
      "mug": 1539,
      "might": 1540,
      "making": 1541,
      "ose": 1542,
      "obed": 1543,
      "ped": 1544,
      "pat": 1545,
      "pur": 1546,
      "pile": 1547,
      "rm": 1548,
      "rup": 1549,
      "rot": 1550,
      "swa": 1551,
      "sand": 1552,
      "sle": 1553,
      "say": 1554,
      "sitt": 1555,
      "stoo": 1556,
      "sick": 1557,
      "scre": 1558,
      "snee": 1559,
      "tick": 1560,
      "teach": 1561,
      "tell": 1562,
      "test": 1563,
      "teac": 1564,
      "uce": 1565,
      "ult": 1566,
      "ven": 1567,
      "vide": 1568,
      "vous": 1569,
      "wing": 1570,
      "won": 1571,
      "xible": 1572,
      "œYes": 1573,
      "œCan": 1574,
      "œThank": 1575,
      "œLetâ": 1576,
      "œOh": 1577,
      "œhi": 1578,
      "held": 1579,
      "touc": 1580,
      "waved": 1581,
      "inv": 1582,
      "ined": 1583,
      "inal": 1584,
      "inter": 1585,
      "inste": 1586,
      "refle": 1587,
      "ered": 1588,
      "erous": 1589,
      "wasn": 1590,
      "imag": 1591,
      "Their": 1592,
      "isn": 1593,
      "leg": 1594,
      "once": 1595,
      "sail": 1596,
      "stra": 1597,
      "stree": 1598,
      "string": 1599,
      "ening": 1600,
      "nes": 1601,
      "ness": 1602,
      "orig": 1603,
      "orable": 1604,
      "cess": 1605,
      "thirst": 1606,
      "owed": 1607,
      "ative": 1608,
      "Here": 1609,
      "Help": 1610,
      "set": 1611,
      "sew": 1612,
      "secre": 1613,
      "separ": 1614,
      "shes": 1615,
      "shell": 1616,
      "ween": 1617,
      "weep": 1618,
      "wealth": 1619,
      "unique": 1620,
      "adorable": 1621,
      "raked": 1622,
      "raced": 1623,
      "shining": 1624,
      "fright": 1625,
      "smoke": 1626,
      "bigger": 1627,
      "fear": 1628,
      "forgot": 1629,
      "fortable": 1630,
      "wants": 1631,
      "sped": 1632,
      "spend": 1633,
      "spot": 1634,
      "spread": 1635,
      "goal": 1636,
      "ager": 1637,
      "agree": 1638,
      "fused": 1639,
      "!\",": 1640,
      "!\".": 1641,
      "coat": 1642,
      "cook": 1643,
      "colour": 1644,
      "ies": 1645,
      "fauce": 1646,
      "doing": 1647,
      "ess": 1648,
      "escape": 1649,
      "ured": 1650,
      "Sure": 1651,
      "cannot": 1652,
      "cate": 1653,
      "stories": 1654,
      "storm": 1655,
      "stones": 1656,
      "warned": 1657,
      "warning": 1658,
      "harsh": 1659,
      "harder": 1660,
      "owner": 1661,
      "nothing": 1662,
      "nosy": 1663,
      "nobody": 1664,
      "bite": 1665,
      "excitedly": 1666,
      "seek": 1667,
      "Andy": 1668,
      "bring": 1669,
      "ourite": 1670,
      "learnt": 1671,
      "careless": 1672,
      "makes": 1673,
      "bushes": 1674,
      "closed": 1675,
      "pee": 1676,
      "peace": 1677,
      "takes": 1678,
      "couldnâ": 1679,
      "creative": 1680,
      "blew": 1681,
      "foot": 1682,
      "steal": 1683,
      "selfish": 1684,
      "games": 1685,
      "okay": 1686,
      "talking": 1687,
      "trust": 1688,
      "waiting": 1689,
      "between": 1690,
      "ctive": 1691,
      "distur": 1692,
      "disagreed": 1693,
      "disappeared": 1694,
      "donâ": 1695,
      "flexible": 1696,
      "watching": 1697,
      "Finally": 1698,
      "comfortable": 1699,
      "eventually": 1700,
      "farm": 1701,
      "handed": 1702,
      "ntain": 1703,
      "perm": 1704,
      "sharp": 1705,
      "stranger": 1706,
      "amazed": 1707,
      "wondered": 1708,
      "surprised": 1709,
      "barked": 1710,
      "broken": 1711,
      "diffic": 1712,
      "join": 1713,
      "such": 1714,
      "understand": 1715,
      "anced": 1716,
      "realize": 1717,
      "sounds": 1718,
      "dreams": 1719,
      "Jimmyâ": 1720,
      "Today": 1721,
      "gasped": 1722,
      "morning": 1723,
      "angerous": 1724,
      "favourite": 1725,
      "interest": 1726,
      "lovely": 1727,
      "falling": 1728,
      "freeze": 1729,
      "fixed": 1730,
      "hurt": 1731,
      "hurts": 1732,
      "matching": 1733,
      "nervous": 1734,
      "welcome": 1735,
      "lively": 1736,
      "explaining": 1737,
      "counted": 1738,
      "Good": 1739,
      "giving": 1740,
      "given": 1741,
      "glad": 1742,
      "mixed": 1743,
      "twisted": 1744,
      "twisty": 1745,
      "heavy": 1746,
      "heavier": 1747,
      "bott": 1748,
      "rainbow": 1749,
      "sprayed": 1750,
      "spiders": 1751,
      "colorful": 1752,
      "pointed": 1753,
      "pointing": 1754,
      "bubblegum": 1755,
      "turns": 1756,
      "gathered": 1757,
      "delicious": 1758,
      "delicate": 1759,
      "strawberry": 1760,
      "strawberries": 1761,
      "clearing": 1762,
      "crawl": 1763,
      "delight": 1764,
      "granted": 1765,
      "humble": 1766,
      "kissed": 1767,
      "mountain": 1768,
      "market": 1769,
      "wipe": 1770,
      "zipping": 1771,
      "wagged": 1772,
      "relieved": 1773,
      "celebrate": 1774,
      "shelves": 1775,
      "chores": 1776,
      "puddle": 1777,
      "troubled": 1778,
      "adventures": 1779,
      "swimming": 1780,
      "recognized": 1781,
      "Lulu": 1782,
      "Meow": 1783,
      "Owl": 1784,
      "Please": 1785,
      "baby": 1786,
      "bucket": 1787,
      "course": 1788,
      "drank": 1789,
      "deaf": 1790,
      "dizzy": 1791,
      "giggled": 1792,
      "hungry": 1793,
      "hidden": 1794,
      "obedient": 1795,
      "purple": 1796,
      "swam": 1797,
      "sleep": 1798,
      "sitting": 1799,
      "stood": 1800,
      "sneeze": 1801,
      "teacher": 1802,
      "video": 1803,
      "wings": 1804,
      "touched": 1805,
      "interrup": 1806,
      "instead": 1807,
      "reflective": 1808,
      "straight": 1809,
      "street": 1810,
      "original": 1811,
      "thirsty": 1812,
      "secret": 1813,
      "cookies": 1814,
      "faucet": 1815,
      "disturbed": 1816,
      "strangers": 1817,
      "difficult": 1818,
      "interesting": 1819,
      "'.": 1820,
      "'.\"": 1821,
      "'?\"": 1822,
      "By": 1823,
      "Bug": 1824,
      "Bet": 1825,
      "Cre": 1826,
      "Come": 1827,
      "Crow": 1828,
      "Curious": 1829,
      "Did": 1830,
      "Dangerous": 1831,
      "Ea": 1832,
      "Ev": 1833,
      "Fo": 1834,
      "Fun": 1835,
      "First": 1836,
      "Ice": 1837,
      "List": 1838,
      "Nice": 1839,
      "Ouch": 1840,
      "Po": 1841,
      "Re": 1842,
      "Race": 1843,
      "Try": 1844,
      "Take": 1845,
      "Tears": 1846,
      "Wor": 1847,
      "Wat": 1848,
      "With": 1849,
      "Will": 1850,
      "Who": 1851,
      "Yuck": 1852,
      "ash": 1853,
      "aff": 1854,
      "bj": 1855,
      "bl": 1856,
      "blo": 1857,
      "bal": 1858,
      "bent": 1859,
      "bree": 1860,
      "bare": 1861,
      "bbed": 1862,
      "blin": 1863,
      "baff": 1864,
      "cas": 1865,
      "chen": 1866,
      "cur": 1867,
      "cert": 1868,
      "cried": 1869,
      "dri": 1870,
      "dot": 1871,
      "dent": 1872,
      "dug": 1873,
      "dear": 1874,
      "dependable": 1875,
      "dirt": 1876,
      "danced": 1877,
      "dangerous": 1878,
      "ethe": 1879,
      "ele": 1880,
      "especi": 1881,
      "emer": 1882,
      "ewel": 1883,
      "eager": 1884,
      "fi": 1885,
      "fre": 1886,
      "fer": 1887,
      "fan": 1888,
      "fir": 1889,
      "fig": 1890,
      "fie": 1891,
      "fluffy": 1892,
      "fant": 1893,
      "gor": 1894,
      "gent": 1895,
      "gree": 1896,
      "gif": 1897,
      "glist": 1898,
      "glue": 1899,
      "hu": 1900,
      "ito": 1901,
      "ire": 1902,
      "ien": 1903,
      "ife": 1904,
      "ipo": 1905,
      "iour": 1906,
      "ienc": 1907,
      "jam": 1908,
      "jour": 1909,
      "jured": 1910,
      "jewel": 1911,
      "kn": 1912,
      "kit": 1913,
      "kid": 1914,
      "kno": 1915,
      "lf": 1916,
      "lit": 1917,
      "lar": 1918,
      "lay": 1919,
      "min": 1920,
      "may": 1921,
      "mir": 1922,
      "ment": 1923,
      "mly": 1924,
      "mie": 1925,
      "mble": 1926,
      "maybe": 1927,
      "nce": 1928,
      "nic": 1929,
      "name": 1930,
      "obj": 1931,
      "pin": 1932,
      "pri": 1933,
      "pted": 1934,
      "pill": 1935,
      "pec": 1936,
      "pack": 1937,
      "pet": 1938,
      "phan": 1939,
      "rid": 1940,
      "ror": 1941,
      "rther": 1942,
      "round": 1943,
      "rug": 1944,
      "sin": 1945,
      "spl": 1946,
      "sily": 1947,
      "sum": 1948,
      "sroom": 1949,
      "squ": 1950,
      "suc": 1951,
      "shave": 1952,
      "siz": 1953,
      "sip": 1954,
      "scur": 1955,
      "tw": 1956,
      "tid": 1957,
      "ten": 1958,
      "tra": 1959,
      "tas": 1960,
      "tight": 1961,
      "tem": 1962,
      "tance": 1963,
      "us": 1964,
      "uable": 1965,
      "usu": 1966,
      "ude": 1967,
      "unex": 1968,
      "using": 1969,
      "vin": 1970,
      "val": 1971,
      "vend": 1972,
      "vab": 1973,
      "vie": 1974,
      "vious": 1975,
      "vours": 1976,
      "viour": 1977,
      "ws": 1978,
      "wra": 1979,
      "wide": 1980,
      "wish": 1981,
      "wip": 1982,
      "xious": 1983,
      "ys": 1984,
      "yly": 1985,
      "yes": 1986,
      "yet": 1987,
      "year": 1988,
      "yell": 1989,
      "œhe": 1990,
      "œMom": 1991,
      "œThat": 1992,
      "œNow": 1993,
      "œNo": 1994,
      "œDo": 1995,
      "œWhy": 1996,
      "œBe": 1997,
      "œQuick": 1998,
      "œMy": 1999,
      "œOf": 2000,
      "œWow": 2001,
      "œBug": 2002,
      "thes": 2003,
      "these": 2004,
      "tom": 2005,
      "tore": 2006,
      "toes": 2007,
      "tomor": 2008,
      "waves": 2009,
      "inst": 2010,
      "insis": 2011,
      "incess": 2012,
      "infant": 2013,
      "injured": 2014,
      "iting": 2015,
      "iten": 2016,
      "itude": 2017,
      "rel": 2018,
      "rew": 2019,
      "reli": 2020,
      "rewar": 2021,
      "repa": 2022,
      "retur": 2023,
      "really": 2024,
      "remind": 2025,
      "reward": 2026,
      "return": 2027,
      "refused": 2028,
      "recounted": 2029,
      "hamed": 2030,
      "half": 2031,
      "haviour": 2032,
      "erful": 2033,
      "ergy": 2034,
      "erienc": 2035,
      "erpill": 2036,
      "wash": 2037,
      "art": 2038,
      "aring": 2039,
      "arms": 2040,
      "imed": 2041,
      "immed": 2042,
      "ising": 2043,
      "llipo": 2044,
      "ont": 2045,
      "only": 2046,
      "onward": 2047,
      "save": 2048,
      "saving": 2049,
      "safer": 2050,
      "sting": 2051,
      "step": 2052,
      "strug": 2053,
      "ange": 2054,
      "another": 2055,
      "answ": 2056,
      "anxious": 2057,
      "lollipo": 2058,
      "enga": 2059,
      "envious": 2060,
      "energy": 2061,
      "ney": 2062,
      "orange": 2063,
      "hero": 2064,
      "ilty": 2065,
      "beep": 2066,
      "below": 2067,
      "beside": 2068,
      "belong": 2069,
      "beak": 2070,
      "behaving": 2071,
      "bellow": 2072,
      "behaviour": 2073,
      "thday": 2074,
      "though": 2075,
      "those": 2076,
      "threw": 2077,
      "rible": 2078,
      "ation": 2079,
      "attra": 2080,
      "atitude": 2081,
      "iry": 2082,
      "iring": 2083,
      "irrel": 2084,
      "ses": 2085,
      "sewed": 2086,
      "alright": 2087,
      "already": 2088,
      "ighed": 2089,
      "sheâ": 2090,
      "soil": 2091,
      "soak": 2092,
      "soaring": 2093,
      "utious": 2094,
      "allowed": 2095,
      "weâ": 2096,
      "well": 2097,
      "weigh": 2098,
      "weak": 2099,
      "weighed": 2100,
      "unbelie": 2101,
      "uncomfortable": 2102,
      "unusu": 2103,
      "itted": 2104,
      "playtime": 2105,
      "hadn": 2106,
      "life": 2107,
      "adjust": 2108,
      "rather": 2109,
      "raking": 2110,
      "shone": 2111,
      "ship": 2112,
      "short": 2113,
      "shion": 2114,
      "shyly": 2115,
      "happen": 2116,
      "happened": 2117,
      "happening": 2118,
      "geous": 2119,
      "gems": 2120,
      "friendship": 2121,
      "forget": 2122,
      "chilly": 2123,
      "chuck": 2124,
      "outfit": 2125,
      "Itâ": 2126,
      "spun": 2127,
      "spark": 2128,
      "spea": 2129,
      "spring": 2130,
      "spoke": 2131,
      "rock": 2132,
      "roamed": 2133,
      "rolled": 2134,
      "robot": 2135,
      "ropri": 2136,
      "ask": 2137,
      "ased": 2138,
      "asured": 2139,
      "assroom": 2140,
      "ashamed": 2141,
      "asses": 2142,
      "aged": 2143,
      "further": 2144,
      "last": 2145,
      "laimed": 2146,
      "caused": 2147,
      "cautious": 2148,
      "someone": 2149,
      "ects": 2150,
      "irled": 2151,
      "girlâ": 2152,
      "hose": 2153,
      "hood": 2154,
      "hoped": 2155,
      "ainly": 2156,
      "cars": 2157,
      "carry": 2158,
      "carpet": 2159,
      "moms": 2160,
      "news": 2161,
      "melt": 2162,
      "meant": 2163,
      "meowed": 2164,
      "measured": 2165,
      "covery": 2166,
      "fact": 2167,
      "faced": 2168,
      "facing": 2169,
      "fairy": 2170,
      "fashion": 2171,
      "sadly": 2172,
      "sadness": 2173,
      "wouldn": 2174,
      "nowhere": 2175,
      "themsel": 2176,
      "backpack": 2177,
      "canâ": 2178,
      "funny": 2179,
      "caterpill": 2180,
      "popu": 2181,
      "popped": 2182,
      "worth": 2183,
      "working": 2184,
      "birthday": 2185,
      "sidewalk": 2186,
      "ssed": 2187,
      "stopping": 2188,
      "gets": 2189,
      "against": 2190,
      "start": 2191,
      "princess": 2192,
      "sunset": 2193,
      "thoughtful": 2194,
      "exclaimed": 2195,
      "woke": 2196,
      "everything": 2197,
      "forever": 2198,
      "seem": 2199,
      "brought": 2200,
      "ourhood": 2201,
      "learning": 2202,
      "prepar": 2203,
      "pressed": 2204,
      "fastest": 2205,
      "busin": 2206,
      "dads": 2207,
      "gray": 2208,
      "gratitude": 2209,
      "izon": 2210,
      "tale": 2211,
      "taking": 2212,
      "taken": 2213,
      "cloth": 2214,
      "clothes": 2215,
      "peak": 2216,
      "whiten": 2217,
      "whatever": 2218,
      "ouds": 2219,
      "anyone": 2220,
      "boxes": 2221,
      "yours": 2222,
      "crept": 2223,
      "creature": 2224,
      "shape": 2225,
      "thanks": 2226,
      "offer": 2227,
      "chair": 2228,
      "chase": 2229,
      "chased": 2230,
      "chasing": 2231,
      "trip": 2232,
      "steady": 2233,
      "Everywhere": 2234,
      "known": 2235,
      "knowing": 2236,
      "snowstorm": 2237,
      "rightful": 2238,
      "experienc": 2239,
      "jumping": 2240,
      "paper": 2241,
      "pajam": 2242,
      "paws": 2243,
      "talked": 2244,
      "prettie": 2245,
      "paint": 2246,
      "painted": 2247,
      "trimmed": 2248,
      "replace": 2249,
      "scaredy": 2250,
      "classroom": 2251,
      "clouds": 2252,
      "cting": 2253,
      "distance": 2254,
      "discovery": 2255,
      "overjoy": 2256,
      "letâ": 2257,
      "badly": 2258,
      "comed": 2259,
      "cute": 2260,
      "cutting": 2261,
      "manager": 2262,
      "managed": 2263,
      "olved": 2264,
      "yummie": 2265,
      "shouldn": 2266,
      "shoulder": 2267,
      "surprising": 2268,
      "finish": 2269,
      "kindness": 2270,
      "sudden": 2271,
      "suspend": 2272,
      "understood": 2273,
      "places": 2274,
      "quicker": 2275,
      "daddyâ": 2276,
      "realization": 2277,
      "pumpkins": 2278,
      "eye": 2279,
      "flying": 2280,
      "sounded": 2281,
      "winter": 2282,
      "student": 2283,
      "beauty": 2284,
      "didnâ": 2285,
      "warmly": 2286,
      "dreaming": 2287,
      "North": 2288,
      "ches": 2289,
      "cheered": 2290,
      "cheerful": 2291,
      "confused": 2292,
      "convin": 2293,
      "frown": 2294,
      "front": 2295,
      "floor": 2296,
      "pleased": 2297,
      "angry": 2298,
      "choice": 2299,
      "choose": 2300,
      "speeding": 2301,
      "perfectly": 2302,
      "difference": 2303,
      "Both": 2304,
      "While": 2305,
      "deer": 2306,
      "eating": 2307,
      "frosting": 2308,
      "listen": 2309,
      "occas": 2310,
      "promise": 2311,
      "poured": 2312,
      "sweethe": 2313,
      "visito": 2314,
      "remembers": 2315,
      "loves": 2316,
      "books": 2317,
      "cards": 2318,
      "dressed": 2319,
      "clumsily": 2320,
      "relaxing": 2321,
      "clever": 2322,
      "clap": 2323,
      "filling": 2324,
      "fixing": 2325,
      "hurry": 2326,
      "matter": 2327,
      "match": 2328,
      "matched": 2329,
      "minding": 2330,
      "heading": 2331,
      "begin": 2332,
      "searched": 2333,
      "searching": 2334,
      "softly": 2335,
      "welcoming": 2336,
      "welcomed": 2337,
      "smelled": 2338,
      "explained": 2339,
      "closet": 2340,
      "closely": 2341,
      "pretended": 2342,
      "neighbours": 2343,
      "neighbourhood": 2344,
      "Being": 2345,
      "Because": 2346,
      "appropri": 2347,
      "gling": 2348,
      "glasses": 2349,
      "miss": 2350,
      "missed": 2351,
      "mistakes": 2352,
      "misbehaving": 2353,
      "prospect": 2354,
      "rushed": 2355,
      "rules": 2356,
      "ruined": 2357,
      "rubbed": 2358,
      "respectful": 2359,
      "lloâ": 2360,
      "bottom": 2361,
      "colors": 2362,
      "politely": 2363,
      "picture": 2364,
      "balloons": 2365,
      "gathering": 2366,
      "cleaning": 2367,
      "brightly": 2368,
      "crawled": 2369,
      "delay": 2370,
      "ducks": 2371,
      "grant": 2372,
      "horn": 2373,
      "horrible": 2374,
      "horizon": 2375,
      "human": 2376,
      "kiss": 2377,
      "line": 2378,
      "lined": 2379,
      "lightest": 2380,
      "mouth": 2381,
      "marched": 2382,
      "treat": 2383,
      "treated": 2384,
      "tremble": 2385,
      "wich": 2386,
      "zipped": 2387,
      "waggy": 2388,
      "relief": 2389,
      "stayed": 2390,
      "enjoyed": 2391,
      "celebrated": 2392,
      "shelf": 2393,
      "admired": 2394,
      "admire": 2395,
      "admiring": 2396,
      "rolling": 2397,
      "extra": 2398,
      "messy": 2399,
      "doesn": 2400,
      "quietly": 2401,
      "puddles": 2402,
      "pathway": 2403,
      "trouble": 2404,
      "windows": 2405,
      "adventure": 2406,
      "Quickly": 2407,
      "supermarket": 2408,
      "superhero": 2409,
      "recognize": 2410,
      "branch": 2411,
      "branches": 2412,
      "crowded": 2413,
      "easy": 2414,
      "easier": 2415,
      "flapped": 2416,
      "flavours": 2417,
      "guys": 2418,
      "guilty": 2419,
      "moved": 2420,
      "moves": 2421,
      "pedal": 2422,
      "patient": 2423,
      "patien": 2424,
      "sandbox": 2425,
      "sandwich": 2426,
      "screen": 2427,
      "screamed": 2428,
      "tickle": 2429,
      "tickled": 2430,
      "tested": 2431,
      "œhiâ": 2432,
      "inviting": 2433,
      "involved": 2434,
      "imagining": 2435,
      "imagined": 2436,
      "legs": 2437,
      "cessful": 2438,
      "Helping": 2439,
      "separate": 2440,
      "separated": 2441,
      "shells": 2442,
      "frightened": 2443,
      "forgotten": 2444,
      "spotted": 2445,
      "agreement": 2446,
      "colourful": 2447,
      "peek": 2448,
      "peeked": 2449,
      "peaceful": 2450,
      "footing": 2451,
      "stealing": 2452,
      "permit": 2453,
      "permitted": 2454,
      "bottle": 2455,
      "bottles": 2456,
      "crawling": 2457,
      "delightful": 2458,
      "marketplace": 2459,
      "sleepy": 2460,
      "videos": 2461,
      "interrupt": 2462,
      "interrupting": 2463,
      "secretly": 2464,
      "Better": 2465,
      "Cream": 2466,
      "Each": 2467,
      "Eventually": 2468,
      "Follow": 2469,
      "Listen": 2470,
      "Poor": 2471,
      "Remember": 2472,
      "Working": 2473,
      "Watch": 2474,
      "blur": 2475,
      "blocked": 2476,
      "balanced": 2477,
      "breeze": 2478,
      "barely": 2479,
      "blinked": 2480,
      "baffled": 2481,
      "certainly": 2482,
      "driving": 2483,
      "elephan": 2484,
      "especially": 2485,
      "emerged": 2486,
      "fireplace": 2487,
      "fresh": 2488,
      "firmly": 2489,
      "figure": 2490,
      "field": 2491,
      "gorgeous": 2492,
      "gentle": 2493,
      "greeted": 2494,
      "gift": 2495,
      "glistening": 2496,
      "huge": 2497,
      "journey": 2498,
      "jewels": 2499,
      "knife": 2500,
      "kitchen": 2501,
      "kids": 2502,
      "knocked": 2503,
      "mini": 2504,
      "mirror": 2505,
      "nicer": 2506,
      "objects": 2507,
      "pink": 2508,
      "pected": 2509,
      "splash": 2510,
      "summer": 2511,
      "squirrel": 2512,
      "successful": 2513,
      "size": 2514,
      "scurried": 2515,
      "twirled": 2516,
      "tidy": 2517,
      "tasks": 2518,
      "tightly": 2519,
      "tempted": 2520,
      "unexpected": 2521,
      "valuable": 2522,
      "vendor": 2523,
      "vably": 2524,
      "view": 2525,
      "wrapped": 2526,
      "wiped": 2527,
      "yellow": 2528,
      "œhelloâ": 2529,
      "œThatâ": 2530,
      "œBugs": 2531,
      "tomorrow": 2532,
      "instant": 2533,
      "insisting": 2534,
      "reliable": 2535,
      "rewarded": 2536,
      "repair": 2537,
      "returning": 2538,
      "rewarding": 2539,
      "steps": 2540,
      "struggling": 2541,
      "answered": 2542,
      "lollipop": 2543,
      "engage": 2544,
      "beeped": 2545,
      "belonged": 2546,
      "bellowed": 2547,
      "attracting": 2548,
      "unbelievably": 2549,
      "unusual": 2550,
      "adjusted": 2551,
      "friendships": 2552,
      "chuckled": 2553,
      "sparkly": 2554,
      "speak": 2555,
      "themselves": 2556,
      "caterpillar": 2557,
      "popular": 2558,
      "preparing": 2559,
      "business": 2560,
      "whiteness": 2561,
      "experienced": 2562,
      "pajamas": 2563,
      "prettiest": 2564,
      "overjoyed": 2565,
      "yummiest": 2566,
      "suspended": 2567,
      "students": 2568,
      "convincing": 2569,
      "occasion": 2570,
      "sweetheart": 2571,
      "visitor": 2572,
      "appropriate": 2573,
      "patience": 2574,
      "elephant": 2575
    },
    "merges": [
      [
        "h",
        "e"
      ],
      [
        "t",
        "he"
      ],
      [
        "n",
        "d"
      ],
      [
        "e",
        "d"
      ],
      [
        "t",
        "o"
      ],
      [
        "w",
        "a"
      ],
      [
        "a",
        "nd"
      ],
      [
        "i",
        "n"
      ],
      [
        "i",
        "t"
      ],
      [
        "r",
        "e"
      ],
      [
        "o",
        "u"
      ],
      [
        "h",
        "a"
      ],
      [
        "e",
        "r"
      ],
      [
        "wa",
        "s"
      ],
      [
        "a",
        "r"
      ],
      [
        "i",
        "m"
      ],
      [
        "T",
        "he"
      ],
      [
        "i",
        "s"
      ],
      [
        "l",
        "e"
      ],
      [
        "in",
        "g"
      ],
      [
        "l",
        "l"
      ],
      [
        "a",
        "y"
      ],
      [
        "o",
        "m"
      ],
      [
        "o",
        "n"
      ],
      [
        "s",
        "a"
      ],
      [
        "i",
        "d"
      ],
      [
        "s",
        "t"
      ],
      [
        "a",
        "n"
      ],
      [
        "l",
        "o"
      ],
      [
        "e",
        "n"
      ],
      [
        "n",
        "e"
      ],
      [
        "o",
        "r"
      ],
      [
        "v",
        "er"
      ],
      [
        "a",
        "m"
      ],
      [
        "he",
        "r"
      ],
      [
        "c",
        "e"
      ],
      [
        "i",
        "l"
      ],
      [
        "b",
        "e"
      ],
      [
        "t",
        "h"
      ],
      [
        "o",
        "w"
      ],
      [
        "r",
        "i"
      ],
      [
        "a",
        "t"
      ],
      [
        "ha",
        "t"
      ],
      [
        "p",
        "l"
      ],
      [
        "H",
        "e"
      ],
      [
        "l",
        "d"
      ],
      [
        "i",
        "r"
      ],
      [
        "k",
        "ed"
      ],
      [
        "s",
        "e"
      ],
      [
        "a",
        "l"
      ],
      [
        "d",
        "ay"
      ],
      [
        "k",
        "e"
      ],
      [
        "i",
        "g"
      ],
      [
        "s",
        "he"
      ],
      [
        "sa",
        "id"
      ],
      [
        "h",
        "is"
      ],
      [
        "S",
        "he"
      ],
      [
        "s",
        "o"
      ],
      [
        "p",
        "p"
      ],
      [
        "u",
        "t"
      ],
      [
        "a",
        "ll"
      ],
      [
        "it",
        "h"
      ],
      [
        "w",
        "ith"
      ],
      [
        "o",
        "f"
      ],
      [
        "w",
        "e"
      ],
      [
        "T",
        "im"
      ],
      [
        "u",
        "n"
      ],
      [
        "e",
        "nd"
      ],
      [
        "it",
        "t"
      ],
      [
        "pl",
        "ay"
      ],
      [
        "ver",
        "y"
      ],
      [
        "y",
        "ou"
      ],
      [
        "t",
        "hat"
      ],
      [
        "b",
        "o"
      ],
      [
        "v",
        "e"
      ],
      [
        "ha",
        "d"
      ],
      [
        "l",
        "i"
      ],
      [
        "u",
        "p"
      ],
      [
        "a",
        "d"
      ],
      [
        "t",
        "ed"
      ],
      [
        "ou",
        "ld"
      ],
      [
        "o",
        "t"
      ],
      [
        "r",
        "a"
      ],
      [
        "the",
        "y"
      ],
      [
        "om",
        "e"
      ],
      [
        "en",
        "t"
      ],
      [
        "s",
        "h"
      ],
      [
        "the",
        "r"
      ],
      [
        "c",
        "k"
      ],
      [
        "ha",
        "pp"
      ],
      [
        "g",
        "e"
      ],
      [
        "t",
        "im"
      ],
      [
        "tim",
        "e"
      ],
      [
        "itt",
        "le"
      ],
      [
        "f",
        "ri"
      ],
      [
        "ou",
        "nd"
      ],
      [
        "s",
        "m"
      ],
      [
        "fri",
        "end"
      ],
      [
        "the",
        "re"
      ],
      [
        "b",
        "ig"
      ],
      [
        "f",
        "e"
      ],
      [
        "l",
        "ittle"
      ],
      [
        "f",
        "or"
      ],
      [
        "t",
        "er"
      ],
      [
        "c",
        "h"
      ],
      [
        "happ",
        "y"
      ],
      [
        "O",
        "ne"
      ],
      [
        "O",
        "n"
      ],
      [
        "m",
        "y"
      ],
      [
        "v",
        "ed"
      ],
      [
        "On",
        "ce"
      ],
      [
        "g",
        "h"
      ],
      [
        "The",
        "y"
      ],
      [
        "ou",
        "t"
      ],
      [
        "wa",
        "n"
      ],
      [
        "I",
        "t"
      ],
      [
        "s",
        "p"
      ],
      [
        "sa",
        "w"
      ],
      [
        "il",
        "y"
      ],
      [
        "r",
        "o"
      ],
      [
        "u",
        "m"
      ],
      [
        "a",
        "s"
      ],
      [
        "g",
        "o"
      ],
      [
        "up",
        "on"
      ],
      [
        "a",
        "g"
      ],
      [
        "i",
        "ll"
      ],
      [
        "r",
        "y"
      ],
      [
        "w",
        "ent"
      ],
      [
        "am",
        "ed"
      ],
      [
        "f",
        "u"
      ],
      [
        "l",
        "a"
      ],
      [
        "l",
        "y"
      ],
      [
        "n",
        "ot"
      ],
      [
        "c",
        "a"
      ],
      [
        "n",
        "amed"
      ],
      [
        "he",
        "l"
      ],
      [
        "th",
        "ing"
      ],
      [
        "we",
        "re"
      ],
      [
        "b",
        "ut"
      ],
      [
        "s",
        "ome"
      ],
      [
        "u",
        "g"
      ],
      [
        "wa",
        "y"
      ],
      [
        "id",
        "e"
      ],
      [
        "to",
        "o"
      ],
      [
        ".",
        "\""
      ],
      [
        "c",
        "ould"
      ],
      [
        "e",
        "c"
      ],
      [
        "hel",
        "p"
      ],
      [
        "!",
        "\""
      ],
      [
        "i",
        "c"
      ],
      [
        "ir",
        "l"
      ],
      [
        "friend",
        "s"
      ],
      [
        "g",
        "irl"
      ],
      [
        "h",
        "o"
      ],
      [
        "lo",
        "o"
      ],
      [
        "wan",
        "ted"
      ],
      [
        "h",
        "im"
      ],
      [
        "o",
        "re"
      ],
      [
        "gh",
        "t"
      ],
      [
        "a",
        "b"
      ],
      [
        "a",
        "in"
      ],
      [
        "il",
        "ed"
      ],
      [
        "i",
        "nd"
      ],
      [
        "re",
        "e"
      ],
      [
        "he",
        "n"
      ],
      [
        "am",
        "e"
      ],
      [
        "e",
        "p"
      ],
      [
        "on",
        "e"
      ],
      [
        "sm",
        "iled"
      ],
      [
        "a",
        "ck"
      ],
      [
        "c",
        "ar"
      ],
      [
        "e",
        "x"
      ],
      [
        "r",
        "an"
      ],
      [
        "m",
        "om"
      ],
      [
        "ne",
        "w"
      ],
      [
        "ge",
        "ther"
      ],
      [
        "m",
        "e"
      ],
      [
        "r",
        "om"
      ],
      [
        "a",
        "ke"
      ],
      [
        "o",
        "ther"
      ],
      [
        "L",
        "ily"
      ],
      [
        "c",
        "o"
      ],
      [
        "i",
        "e"
      ],
      [
        "m",
        "u"
      ],
      [
        "o",
        "d"
      ],
      [
        "he",
        "d"
      ],
      [
        "f",
        "a"
      ],
      [
        "to",
        "gether"
      ],
      [
        "ar",
        "k"
      ],
      [
        "sa",
        "d"
      ],
      [
        "lo",
        "ved"
      ],
      [
        "fu",
        "l"
      ],
      [
        "l",
        "t"
      ],
      [
        "?",
        "\""
      ],
      [
        "w",
        "ould"
      ],
      [
        "bo",
        "y"
      ],
      [
        "ra",
        "b"
      ],
      [
        "loo",
        "ked"
      ],
      [
        "d",
        "o"
      ],
      [
        "e",
        "s"
      ],
      [
        "n",
        "ow"
      ],
      [
        "fe",
        "lt"
      ],
      [
        "some",
        "thing"
      ],
      [
        "f",
        "ound"
      ],
      [
        "p",
        "ark"
      ],
      [
        "t",
        "ree"
      ],
      [
        "u",
        "r"
      ],
      [
        "the",
        "m"
      ],
      [
        "ar",
        "ound"
      ],
      [
        "sp",
        "ec"
      ],
      [
        "as",
        "ked"
      ],
      [
        "S",
        "u"
      ],
      [
        "b",
        "ack"
      ],
      [
        "c",
        "an"
      ],
      [
        "f",
        "un"
      ],
      [
        "c",
        "at"
      ],
      [
        "p",
        "o"
      ],
      [
        "w",
        "or"
      ],
      [
        "lo",
        "w"
      ],
      [
        "b",
        "ir"
      ],
      [
        "h",
        "ome"
      ],
      [
        "s",
        "ide"
      ],
      [
        "wa",
        "ter"
      ],
      [
        "sm",
        "all"
      ],
      [
        "S",
        "o"
      ],
      [
        "d",
        "id"
      ],
      [
        "e",
        "l"
      ],
      [
        "s",
        "s"
      ],
      [
        "s",
        "to"
      ],
      [
        "ge",
        "t"
      ],
      [
        "ag",
        "ain"
      ],
      [
        "bir",
        "d"
      ],
      [
        "d",
        "y"
      ],
      [
        "e",
        "t"
      ],
      [
        "play",
        "ing"
      ],
      [
        "spec",
        "i"
      ],
      [
        "B",
        "ut"
      ],
      [
        "f",
        "rom"
      ],
      [
        "ar",
        "d"
      ],
      [
        "on",
        "g"
      ],
      [
        "ig",
        "h"
      ],
      [
        "speci",
        "al"
      ],
      [
        "to",
        "y"
      ],
      [
        "wa",
        "r"
      ],
      [
        "it",
        "ed"
      ],
      [
        "ha",
        "r"
      ],
      [
        "st",
        "ar"
      ],
      [
        "ow",
        "n"
      ],
      [
        "ro",
        "om"
      ],
      [
        "ab",
        "le"
      ],
      [
        "n",
        "y"
      ],
      [
        "o",
        "p"
      ],
      [
        "t",
        "s"
      ],
      [
        "w",
        "hen"
      ],
      [
        "ou",
        "se"
      ],
      [
        "ou",
        "ght"
      ],
      [
        "bo",
        "at"
      ],
      [
        "li",
        "ke"
      ],
      [
        "li",
        "ved"
      ],
      [
        "star",
        "ted"
      ],
      [
        "p",
        "r"
      ],
      [
        "s",
        "un"
      ],
      [
        "ha",
        "n"
      ],
      [
        "th",
        "ought"
      ],
      [
        "play",
        "ed"
      ],
      [
        "a",
        "ve"
      ],
      [
        "a",
        "way"
      ],
      [
        "i",
        "ce"
      ],
      [
        "n",
        "o"
      ],
      [
        "the",
        "ir"
      ],
      [
        "go",
        "od"
      ],
      [
        "ex",
        "c"
      ],
      [
        "b",
        "it"
      ],
      [
        "f",
        "low"
      ],
      [
        "i",
        "ck"
      ],
      [
        "w",
        "o"
      ],
      [
        "the",
        "n"
      ],
      [
        "exc",
        "ited"
      ],
      [
        "flow",
        "er"
      ],
      [
        "E",
        "ll"
      ],
      [
        "c",
        "ame"
      ],
      [
        "e",
        "ar"
      ],
      [
        "e",
        "very"
      ],
      [
        "q",
        "u"
      ],
      [
        "u",
        "c"
      ],
      [
        "im",
        "al"
      ],
      [
        "is",
        "h"
      ],
      [
        "an",
        "imal"
      ],
      [
        "th",
        "is"
      ],
      [
        "too",
        "k"
      ],
      [
        "f",
        "ter"
      ],
      [
        "f",
        "ore"
      ],
      [
        "g",
        "ot"
      ],
      [
        "p",
        "u"
      ],
      [
        "u",
        "st"
      ],
      [
        "u",
        "se"
      ],
      [
        "wa",
        "l"
      ],
      [
        "ha",
        "ve"
      ],
      [
        "se",
        "e"
      ],
      [
        "li",
        "ked"
      ],
      [
        "A",
        "nd"
      ],
      [
        "a",
        "re"
      ],
      [
        "b",
        "r"
      ],
      [
        "f",
        "ish"
      ],
      [
        "k",
        "ing"
      ],
      [
        "k",
        "itt"
      ],
      [
        "m",
        "ad"
      ],
      [
        "n",
        "ed"
      ],
      [
        "w",
        "ho"
      ],
      [
        "ou",
        "r"
      ],
      [
        "le",
        "ar"
      ],
      [
        "ne",
        "ver"
      ],
      [
        "pp",
        "ed"
      ],
      [
        "um",
        "p"
      ],
      [
        "ca",
        "re"
      ],
      [
        "way",
        "s"
      ],
      [
        "animal",
        "s"
      ],
      [
        "kitt",
        "y"
      ],
      [
        "mad",
        "e"
      ],
      [
        "W",
        "hen"
      ],
      [
        "b",
        "ug"
      ],
      [
        "g",
        "um"
      ],
      [
        "i",
        "f"
      ],
      [
        "m",
        "ake"
      ],
      [
        "p",
        "t"
      ],
      [
        "p",
        "re"
      ],
      [
        "fe",
        "el"
      ],
      [
        "fa",
        "st"
      ],
      [
        "igh",
        "t"
      ],
      [
        "L",
        "et"
      ],
      [
        "a",
        "c"
      ],
      [
        "b",
        "u"
      ],
      [
        "b",
        "ed"
      ],
      [
        "d",
        "ad"
      ],
      [
        "g",
        "r"
      ],
      [
        "i",
        "z"
      ],
      [
        "k",
        "y"
      ],
      [
        "m",
        "ore"
      ],
      [
        "o",
        "ld"
      ],
      [
        "t",
        "a"
      ],
      [
        "al",
        "ways"
      ],
      [
        "ra",
        "ce"
      ],
      [
        "ab",
        "out"
      ],
      [
        "rab",
        "bit"
      ],
      [
        "L",
        "uc"
      ],
      [
        "M",
        "om"
      ],
      [
        "S",
        "am"
      ],
      [
        "b",
        "y"
      ],
      [
        "c",
        "lo"
      ],
      [
        "d",
        "ec"
      ],
      [
        "e",
        "ep"
      ],
      [
        "l",
        "u"
      ],
      [
        "p",
        "e"
      ],
      [
        "p",
        "ut"
      ],
      [
        "p",
        "ic"
      ],
      [
        "r",
        "un"
      ],
      [
        "t",
        "ake"
      ],
      [
        "w",
        "h"
      ],
      [
        "w",
        "hat"
      ],
      [
        "€",
        "™"
      ],
      [
        "nd",
        "er"
      ],
      [
        "ou",
        "d"
      ],
      [
        "id",
        "ed"
      ],
      [
        "an",
        "y"
      ],
      [
        "bo",
        "x"
      ],
      [
        "ad",
        "y"
      ],
      [
        "sh",
        "ow"
      ],
      [
        "could",
        "n"
      ],
      [
        "Luc",
        "y"
      ],
      [
        "dec",
        "ided"
      ],
      [
        "J",
        "o"
      ],
      [
        "T",
        "om"
      ],
      [
        "d",
        "d"
      ],
      [
        "d",
        "re"
      ],
      [
        "e",
        "ver"
      ],
      [
        "h",
        "ouse"
      ],
      [
        "u",
        "re"
      ],
      [
        "ou",
        "s"
      ],
      [
        "The",
        "n"
      ],
      [
        "be",
        "st"
      ],
      [
        "you",
        "r"
      ],
      [
        "out",
        "side"
      ],
      [
        "c",
        "re"
      ],
      [
        "g",
        "re"
      ],
      [
        "h",
        "ow"
      ],
      [
        "k",
        "new"
      ],
      [
        "s",
        "ha"
      ],
      [
        "t",
        "han"
      ],
      [
        "in",
        "to"
      ],
      [
        "of",
        "f"
      ],
      [
        "li",
        "e"
      ],
      [
        "wan",
        "t"
      ],
      [
        "ca",
        "use"
      ],
      [
        "mu",
        "ch"
      ],
      [
        "A",
        "my"
      ],
      [
        "I",
        "n"
      ],
      [
        "b",
        "le"
      ],
      [
        "c",
        "ha"
      ],
      [
        "l",
        "ong"
      ],
      [
        "s",
        "car"
      ],
      [
        "t",
        "ri"
      ],
      [
        "he",
        "re"
      ],
      [
        "ne",
        "ed"
      ],
      [
        "be",
        "ar"
      ],
      [
        "be",
        "cause"
      ],
      [
        "ke",
        "ep"
      ],
      [
        "ill",
        "y"
      ],
      [
        "fu",
        "ll"
      ],
      [
        "not",
        "ic"
      ],
      [
        "lear",
        "ned"
      ],
      [
        "sha",
        "re"
      ],
      [
        "notic",
        "ed"
      ],
      [
        "J",
        "im"
      ],
      [
        "b",
        "er"
      ],
      [
        "c",
        "all"
      ],
      [
        "d",
        "own"
      ],
      [
        "e",
        "a"
      ],
      [
        "f",
        "o"
      ],
      [
        "f",
        "ind"
      ],
      [
        "j",
        "ust"
      ],
      [
        "o",
        "st"
      ],
      [
        "t",
        "il"
      ],
      [
        "t",
        "ry"
      ],
      [
        "w",
        "is"
      ],
      [
        "to",
        "ld"
      ],
      [
        "it",
        "e"
      ],
      [
        "st",
        "e"
      ],
      [
        "se",
        "l"
      ],
      [
        "ke",
        "pt"
      ],
      [
        "un",
        "til"
      ],
      [
        "la",
        "ug"
      ],
      [
        "thing",
        "s"
      ],
      [
        "Mom",
        "my"
      ],
      [
        "pic",
        "ked"
      ],
      [
        "dd",
        "en"
      ],
      [
        "laug",
        "hed"
      ],
      [
        "E",
        "very"
      ],
      [
        "c",
        "her"
      ],
      [
        "g",
        "ame"
      ],
      [
        "k",
        "now"
      ],
      [
        "n",
        "ing"
      ],
      [
        "s",
        "now"
      ],
      [
        "t",
        "wo"
      ],
      [
        "lo",
        "ts"
      ],
      [
        "ri",
        "ght"
      ],
      [
        "at",
        "e"
      ],
      [
        "bo",
        "th"
      ],
      [
        "ex",
        "p"
      ],
      [
        "Su",
        "e"
      ],
      [
        "Ell",
        "y"
      ],
      [
        "fore",
        "st"
      ],
      [
        "gr",
        "ound"
      ],
      [
        "Jo",
        "e"
      ],
      [
        "than",
        "ked"
      ],
      [
        "dden",
        "ly"
      ],
      [
        "A",
        "s"
      ],
      [
        "J",
        "ill"
      ],
      [
        "M",
        "i"
      ],
      [
        "T",
        "hat"
      ],
      [
        "Y",
        "es"
      ],
      [
        "a",
        "ce"
      ],
      [
        "a",
        "fter"
      ],
      [
        "b",
        "un"
      ],
      [
        "f",
        "f"
      ],
      [
        "g",
        "ave"
      ],
      [
        "h",
        "ug"
      ],
      [
        "i",
        "le"
      ],
      [
        "j",
        "ump"
      ],
      [
        "o",
        "k"
      ],
      [
        "p",
        "a"
      ],
      [
        "t",
        "al"
      ],
      [
        "v",
        "ing"
      ],
      [
        "le",
        "ave"
      ],
      [
        "lo",
        "om"
      ],
      [
        "loo",
        "k"
      ],
      [
        "do",
        "g"
      ],
      [
        "wor",
        "d"
      ],
      [
        "pre",
        "t"
      ],
      [
        "call",
        "ed"
      ],
      [
        "exp",
        "lo"
      ],
      [
        "Mi",
        "a"
      ],
      [
        "bun",
        "ny"
      ],
      [
        ",",
        "\""
      ],
      [
        "H",
        "is"
      ],
      [
        "J",
        "ack"
      ],
      [
        "N",
        "ow"
      ],
      [
        "c",
        "rab"
      ],
      [
        "p",
        "ain"
      ],
      [
        "s",
        "ed"
      ],
      [
        "t",
        "r"
      ],
      [
        "u",
        "ck"
      ],
      [
        "wa",
        "it"
      ],
      [
        "re",
        "pl"
      ],
      [
        "ar",
        "a"
      ],
      [
        "be",
        "t"
      ],
      [
        "sh",
        "op"
      ],
      [
        "happ",
        "ily"
      ],
      [
        "la",
        "ke"
      ],
      [
        "cat",
        "ch"
      ],
      [
        "pr",
        "oud"
      ],
      [
        "lu",
        "ff"
      ],
      [
        "scar",
        "ed"
      ],
      [
        "ea",
        "ch"
      ],
      [
        "sel",
        "f"
      ],
      [
        "luff",
        "y"
      ],
      [
        "B",
        "in"
      ],
      [
        "B",
        "eep"
      ],
      [
        "F",
        "luffy"
      ],
      [
        "Y",
        "ou"
      ],
      [
        "a",
        "k"
      ],
      [
        "c",
        "l"
      ],
      [
        "c",
        "t"
      ],
      [
        "d",
        "is"
      ],
      [
        "d",
        "on"
      ],
      [
        "f",
        "le"
      ],
      [
        "i",
        "ed"
      ],
      [
        "i",
        "ve"
      ],
      [
        "l",
        "ady"
      ],
      [
        "m",
        "er"
      ],
      [
        "m",
        "ag"
      ],
      [
        "o",
        "ver"
      ],
      [
        "t",
        "ur"
      ],
      [
        "w",
        "ill"
      ],
      [
        "he",
        "ard"
      ],
      [
        "wa",
        "t"
      ],
      [
        "re",
        "al"
      ],
      [
        "is",
        "e"
      ],
      [
        "le",
        "t"
      ],
      [
        "ri",
        "or"
      ],
      [
        "ir",
        "st"
      ],
      [
        "other",
        "s"
      ],
      [
        "war",
        "rior"
      ],
      [
        "qu",
        "e"
      ],
      [
        "wal",
        "king"
      ],
      [
        "tri",
        "ed"
      ],
      [
        "cher",
        "ry"
      ],
      [
        "repl",
        "ied"
      ],
      [
        "Bin",
        "ky"
      ],
      [
        "A",
        "fter"
      ],
      [
        "C",
        "an"
      ],
      [
        "F",
        "in"
      ],
      [
        "M",
        "ar"
      ],
      [
        "W",
        "hat"
      ],
      [
        "a",
        "z"
      ],
      [
        "b",
        "ad"
      ],
      [
        "c",
        "om"
      ],
      [
        "c",
        "ut"
      ],
      [
        "e",
        "v"
      ],
      [
        "e",
        "ll"
      ],
      [
        "f",
        "l"
      ],
      [
        "f",
        "ar"
      ],
      [
        "g",
        "ard"
      ],
      [
        "h",
        "and"
      ],
      [
        "m",
        "an"
      ],
      [
        "m",
        "ouse"
      ],
      [
        "n",
        "t"
      ],
      [
        "o",
        "l"
      ],
      [
        "p",
        "er"
      ],
      [
        "p",
        "ie"
      ],
      [
        "r",
        "ong"
      ],
      [
        "s",
        "er"
      ],
      [
        "s",
        "ur"
      ],
      [
        "s",
        "har"
      ],
      [
        "t",
        "y"
      ],
      [
        "y",
        "um"
      ],
      [
        "to",
        "n"
      ],
      [
        "in",
        "y"
      ],
      [
        "ou",
        "gh"
      ],
      [
        "st",
        "ill"
      ],
      [
        "st",
        "ran"
      ],
      [
        "lo",
        "t"
      ],
      [
        "en",
        "ed"
      ],
      [
        "am",
        "az"
      ],
      [
        "be",
        "ing"
      ],
      [
        "ow",
        "l"
      ],
      [
        "al",
        "th"
      ],
      [
        "ke",
        "t"
      ],
      [
        "Tim",
        "my"
      ],
      [
        "sh",
        "ould"
      ],
      [
        "but",
        "ton"
      ],
      [
        "ide",
        "a"
      ],
      [
        "Su",
        "ddenly"
      ],
      [
        "wo",
        "nder"
      ],
      [
        "Ell",
        "a"
      ],
      [
        "clo",
        "ser"
      ],
      [
        "keep",
        "er"
      ],
      [
        "bet",
        "ter"
      ],
      [
        "shop",
        "keeper"
      ],
      [
        "Mar",
        "y"
      ],
      [
        "gard",
        "en"
      ],
      [
        "pie",
        "ce"
      ],
      [
        "sur",
        "pr"
      ],
      [
        "B",
        "loom"
      ],
      [
        "C",
        "har"
      ],
      [
        "F",
        "rom"
      ],
      [
        "J",
        "an"
      ],
      [
        "M",
        "a"
      ],
      [
        "S",
        "ara"
      ],
      [
        "T",
        "han"
      ],
      [
        "b",
        "ar"
      ],
      [
        "b",
        "all"
      ],
      [
        "b",
        "ro"
      ],
      [
        "c",
        "ome"
      ],
      [
        "c",
        "hed"
      ],
      [
        "d",
        "er"
      ],
      [
        "d",
        "if"
      ],
      [
        "e",
        "m"
      ],
      [
        "f",
        "in"
      ],
      [
        "f",
        "am"
      ],
      [
        "i",
        "x"
      ],
      [
        "j",
        "o"
      ],
      [
        "k",
        "in"
      ],
      [
        "k",
        "ind"
      ],
      [
        "n",
        "a"
      ],
      [
        "p",
        "ick"
      ],
      [
        "p",
        "ump"
      ],
      [
        "r",
        "ing"
      ],
      [
        "s",
        "u"
      ],
      [
        "s",
        "ie"
      ],
      [
        "s",
        "ky"
      ],
      [
        "u",
        "sh"
      ],
      [
        "u",
        "ght"
      ],
      [
        "u",
        "nder"
      ],
      [
        "y",
        "ard"
      ],
      [
        "it",
        "s"
      ],
      [
        "ha",
        "ir"
      ],
      [
        "ha",
        "ving"
      ],
      [
        "ll",
        "ed"
      ],
      [
        "an",
        "c"
      ],
      [
        "pl",
        "ace"
      ],
      [
        "so",
        "on"
      ],
      [
        "pp",
        "ing"
      ],
      [
        "sh",
        "room"
      ],
      [
        "ho",
        "le"
      ],
      [
        "mu",
        "shroom"
      ],
      [
        "Su",
        "sie"
      ],
      [
        "po",
        "le"
      ],
      [
        "toy",
        "s"
      ],
      [
        "qu",
        "ick"
      ],
      [
        "wal",
        "ked"
      ],
      [
        "br",
        "ush"
      ],
      [
        "care",
        "ful"
      ],
      [
        "dad",
        "dy"
      ],
      [
        "cre",
        "am"
      ],
      [
        "gre",
        "en"
      ],
      [
        "leave",
        "s"
      ],
      [
        "pain",
        "ter"
      ],
      [
        "real",
        "iz"
      ],
      [
        "que",
        "en"
      ],
      [
        "yum",
        "my"
      ],
      [
        "Char",
        "lie"
      ],
      [
        "Jan",
        "e"
      ],
      [
        "Ma",
        "x"
      ],
      [
        "Sara",
        "h"
      ],
      [
        "Than",
        "k"
      ],
      [
        "fam",
        "ily"
      ],
      [
        "pump",
        "kin"
      ],
      [
        "B",
        "en"
      ],
      [
        "B",
        "ear"
      ],
      [
        "D",
        "on"
      ],
      [
        "L",
        "o"
      ],
      [
        "L",
        "ittle"
      ],
      [
        "Z",
        "ig"
      ],
      [
        "a",
        "ut"
      ],
      [
        "d",
        "eep"
      ],
      [
        "e",
        "y"
      ],
      [
        "e",
        "st"
      ],
      [
        "f",
        "t"
      ],
      [
        "f",
        "ly"
      ],
      [
        "f",
        "irst"
      ],
      [
        "i",
        "ous"
      ],
      [
        "l",
        "k"
      ],
      [
        "l",
        "ed"
      ],
      [
        "m",
        "other"
      ],
      [
        "p",
        "ot"
      ],
      [
        "r",
        "ow"
      ],
      [
        "s",
        "ent"
      ],
      [
        "s",
        "ound"
      ],
      [
        "s",
        "ic"
      ],
      [
        "s",
        "low"
      ],
      [
        "t",
        "ing"
      ],
      [
        "u",
        "gh"
      ],
      [
        "w",
        "n"
      ],
      [
        "w",
        "in"
      ],
      [
        "w",
        "ind"
      ],
      [
        "z",
        "ag"
      ],
      [
        "to",
        "wn"
      ],
      [
        "in",
        "side"
      ],
      [
        "st",
        "u"
      ],
      [
        "an",
        "t"
      ],
      [
        "ne",
        "ar"
      ],
      [
        "be",
        "fore"
      ],
      [
        "be",
        "aut"
      ],
      [
        "we",
        "ar"
      ],
      [
        "end",
        "able"
      ],
      [
        "ve",
        "st"
      ],
      [
        "ted",
        "dy"
      ],
      [
        "gh",
        "ost"
      ],
      [
        "ho",
        "op"
      ],
      [
        "him",
        "self"
      ],
      [
        "ep",
        "endable"
      ],
      [
        "mom",
        "my"
      ],
      [
        "mu",
        "sic"
      ],
      [
        "po",
        "nd"
      ],
      [
        "did",
        "n"
      ],
      [
        "sto",
        "re"
      ],
      [
        "war",
        "m"
      ],
      [
        "flower",
        "s"
      ],
      [
        "ear",
        "s"
      ],
      [
        "pu",
        "lled"
      ],
      [
        "fast",
        "er"
      ],
      [
        "ta",
        "il"
      ],
      [
        "run",
        "ning"
      ],
      [
        "wh",
        "y"
      ],
      [
        "dre",
        "am"
      ],
      [
        "cha",
        "lk"
      ],
      [
        "Jim",
        "my"
      ],
      [
        "ev",
        "en"
      ],
      [
        "stran",
        "ge"
      ],
      [
        "amaz",
        "ing"
      ],
      [
        "alth",
        "y"
      ],
      [
        "wonder",
        "ful"
      ],
      [
        "Ben",
        "ny"
      ],
      [
        "Zig",
        "zag"
      ],
      [
        "D",
        "ependable"
      ],
      [
        "N",
        "o"
      ],
      [
        "N",
        "or"
      ],
      [
        "T",
        "o"
      ],
      [
        "W",
        "e"
      ],
      [
        "a",
        "v"
      ],
      [
        "c",
        "he"
      ],
      [
        "c",
        "on"
      ],
      [
        "e",
        "ed"
      ],
      [
        "f",
        "r"
      ],
      [
        "f",
        "lo"
      ],
      [
        "g",
        "a"
      ],
      [
        "g",
        "ed"
      ],
      [
        "i",
        "p"
      ],
      [
        "i",
        "ful"
      ],
      [
        "k",
        "ay"
      ],
      [
        "m",
        "or"
      ],
      [
        "m",
        "any"
      ],
      [
        "m",
        "ber"
      ],
      [
        "m",
        "ost"
      ],
      [
        "o",
        "on"
      ],
      [
        "p",
        "le"
      ],
      [
        "p",
        "ow"
      ],
      [
        "r",
        "ed"
      ],
      [
        "s",
        "y"
      ],
      [
        "s",
        "or"
      ],
      [
        "w",
        "here"
      ],
      [
        "re",
        "ac"
      ],
      [
        "re",
        "ady"
      ],
      [
        "is",
        "t"
      ],
      [
        "is",
        "ed"
      ],
      [
        "ll",
        "ow"
      ],
      [
        "sa",
        "fe"
      ],
      [
        "st",
        "er"
      ],
      [
        "an",
        "g"
      ],
      [
        "lo",
        "st"
      ],
      [
        "en",
        "c"
      ],
      [
        "be",
        "came"
      ],
      [
        "th",
        "in"
      ],
      [
        "ri",
        "es"
      ],
      [
        "ir",
        "t"
      ],
      [
        "all",
        "y"
      ],
      [
        "we",
        "t"
      ],
      [
        "ra",
        "w"
      ],
      [
        "ra",
        "ke"
      ],
      [
        "ra",
        "ss"
      ],
      [
        "fe",
        "re"
      ],
      [
        "fe",
        "ct"
      ],
      [
        "ch",
        "o"
      ],
      [
        "sp",
        "eed"
      ],
      [
        "mom",
        "ent"
      ],
      [
        "me",
        "tal"
      ],
      [
        "me",
        "mber"
      ],
      [
        "co",
        "in"
      ],
      [
        "co",
        "ld"
      ],
      [
        "fa",
        "v"
      ],
      [
        "sto",
        "ry"
      ],
      [
        "good",
        "by"
      ],
      [
        "br",
        "own"
      ],
      [
        "bed",
        "room"
      ],
      [
        "jump",
        "ed"
      ],
      [
        "pret",
        "ty"
      ],
      [
        "explo",
        "re"
      ],
      [
        "fle",
        "w"
      ],
      [
        "mag",
        "ic"
      ],
      [
        "com",
        "ing"
      ],
      [
        "per",
        "fect"
      ],
      [
        "surpr",
        "ise"
      ],
      [
        "dif",
        "fere"
      ],
      [
        "quick",
        "ly"
      ],
      [
        "ey",
        "es"
      ],
      [
        "stu",
        "dy"
      ],
      [
        "beaut",
        "iful"
      ],
      [
        "kay",
        "ak"
      ],
      [
        "pow",
        "der"
      ],
      [
        "sor",
        "ry"
      ],
      [
        "reac",
        "hed"
      ],
      [
        "goodby",
        "e"
      ],
      [
        "A",
        "n"
      ],
      [
        "B",
        "o"
      ],
      [
        "B",
        "ill"
      ],
      [
        "C",
        "ind"
      ],
      [
        "D",
        "o"
      ],
      [
        "E",
        "m"
      ],
      [
        "G",
        "race"
      ],
      [
        "H",
        "i"
      ],
      [
        "R",
        "ac"
      ],
      [
        "T",
        "illy"
      ],
      [
        "W",
        "h"
      ],
      [
        "a",
        "se"
      ],
      [
        "b",
        "ra"
      ],
      [
        "c",
        "ket"
      ],
      [
        "d",
        "e"
      ],
      [
        "d",
        "ed"
      ],
      [
        "d",
        "one"
      ],
      [
        "e",
        "at"
      ],
      [
        "f",
        "ro"
      ],
      [
        "g",
        "rab"
      ],
      [
        "i",
        "ent"
      ],
      [
        "l",
        "oud"
      ],
      [
        "l",
        "ist"
      ],
      [
        "n",
        "ie"
      ],
      [
        "n",
        "ts"
      ],
      [
        "n",
        "ice"
      ],
      [
        "n",
        "ight"
      ],
      [
        "o",
        "c"
      ],
      [
        "p",
        "rom"
      ],
      [
        "p",
        "are"
      ],
      [
        "p",
        "our"
      ],
      [
        "p",
        "enc"
      ],
      [
        "r",
        "ough"
      ],
      [
        "s",
        "ou"
      ],
      [
        "s",
        "we"
      ],
      [
        "u",
        "ch"
      ],
      [
        "v",
        "is"
      ],
      [
        "w",
        "rong"
      ],
      [
        "z",
        "or"
      ],
      [
        "in",
        "t"
      ],
      [
        "re",
        "ed"
      ],
      [
        "re",
        "la"
      ],
      [
        "re",
        "member"
      ],
      [
        "le",
        "ss"
      ],
      [
        "id",
        "d"
      ],
      [
        "st",
        "ry"
      ],
      [
        "lo",
        "ve"
      ],
      [
        "ne",
        "e"
      ],
      [
        "or",
        "t"
      ],
      [
        "be",
        "en"
      ],
      [
        "th",
        "rough"
      ],
      [
        "pl",
        "an"
      ],
      [
        "se",
        "en"
      ],
      [
        "bo",
        "ok"
      ],
      [
        "ve",
        "get"
      ],
      [
        "ad",
        "v"
      ],
      [
        "ra",
        "zor"
      ],
      [
        "sh",
        "iny"
      ],
      [
        "sh",
        "irt"
      ],
      [
        "go",
        "ing"
      ],
      [
        "ag",
        "reed"
      ],
      [
        "ho",
        "pping"
      ],
      [
        "car",
        "d"
      ],
      [
        "fa",
        "ce"
      ],
      [
        "po",
        "cket"
      ],
      [
        "small",
        "er"
      ],
      [
        "sto",
        "ve"
      ],
      [
        "bird",
        "s"
      ],
      [
        "har",
        "d"
      ],
      [
        "able",
        "s"
      ],
      [
        "sun",
        "ny"
      ],
      [
        "no",
        "se"
      ],
      [
        "every",
        "one"
      ],
      [
        "our",
        "s"
      ],
      [
        "care",
        "full"
      ],
      [
        "pre",
        "sent"
      ],
      [
        "feel",
        "ing"
      ],
      [
        "bu",
        "sh"
      ],
      [
        "iz",
        "z"
      ],
      [
        "wh",
        "ile"
      ],
      [
        "show",
        "ed"
      ],
      [
        "dre",
        "ss"
      ],
      [
        "need",
        "le"
      ],
      [
        "pa",
        "stry"
      ],
      [
        "explo",
        "ring"
      ],
      [
        "cl",
        "um"
      ],
      [
        "wat",
        "ched"
      ],
      [
        "fl",
        "ame"
      ],
      [
        "realiz",
        "ed"
      ],
      [
        "Nor",
        "a"
      ],
      [
        "flo",
        "at"
      ],
      [
        "differe",
        "nt"
      ],
      [
        "An",
        "nie"
      ],
      [
        "Cind",
        "y"
      ],
      [
        "Em",
        "ily"
      ],
      [
        "Rac",
        "hel"
      ],
      [
        "bra",
        "ve"
      ],
      [
        "pare",
        "nts"
      ],
      [
        "penc",
        "il"
      ],
      [
        "sou",
        "p"
      ],
      [
        "rela",
        "x"
      ],
      [
        "veget",
        "ables"
      ],
      [
        "carefull",
        "y"
      ],
      [
        "A",
        "t"
      ],
      [
        "A",
        "ll"
      ],
      [
        "H",
        "er"
      ],
      [
        "S",
        "pot"
      ],
      [
        "c",
        "ou"
      ],
      [
        "c",
        "le"
      ],
      [
        "c",
        "la"
      ],
      [
        "d",
        "ro"
      ],
      [
        "d",
        "ry"
      ],
      [
        "f",
        "it"
      ],
      [
        "f",
        "all"
      ],
      [
        "f",
        "ill"
      ],
      [
        "f",
        "ree"
      ],
      [
        "f",
        "ix"
      ],
      [
        "g",
        "one"
      ],
      [
        "h",
        "ide"
      ],
      [
        "h",
        "ur"
      ],
      [
        "m",
        "ed"
      ],
      [
        "m",
        "on"
      ],
      [
        "m",
        "at"
      ],
      [
        "m",
        "ind"
      ],
      [
        "m",
        "one"
      ],
      [
        "n",
        "er"
      ],
      [
        "p",
        "ort"
      ],
      [
        "r",
        "ide"
      ],
      [
        "s",
        "is"
      ],
      [
        "s",
        "ure"
      ],
      [
        "s",
        "illy"
      ],
      [
        "s",
        "cho"
      ],
      [
        "t",
        "in"
      ],
      [
        "t",
        "ie"
      ],
      [
        "u",
        "ed"
      ],
      [
        "u",
        "ri"
      ],
      [
        "w",
        "y"
      ],
      [
        "w",
        "ed"
      ],
      [
        "w",
        "ha"
      ],
      [
        "z",
        "e"
      ],
      [
        "he",
        "s"
      ],
      [
        "he",
        "ad"
      ],
      [
        "to",
        "pu"
      ],
      [
        "to",
        "uch"
      ],
      [
        "ou",
        "ted"
      ],
      [
        "er",
        "t"
      ],
      [
        "ar",
        "ri"
      ],
      [
        "im",
        "port"
      ],
      [
        "is",
        "hed"
      ],
      [
        "st",
        "and"
      ],
      [
        "st",
        "le"
      ],
      [
        "ne",
        "x"
      ],
      [
        "ne",
        "igh"
      ],
      [
        "or",
        "ite"
      ],
      [
        "be",
        "g"
      ],
      [
        "be",
        "lie"
      ],
      [
        "ri",
        "ed"
      ],
      [
        "at",
        "ure"
      ],
      [
        "pl",
        "ain"
      ],
      [
        "se",
        "ar"
      ],
      [
        "al",
        "so"
      ],
      [
        "so",
        "ft"
      ],
      [
        "we",
        "l"
      ],
      [
        "we",
        "ight"
      ],
      [
        "ve",
        "s"
      ],
      [
        "li",
        "ve"
      ],
      [
        "sh",
        "outed"
      ],
      [
        "sm",
        "ell"
      ],
      [
        "fe",
        "ll"
      ],
      [
        "ch",
        "ing"
      ],
      [
        "ro",
        "ss"
      ],
      [
        "fu",
        "el"
      ],
      [
        "la",
        "ugh"
      ],
      [
        "la",
        "wy"
      ],
      [
        "ca",
        "se"
      ],
      [
        "ca",
        "stle"
      ],
      [
        "help",
        "ed"
      ],
      [
        "ho",
        "pped"
      ],
      [
        "ex",
        "plain"
      ],
      [
        "mu",
        "st"
      ],
      [
        "spec",
        "t"
      ],
      [
        "wor",
        "ry"
      ],
      [
        "war",
        "d"
      ],
      [
        "pt",
        "y"
      ],
      [
        "ac",
        "ross"
      ],
      [
        "ta",
        "ste"
      ],
      [
        "clo",
        "se"
      ],
      [
        "lu",
        "e"
      ],
      [
        "ure",
        "s"
      ],
      [
        "gre",
        "w"
      ],
      [
        "need",
        "ed"
      ],
      [
        "fo",
        "od"
      ],
      [
        "fo",
        "llow"
      ],
      [
        "wis",
        "hes"
      ],
      [
        "ste",
        "pped"
      ],
      [
        "word",
        "s"
      ],
      [
        "pret",
        "end"
      ],
      [
        "far",
        "mer"
      ],
      [
        "shar",
        "ed"
      ],
      [
        "piece",
        "s"
      ],
      [
        "em",
        "pty"
      ],
      [
        "fin",
        "ished"
      ],
      [
        "na",
        "ught"
      ],
      [
        "Lo",
        "la"
      ],
      [
        "To",
        "gether"
      ],
      [
        "con",
        "tin"
      ],
      [
        "fr",
        "ame"
      ],
      [
        "fav",
        "orite"
      ],
      [
        "Bo",
        "b"
      ],
      [
        "Wh",
        "y"
      ],
      [
        "fro",
        "g"
      ],
      [
        "grab",
        "bed"
      ],
      [
        "oc",
        "topu"
      ],
      [
        "prom",
        "ised"
      ],
      [
        "swe",
        "et"
      ],
      [
        "vis",
        "it"
      ],
      [
        "clum",
        "sy"
      ],
      [
        "cou",
        "n"
      ],
      [
        "dro",
        "ve"
      ],
      [
        "mone",
        "y"
      ],
      [
        "scho",
        "ol"
      ],
      [
        "uri",
        "ous"
      ],
      [
        "wha",
        "le"
      ],
      [
        "arri",
        "ved"
      ],
      [
        "import",
        "ant"
      ],
      [
        "neigh",
        "b"
      ],
      [
        "lawy",
        "er"
      ],
      [
        "naught",
        "y"
      ],
      [
        "contin",
        "ued"
      ],
      [
        "octopu",
        "s"
      ],
      [
        "B",
        "e"
      ],
      [
        "B",
        "illy"
      ],
      [
        "D",
        "ad"
      ],
      [
        "G",
        "o"
      ],
      [
        "I",
        "f"
      ],
      [
        "L",
        "izz"
      ],
      [
        "T",
        "his"
      ],
      [
        "W",
        "il"
      ],
      [
        "a",
        "pp"
      ],
      [
        "b",
        "ow"
      ],
      [
        "b",
        "we"
      ],
      [
        "b",
        "la"
      ],
      [
        "b",
        "ur"
      ],
      [
        "b",
        "ble"
      ],
      [
        "b",
        "loom"
      ],
      [
        "b",
        "lue"
      ],
      [
        "c",
        "urious"
      ],
      [
        "d",
        "ark"
      ],
      [
        "e",
        "er"
      ],
      [
        "f",
        "anc"
      ],
      [
        "g",
        "i"
      ],
      [
        "g",
        "l"
      ],
      [
        "g",
        "er"
      ],
      [
        "g",
        "ive"
      ],
      [
        "g",
        "rass"
      ],
      [
        "h",
        "n"
      ],
      [
        "h",
        "ind"
      ],
      [
        "h",
        "ours"
      ],
      [
        "k",
        "nee"
      ],
      [
        "l",
        "ide"
      ],
      [
        "l",
        "ite"
      ],
      [
        "m",
        "is"
      ],
      [
        "m",
        "il"
      ],
      [
        "m",
        "um"
      ],
      [
        "m",
        "od"
      ],
      [
        "m",
        "mer"
      ],
      [
        "m",
        "ix"
      ],
      [
        "m",
        "idd"
      ],
      [
        "n",
        "g"
      ],
      [
        "n",
        "od"
      ],
      [
        "n",
        "ature"
      ],
      [
        "o",
        "ice"
      ],
      [
        "p",
        "ro"
      ],
      [
        "r",
        "u"
      ],
      [
        "r",
        "ay"
      ],
      [
        "s",
        "w"
      ],
      [
        "s",
        "na"
      ],
      [
        "s",
        "lide"
      ],
      [
        "t",
        "able"
      ],
      [
        "t",
        "wis"
      ],
      [
        "t",
        "iny"
      ],
      [
        "u",
        "sed"
      ],
      [
        "v",
        "oice"
      ],
      [
        "z",
        "ip"
      ],
      [
        "he",
        "ar"
      ],
      [
        "he",
        "althy"
      ],
      [
        "he",
        "av"
      ],
      [
        "wa",
        "ited"
      ],
      [
        "re",
        "ad"
      ],
      [
        "re",
        "ind"
      ],
      [
        "re",
        "spect"
      ],
      [
        "ha",
        "mmer"
      ],
      [
        "ar",
        "row"
      ],
      [
        "The",
        "re"
      ],
      [
        "ll",
        "o"
      ],
      [
        "sa",
        "ck"
      ],
      [
        "id",
        "er"
      ],
      [
        "st",
        "ed"
      ],
      [
        "st",
        "uck"
      ],
      [
        "st",
        "rong"
      ],
      [
        "st",
        "raw"
      ],
      [
        "lo",
        "r"
      ],
      [
        "ne",
        "t"
      ],
      [
        "ne",
        "ck"
      ],
      [
        "her",
        "self"
      ],
      [
        "il",
        "d"
      ],
      [
        "be",
        "hind"
      ],
      [
        "th",
        "ree"
      ],
      [
        "ri",
        "ver"
      ],
      [
        "at",
        "er"
      ],
      [
        "ir",
        "ed"
      ],
      [
        "al",
        "ong"
      ],
      [
        "al",
        "ert"
      ],
      [
        "she",
        "d"
      ],
      [
        "ut",
        "e"
      ],
      [
        "we",
        "althy"
      ],
      [
        "you",
        "ng"
      ],
      [
        "bo",
        "t"
      ],
      [
        "ra",
        "in"
      ],
      [
        "sh",
        "ore"
      ],
      [
        "sm",
        "ile"
      ],
      [
        "friend",
        "ly"
      ],
      [
        "sp",
        "ent"
      ],
      [
        "sp",
        "ray"
      ],
      [
        "sp",
        "ider"
      ],
      [
        "la",
        "ce"
      ],
      [
        "ca",
        "ught"
      ],
      [
        "ug",
        "ly"
      ],
      [
        "help",
        "ing"
      ],
      [
        "help",
        "ful"
      ],
      [
        "co",
        "ol"
      ],
      [
        "co",
        "bwe"
      ],
      [
        "co",
        "lor"
      ],
      [
        "?\"",
        "."
      ],
      [
        "tree",
        "s"
      ],
      [
        "po",
        "in"
      ],
      [
        "po",
        "lite"
      ],
      [
        "wor",
        "k"
      ],
      [
        "wor",
        "ked"
      ],
      [
        "sto",
        "pped"
      ],
      [
        "op",
        "le"
      ],
      [
        "op",
        "ened"
      ],
      [
        "pr",
        "int"
      ],
      [
        "bug",
        "s"
      ],
      [
        "Let",
        "â"
      ],
      [
        "bu",
        "bble"
      ],
      [
        "bu",
        "ild"
      ],
      [
        "gr",
        "ow"
      ],
      [
        "ta",
        "sted"
      ],
      [
        "pe",
        "at"
      ],
      [
        "pe",
        "ople"
      ],
      [
        "pic",
        "t"
      ],
      [
        "wh",
        "ite"
      ],
      [
        "any",
        "more"
      ],
      [
        "Jo",
        "hn"
      ],
      [
        "dre",
        "w"
      ],
      [
        "cha",
        "in"
      ],
      [
        "long",
        "er"
      ],
      [
        "scar",
        "y"
      ],
      [
        "tri",
        "ang"
      ],
      [
        "Every",
        "one"
      ],
      [
        "hug",
        "ged"
      ],
      [
        "mag",
        "net"
      ],
      [
        "tur",
        "n"
      ],
      [
        "tur",
        "ned"
      ],
      [
        "fl",
        "ute"
      ],
      [
        "hand",
        "s"
      ],
      [
        "bar",
        "ber"
      ],
      [
        "ball",
        "oon"
      ],
      [
        "bro",
        "ther"
      ],
      [
        "jo",
        "y"
      ],
      [
        "su",
        "ddenly"
      ],
      [
        "hair",
        "cut"
      ],
      [
        "win",
        "e"
      ],
      [
        "che",
        "wed"
      ],
      [
        "ga",
        "ther"
      ],
      [
        "mor",
        "al"
      ],
      [
        "ple",
        "ase"
      ],
      [
        "thin",
        "k"
      ],
      [
        "magic",
        "al"
      ],
      [
        "de",
        "li"
      ],
      [
        "list",
        "ened"
      ],
      [
        "remember",
        "ed"
      ],
      [
        "cle",
        "an"
      ],
      [
        "cla",
        "pped"
      ],
      [
        "fill",
        "ed"
      ],
      [
        "mon",
        "ster"
      ],
      [
        "sis",
        "ter"
      ],
      [
        "nex",
        "t"
      ],
      [
        "beg",
        "an"
      ],
      [
        "belie",
        "ve"
      ],
      [
        "smell",
        "y"
      ],
      [
        "follow",
        "ed"
      ],
      [
        "Dad",
        "dy"
      ],
      [
        "Lizz",
        "ie"
      ],
      [
        "Wil",
        "bur"
      ],
      [
        "bla",
        "ck"
      ],
      [
        "fanc",
        "y"
      ],
      [
        "mil",
        "k"
      ],
      [
        "mod",
        "est"
      ],
      [
        "midd",
        "le"
      ],
      [
        "nod",
        "ded"
      ],
      [
        "sna",
        "il"
      ],
      [
        "reind",
        "eer"
      ],
      [
        "straw",
        "ber"
      ],
      [
        "neck",
        "lace"
      ],
      [
        "cobwe",
        "b"
      ],
      [
        "triang",
        "le"
      ],
      [
        "\"",
        "."
      ],
      [
        "C",
        "a"
      ],
      [
        "E",
        "nd"
      ],
      [
        "J",
        "ust"
      ],
      [
        "O",
        "h"
      ],
      [
        "O",
        "li"
      ],
      [
        "Q",
        "u"
      ],
      [
        "a",
        "il"
      ],
      [
        "b",
        "right"
      ],
      [
        "c",
        "ed"
      ],
      [
        "c",
        "lear"
      ],
      [
        "c",
        "raw"
      ],
      [
        "d",
        "in"
      ],
      [
        "d",
        "el"
      ],
      [
        "d",
        "uck"
      ],
      [
        "f",
        "ake"
      ],
      [
        "g",
        "n"
      ],
      [
        "g",
        "un"
      ],
      [
        "g",
        "ran"
      ],
      [
        "g",
        "ust"
      ],
      [
        "g",
        "race"
      ],
      [
        "g",
        "ara"
      ],
      [
        "h",
        "id"
      ],
      [
        "h",
        "or"
      ],
      [
        "h",
        "ig"
      ],
      [
        "h",
        "ot"
      ],
      [
        "h",
        "um"
      ],
      [
        "h",
        "ill"
      ],
      [
        "h",
        "igh"
      ],
      [
        "i",
        "o"
      ],
      [
        "i",
        "er"
      ],
      [
        "i",
        "on"
      ],
      [
        "k",
        "is"
      ],
      [
        "k",
        "en"
      ],
      [
        "l",
        "and"
      ],
      [
        "l",
        "in"
      ],
      [
        "l",
        "un"
      ],
      [
        "l",
        "ight"
      ],
      [
        "l",
        "ate"
      ],
      [
        "m",
        "ou"
      ],
      [
        "m",
        "ar"
      ],
      [
        "o",
        "ke"
      ],
      [
        "p",
        "ar"
      ],
      [
        "r",
        "ad"
      ],
      [
        "s",
        "ing"
      ],
      [
        "s",
        "il"
      ],
      [
        "s",
        "ig"
      ],
      [
        "s",
        "up"
      ],
      [
        "t",
        "re"
      ],
      [
        "t",
        "all"
      ],
      [
        "t",
        "ch"
      ],
      [
        "t",
        "ired"
      ],
      [
        "u",
        "e"
      ],
      [
        "u",
        "ally"
      ],
      [
        "w",
        "i"
      ],
      [
        "w",
        "om"
      ],
      [
        "w",
        "ore"
      ],
      [
        "y",
        "ears"
      ],
      [
        "z",
        "i"
      ],
      [
        "€",
        "."
      ],
      [
        "to",
        "p"
      ],
      [
        "to",
        "day"
      ],
      [
        "to",
        "ugh"
      ],
      [
        "to",
        "ward"
      ],
      [
        "wa",
        "g"
      ],
      [
        "in",
        "ing"
      ],
      [
        "re",
        "st"
      ],
      [
        "re",
        "ce"
      ],
      [
        "re",
        "co"
      ],
      [
        "re",
        "lie"
      ],
      [
        "re",
        "peat"
      ],
      [
        "re",
        "tch"
      ],
      [
        "im",
        "b"
      ],
      [
        "le",
        "s"
      ],
      [
        "le",
        "nd"
      ],
      [
        "le",
        "br"
      ],
      [
        "le",
        "ft"
      ],
      [
        "ay",
        "be"
      ],
      [
        "sa",
        "t"
      ],
      [
        "sa",
        "iled"
      ],
      [
        "sa",
        "me"
      ],
      [
        "st",
        "ay"
      ],
      [
        "st",
        "retch"
      ],
      [
        "an",
        "ce"
      ],
      [
        "en",
        "ough"
      ],
      [
        "en",
        "joy"
      ],
      [
        "or",
        "s"
      ],
      [
        "ver",
        "ed"
      ],
      [
        "ce",
        "lebr"
      ],
      [
        "at",
        "ed"
      ],
      [
        "pl",
        "ate"
      ],
      [
        "He",
        "llo"
      ],
      [
        "se",
        "a"
      ],
      [
        "se",
        "co"
      ],
      [
        "al",
        "one"
      ],
      [
        "she",
        "l"
      ],
      [
        "with",
        "out"
      ],
      [
        "bo",
        "dy"
      ],
      [
        "ad",
        "m"
      ],
      [
        "ad",
        "ow"
      ],
      [
        "ent",
        "ually"
      ],
      [
        "sh",
        "ing"
      ],
      [
        "time",
        "s"
      ],
      [
        "for",
        "th"
      ],
      [
        "ch",
        "ore"
      ],
      [
        "my",
        "ster"
      ],
      [
        "sp",
        "oon"
      ],
      [
        "ro",
        "ll"
      ],
      [
        "ro",
        "ad"
      ],
      [
        "ca",
        "ke"
      ],
      [
        "ca",
        "ge"
      ],
      [
        "ca",
        "pe"
      ],
      [
        "some",
        "times"
      ],
      [
        "ic",
        "y"
      ],
      [
        "loo",
        "king"
      ],
      [
        "ex",
        "t"
      ],
      [
        "me",
        "t"
      ],
      [
        "me",
        "ss"
      ],
      [
        "me",
        "et"
      ],
      [
        "me",
        "adow"
      ],
      [
        "co",
        "vered"
      ],
      [
        "ie",
        "t"
      ],
      [
        "mu",
        "d"
      ],
      [
        "do",
        "or"
      ],
      [
        "do",
        "es"
      ],
      [
        "back",
        "yard"
      ],
      [
        "wor",
        "ld"
      ],
      [
        "wor",
        "ried"
      ],
      [
        "So",
        "on"
      ],
      [
        "el",
        "se"
      ],
      [
        "get",
        "ting"
      ],
      [
        "bird",
        "cage"
      ],
      [
        "no",
        "ise"
      ],
      [
        "ear",
        "ed"
      ],
      [
        "every",
        "where"
      ],
      [
        "qu",
        "iet"
      ],
      [
        "pu",
        "dd"
      ],
      [
        "pu",
        "shed"
      ],
      [
        "pu",
        "shing"
      ],
      [
        "wal",
        "k"
      ],
      [
        "see",
        "med"
      ],
      [
        "bu",
        "y"
      ],
      [
        "any",
        "thing"
      ],
      [
        "show",
        "ing"
      ],
      [
        "gre",
        "at"
      ],
      [
        "In",
        "side"
      ],
      [
        "ble",
        "m"
      ],
      [
        "fo",
        "x"
      ],
      [
        "try",
        "ing"
      ],
      [
        "wis",
        "e"
      ],
      [
        "wis",
        "hed"
      ],
      [
        "cher",
        "ries"
      ],
      [
        "pa",
        "th"
      ],
      [
        "tal",
        "k"
      ],
      [
        "look",
        "s"
      ],
      [
        "tr",
        "ou"
      ],
      [
        "tr",
        "uck"
      ],
      [
        "tr",
        "ue"
      ],
      [
        "cl",
        "imb"
      ],
      [
        "dis",
        "gust"
      ],
      [
        "wat",
        "ch"
      ],
      [
        "shar",
        "ing"
      ],
      [
        "bar",
        "rass"
      ],
      [
        "bro",
        "ke"
      ],
      [
        "em",
        "barrass"
      ],
      [
        "fin",
        "e"
      ],
      [
        "jo",
        "b"
      ],
      [
        "anc",
        "ient"
      ],
      [
        "Lo",
        "ok"
      ],
      [
        "slow",
        "ly"
      ],
      [
        "wind",
        "ow"
      ],
      [
        "av",
        "ail"
      ],
      [
        "less",
        "on"
      ],
      [
        "plan",
        "ts"
      ],
      [
        "adv",
        "ent"
      ],
      [
        "adv",
        "ice"
      ],
      [
        "stand",
        "ing"
      ],
      [
        "sear",
        "ch"
      ],
      [
        "laugh",
        "ing"
      ],
      [
        "coun",
        "try"
      ],
      [
        "neighb",
        "ors"
      ],
      [
        "app",
        "eared"
      ],
      [
        "pro",
        "blem"
      ],
      [
        "sw",
        "im"
      ],
      [
        "pict",
        "ures"
      ],
      [
        "Ca",
        "w"
      ],
      [
        "Oli",
        "ver"
      ],
      [
        "Qu",
        "ick"
      ],
      [
        "din",
        "ner"
      ],
      [
        "gn",
        "iz"
      ],
      [
        "grace",
        "ful"
      ],
      [
        "gara",
        "ge"
      ],
      [
        "hig",
        "her"
      ],
      [
        "lun",
        "ch"
      ],
      [
        "rad",
        "io"
      ],
      [
        "sil",
        "ver"
      ],
      [
        "sig",
        "n"
      ],
      [
        "sup",
        "er"
      ],
      [
        "wom",
        "an"
      ],
      [
        "toward",
        "s"
      ],
      [
        "rece",
        "ive"
      ],
      [
        "reco",
        "gniz"
      ],
      [
        "seco",
        "nd"
      ],
      [
        "myster",
        "ious"
      ],
      [
        "disgust",
        "ing"
      ],
      [
        "embarrass",
        "ed"
      ],
      [
        "avail",
        "able"
      ],
      [
        "A",
        "re"
      ],
      [
        "L",
        "u"
      ],
      [
        "L",
        "ater"
      ],
      [
        "M",
        "e"
      ],
      [
        "M",
        "y"
      ],
      [
        "M",
        "um"
      ],
      [
        "M",
        "aybe"
      ],
      [
        "N",
        "ext"
      ],
      [
        "O",
        "f"
      ],
      [
        "O",
        "w"
      ],
      [
        "P",
        "le"
      ],
      [
        "W",
        "ow"
      ],
      [
        "W",
        "here"
      ],
      [
        "W",
        "ell"
      ],
      [
        "a",
        "king"
      ],
      [
        "a",
        "head"
      ],
      [
        "b",
        "ag"
      ],
      [
        "b",
        "ab"
      ],
      [
        "b",
        "ran"
      ],
      [
        "b",
        "uc"
      ],
      [
        "b",
        "led"
      ],
      [
        "c",
        "ing"
      ],
      [
        "c",
        "ked"
      ],
      [
        "c",
        "ry"
      ],
      [
        "c",
        "our"
      ],
      [
        "c",
        "ious"
      ],
      [
        "c",
        "row"
      ],
      [
        "d",
        "ran"
      ],
      [
        "d",
        "ea"
      ],
      [
        "d",
        "izz"
      ],
      [
        "d",
        "river"
      ],
      [
        "d",
        "ance"
      ],
      [
        "e",
        "as"
      ],
      [
        "e",
        "ac"
      ],
      [
        "e",
        "rest"
      ],
      [
        "f",
        "la"
      ],
      [
        "f",
        "ic"
      ],
      [
        "g",
        "u"
      ],
      [
        "g",
        "y"
      ],
      [
        "g",
        "ig"
      ],
      [
        "g",
        "ry"
      ],
      [
        "g",
        "led"
      ],
      [
        "h",
        "i"
      ],
      [
        "h",
        "un"
      ],
      [
        "h",
        "idd"
      ],
      [
        "i",
        "ble"
      ],
      [
        "i",
        "que"
      ],
      [
        "j",
        "ug"
      ],
      [
        "k",
        "s"
      ],
      [
        "l",
        "p"
      ],
      [
        "l",
        "our"
      ],
      [
        "l",
        "ater"
      ],
      [
        "m",
        "o"
      ],
      [
        "m",
        "s"
      ],
      [
        "m",
        "ing"
      ],
      [
        "m",
        "ug"
      ],
      [
        "m",
        "ight"
      ],
      [
        "m",
        "aking"
      ],
      [
        "o",
        "se"
      ],
      [
        "o",
        "bed"
      ],
      [
        "p",
        "ed"
      ],
      [
        "p",
        "at"
      ],
      [
        "p",
        "ur"
      ],
      [
        "p",
        "ile"
      ],
      [
        "r",
        "m"
      ],
      [
        "r",
        "up"
      ],
      [
        "r",
        "ot"
      ],
      [
        "s",
        "wa"
      ],
      [
        "s",
        "and"
      ],
      [
        "s",
        "le"
      ],
      [
        "s",
        "ay"
      ],
      [
        "s",
        "itt"
      ],
      [
        "s",
        "too"
      ],
      [
        "s",
        "ick"
      ],
      [
        "s",
        "cre"
      ],
      [
        "s",
        "nee"
      ],
      [
        "t",
        "ick"
      ],
      [
        "t",
        "each"
      ],
      [
        "t",
        "ell"
      ],
      [
        "t",
        "est"
      ],
      [
        "t",
        "eac"
      ],
      [
        "u",
        "ce"
      ],
      [
        "u",
        "lt"
      ],
      [
        "v",
        "en"
      ],
      [
        "v",
        "ide"
      ],
      [
        "v",
        "ous"
      ],
      [
        "w",
        "ing"
      ],
      [
        "w",
        "on"
      ],
      [
        "x",
        "ible"
      ],
      [
        "œ",
        "Yes"
      ],
      [
        "œ",
        "Can"
      ],
      [
        "œ",
        "Thank"
      ],
      [
        "œ",
        "Letâ"
      ],
      [
        "œ",
        "Oh"
      ],
      [
        "œ",
        "hi"
      ],
      [
        "he",
        "ld"
      ],
      [
        "to",
        "uc"
      ],
      [
        "wa",
        "ved"
      ],
      [
        "in",
        "v"
      ],
      [
        "in",
        "ed"
      ],
      [
        "in",
        "al"
      ],
      [
        "in",
        "ter"
      ],
      [
        "in",
        "ste"
      ],
      [
        "re",
        "fle"
      ],
      [
        "er",
        "ed"
      ],
      [
        "er",
        "ous"
      ],
      [
        "was",
        "n"
      ],
      [
        "im",
        "ag"
      ],
      [
        "The",
        "ir"
      ],
      [
        "is",
        "n"
      ],
      [
        "le",
        "g"
      ],
      [
        "on",
        "ce"
      ],
      [
        "sa",
        "il"
      ],
      [
        "st",
        "ra"
      ],
      [
        "st",
        "ree"
      ],
      [
        "st",
        "ring"
      ],
      [
        "en",
        "ing"
      ],
      [
        "ne",
        "s"
      ],
      [
        "ne",
        "ss"
      ],
      [
        "or",
        "ig"
      ],
      [
        "or",
        "able"
      ],
      [
        "ce",
        "ss"
      ],
      [
        "th",
        "irst"
      ],
      [
        "ow",
        "ed"
      ],
      [
        "at",
        "ive"
      ],
      [
        "He",
        "re"
      ],
      [
        "He",
        "lp"
      ],
      [
        "se",
        "t"
      ],
      [
        "se",
        "w"
      ],
      [
        "se",
        "cre"
      ],
      [
        "se",
        "par"
      ],
      [
        "she",
        "s"
      ],
      [
        "she",
        "ll"
      ],
      [
        "we",
        "en"
      ],
      [
        "we",
        "ep"
      ],
      [
        "we",
        "alth"
      ],
      [
        "un",
        "ique"
      ],
      [
        "ad",
        "orable"
      ],
      [
        "ra",
        "ked"
      ],
      [
        "ra",
        "ced"
      ],
      [
        "sh",
        "ining"
      ],
      [
        "fri",
        "ght"
      ],
      [
        "sm",
        "oke"
      ],
      [
        "big",
        "ger"
      ],
      [
        "fe",
        "ar"
      ],
      [
        "for",
        "got"
      ],
      [
        "for",
        "table"
      ],
      [
        "wan",
        "ts"
      ],
      [
        "sp",
        "ed"
      ],
      [
        "sp",
        "end"
      ],
      [
        "sp",
        "ot"
      ],
      [
        "sp",
        "read"
      ],
      [
        "go",
        "al"
      ],
      [
        "ag",
        "er"
      ],
      [
        "ag",
        "ree"
      ],
      [
        "fu",
        "sed"
      ],
      [
        "!\"",
        ","
      ],
      [
        "!\"",
        "."
      ],
      [
        "co",
        "at"
      ],
      [
        "co",
        "ok"
      ],
      [
        "co",
        "lour"
      ],
      [
        "ie",
        "s"
      ],
      [
        "fa",
        "uce"
      ],
      [
        "do",
        "ing"
      ],
      [
        "es",
        "s"
      ],
      [
        "es",
        "cape"
      ],
      [
        "ur",
        "ed"
      ],
      [
        "Su",
        "re"
      ],
      [
        "can",
        "not"
      ],
      [
        "cat",
        "e"
      ],
      [
        "sto",
        "ries"
      ],
      [
        "sto",
        "rm"
      ],
      [
        "sto",
        "nes"
      ],
      [
        "war",
        "ned"
      ],
      [
        "war",
        "ning"
      ],
      [
        "har",
        "sh"
      ],
      [
        "har",
        "der"
      ],
      [
        "own",
        "er"
      ],
      [
        "no",
        "thing"
      ],
      [
        "no",
        "sy"
      ],
      [
        "no",
        "body"
      ],
      [
        "bit",
        "e"
      ],
      [
        "excited",
        "ly"
      ],
      [
        "see",
        "k"
      ],
      [
        "And",
        "y"
      ],
      [
        "br",
        "ing"
      ],
      [
        "our",
        "ite"
      ],
      [
        "lear",
        "nt"
      ],
      [
        "care",
        "less"
      ],
      [
        "make",
        "s"
      ],
      [
        "bu",
        "shes"
      ],
      [
        "clo",
        "sed"
      ],
      [
        "pe",
        "e"
      ],
      [
        "pe",
        "ace"
      ],
      [
        "take",
        "s"
      ],
      [
        "couldn",
        "â"
      ],
      [
        "cre",
        "ative"
      ],
      [
        "ble",
        "w"
      ],
      [
        "fo",
        "ot"
      ],
      [
        "ste",
        "al"
      ],
      [
        "sel",
        "fish"
      ],
      [
        "game",
        "s"
      ],
      [
        "ok",
        "ay"
      ],
      [
        "tal",
        "king"
      ],
      [
        "tr",
        "ust"
      ],
      [
        "wait",
        "ing"
      ],
      [
        "bet",
        "ween"
      ],
      [
        "ct",
        "ive"
      ],
      [
        "dis",
        "tur"
      ],
      [
        "dis",
        "agreed"
      ],
      [
        "dis",
        "appeared"
      ],
      [
        "don",
        "â"
      ],
      [
        "fle",
        "xible"
      ],
      [
        "wat",
        "ching"
      ],
      [
        "Fin",
        "ally"
      ],
      [
        "com",
        "fortable"
      ],
      [
        "ev",
        "entually"
      ],
      [
        "far",
        "m"
      ],
      [
        "hand",
        "ed"
      ],
      [
        "nt",
        "ain"
      ],
      [
        "per",
        "m"
      ],
      [
        "shar",
        "p"
      ],
      [
        "stran",
        "ger"
      ],
      [
        "amaz",
        "ed"
      ],
      [
        "wonder",
        "ed"
      ],
      [
        "surpr",
        "ised"
      ],
      [
        "bar",
        "ked"
      ],
      [
        "bro",
        "ken"
      ],
      [
        "dif",
        "fic"
      ],
      [
        "jo",
        "in"
      ],
      [
        "su",
        "ch"
      ],
      [
        "under",
        "stand"
      ],
      [
        "anc",
        "ed"
      ],
      [
        "realiz",
        "e"
      ],
      [
        "sound",
        "s"
      ],
      [
        "dream",
        "s"
      ],
      [
        "Jimmy",
        "â"
      ],
      [
        "To",
        "day"
      ],
      [
        "ga",
        "sped"
      ],
      [
        "mor",
        "ning"
      ],
      [
        "ang",
        "erous"
      ],
      [
        "fav",
        "ourite"
      ],
      [
        "int",
        "erest"
      ],
      [
        "love",
        "ly"
      ],
      [
        "fall",
        "ing"
      ],
      [
        "free",
        "ze"
      ],
      [
        "fix",
        "ed"
      ],
      [
        "hur",
        "t"
      ],
      [
        "hur",
        "ts"
      ],
      [
        "mat",
        "ching"
      ],
      [
        "ner",
        "vous"
      ],
      [
        "wel",
        "come"
      ],
      [
        "live",
        "ly"
      ],
      [
        "explain",
        "ing"
      ],
      [
        "coun",
        "ted"
      ],
      [
        "Go",
        "od"
      ],
      [
        "gi",
        "ving"
      ],
      [
        "gi",
        "ven"
      ],
      [
        "gl",
        "ad"
      ],
      [
        "mix",
        "ed"
      ],
      [
        "twis",
        "ted"
      ],
      [
        "twis",
        "ty"
      ],
      [
        "heav",
        "y"
      ],
      [
        "heav",
        "ier"
      ],
      [
        "bot",
        "t"
      ],
      [
        "rain",
        "bow"
      ],
      [
        "spray",
        "ed"
      ],
      [
        "spider",
        "s"
      ],
      [
        "color",
        "ful"
      ],
      [
        "poin",
        "ted"
      ],
      [
        "poin",
        "ting"
      ],
      [
        "bubble",
        "gum"
      ],
      [
        "turn",
        "s"
      ],
      [
        "gather",
        "ed"
      ],
      [
        "deli",
        "cious"
      ],
      [
        "deli",
        "cate"
      ],
      [
        "strawber",
        "ry"
      ],
      [
        "strawber",
        "ries"
      ],
      [
        "clear",
        "ing"
      ],
      [
        "craw",
        "l"
      ],
      [
        "del",
        "ight"
      ],
      [
        "gran",
        "ted"
      ],
      [
        "hum",
        "ble"
      ],
      [
        "kis",
        "sed"
      ],
      [
        "mou",
        "ntain"
      ],
      [
        "mar",
        "ket"
      ],
      [
        "wi",
        "pe"
      ],
      [
        "zi",
        "pping"
      ],
      [
        "wag",
        "ged"
      ],
      [
        "relie",
        "ved"
      ],
      [
        "celebr",
        "ate"
      ],
      [
        "shel",
        "ves"
      ],
      [
        "chore",
        "s"
      ],
      [
        "pudd",
        "le"
      ],
      [
        "trou",
        "bled"
      ],
      [
        "advent",
        "ures"
      ],
      [
        "swim",
        "ming"
      ],
      [
        "recogniz",
        "ed"
      ],
      [
        "Lu",
        "lu"
      ],
      [
        "Me",
        "ow"
      ],
      [
        "Ow",
        "l"
      ],
      [
        "Ple",
        "ase"
      ],
      [
        "bab",
        "y"
      ],
      [
        "buc",
        "ket"
      ],
      [
        "cour",
        "se"
      ],
      [
        "dran",
        "k"
      ],
      [
        "dea",
        "f"
      ],
      [
        "dizz",
        "y"
      ],
      [
        "gig",
        "gled"
      ],
      [
        "hun",
        "gry"
      ],
      [
        "hidd",
        "en"
      ],
      [
        "obed",
        "ient"
      ],
      [
        "pur",
        "ple"
      ],
      [
        "swa",
        "m"
      ],
      [
        "sle",
        "ep"
      ],
      [
        "sitt",
        "ing"
      ],
      [
        "stoo",
        "d"
      ],
      [
        "snee",
        "ze"
      ],
      [
        "teac",
        "her"
      ],
      [
        "vide",
        "o"
      ],
      [
        "wing",
        "s"
      ],
      [
        "touc",
        "hed"
      ],
      [
        "inter",
        "rup"
      ],
      [
        "inste",
        "ad"
      ],
      [
        "refle",
        "ctive"
      ],
      [
        "stra",
        "ight"
      ],
      [
        "stree",
        "t"
      ],
      [
        "orig",
        "inal"
      ],
      [
        "thirst",
        "y"
      ],
      [
        "secre",
        "t"
      ],
      [
        "cook",
        "ies"
      ],
      [
        "fauce",
        "t"
      ],
      [
        "distur",
        "bed"
      ],
      [
        "stranger",
        "s"
      ],
      [
        "diffic",
        "ult"
      ],
      [
        "interest",
        "ing"
      ],
      [
        "'",
        "."
      ],
      [
        "'",
        ".\""
      ],
      [
        "'",
        "?\""
      ],
      [
        "B",
        "y"
      ],
      [
        "B",
        "ug"
      ],
      [
        "B",
        "et"
      ],
      [
        "C",
        "re"
      ],
      [
        "C",
        "ome"
      ],
      [
        "C",
        "row"
      ],
      [
        "C",
        "urious"
      ],
      [
        "D",
        "id"
      ],
      [
        "D",
        "angerous"
      ],
      [
        "E",
        "a"
      ],
      [
        "E",
        "v"
      ],
      [
        "F",
        "o"
      ],
      [
        "F",
        "un"
      ],
      [
        "F",
        "irst"
      ],
      [
        "I",
        "ce"
      ],
      [
        "L",
        "ist"
      ],
      [
        "N",
        "ice"
      ],
      [
        "O",
        "uch"
      ],
      [
        "P",
        "o"
      ],
      [
        "R",
        "e"
      ],
      [
        "R",
        "ace"
      ],
      [
        "T",
        "ry"
      ],
      [
        "T",
        "ake"
      ],
      [
        "T",
        "ears"
      ],
      [
        "W",
        "or"
      ],
      [
        "W",
        "at"
      ],
      [
        "W",
        "ith"
      ],
      [
        "W",
        "ill"
      ],
      [
        "W",
        "ho"
      ],
      [
        "Y",
        "uck"
      ],
      [
        "a",
        "sh"
      ],
      [
        "a",
        "ff"
      ],
      [
        "b",
        "j"
      ],
      [
        "b",
        "l"
      ],
      [
        "b",
        "lo"
      ],
      [
        "b",
        "al"
      ],
      [
        "b",
        "ent"
      ],
      [
        "b",
        "ree"
      ],
      [
        "b",
        "are"
      ],
      [
        "b",
        "bed"
      ],
      [
        "b",
        "lin"
      ],
      [
        "b",
        "aff"
      ],
      [
        "c",
        "as"
      ],
      [
        "c",
        "hen"
      ],
      [
        "c",
        "ur"
      ],
      [
        "c",
        "ert"
      ],
      [
        "c",
        "ried"
      ],
      [
        "d",
        "ri"
      ],
      [
        "d",
        "ot"
      ],
      [
        "d",
        "ent"
      ],
      [
        "d",
        "ug"
      ],
      [
        "d",
        "ear"
      ],
      [
        "d",
        "ependable"
      ],
      [
        "d",
        "irt"
      ],
      [
        "d",
        "anced"
      ],
      [
        "d",
        "angerous"
      ],
      [
        "e",
        "the"
      ],
      [
        "e",
        "le"
      ],
      [
        "e",
        "speci"
      ],
      [
        "e",
        "mer"
      ],
      [
        "e",
        "wel"
      ],
      [
        "e",
        "ager"
      ],
      [
        "f",
        "i"
      ],
      [
        "f",
        "re"
      ],
      [
        "f",
        "er"
      ],
      [
        "f",
        "an"
      ],
      [
        "f",
        "ir"
      ],
      [
        "f",
        "ig"
      ],
      [
        "f",
        "ie"
      ],
      [
        "f",
        "luffy"
      ],
      [
        "f",
        "ant"
      ],
      [
        "g",
        "or"
      ],
      [
        "g",
        "ent"
      ],
      [
        "g",
        "ree"
      ],
      [
        "g",
        "if"
      ],
      [
        "g",
        "list"
      ],
      [
        "g",
        "lue"
      ],
      [
        "h",
        "u"
      ],
      [
        "i",
        "to"
      ],
      [
        "i",
        "re"
      ],
      [
        "i",
        "en"
      ],
      [
        "i",
        "fe"
      ],
      [
        "i",
        "po"
      ],
      [
        "i",
        "our"
      ],
      [
        "i",
        "enc"
      ],
      [
        "j",
        "am"
      ],
      [
        "j",
        "our"
      ],
      [
        "j",
        "ured"
      ],
      [
        "j",
        "ewel"
      ],
      [
        "k",
        "n"
      ],
      [
        "k",
        "it"
      ],
      [
        "k",
        "id"
      ],
      [
        "k",
        "no"
      ],
      [
        "l",
        "f"
      ],
      [
        "l",
        "it"
      ],
      [
        "l",
        "ar"
      ],
      [
        "l",
        "ay"
      ],
      [
        "m",
        "in"
      ],
      [
        "m",
        "ay"
      ],
      [
        "m",
        "ir"
      ],
      [
        "m",
        "ent"
      ],
      [
        "m",
        "ly"
      ],
      [
        "m",
        "ie"
      ],
      [
        "m",
        "ble"
      ],
      [
        "m",
        "aybe"
      ],
      [
        "n",
        "ce"
      ],
      [
        "n",
        "ic"
      ],
      [
        "n",
        "ame"
      ],
      [
        "o",
        "bj"
      ],
      [
        "p",
        "in"
      ],
      [
        "p",
        "ri"
      ],
      [
        "p",
        "ted"
      ],
      [
        "p",
        "ill"
      ],
      [
        "p",
        "ec"
      ],
      [
        "p",
        "ack"
      ],
      [
        "p",
        "et"
      ],
      [
        "p",
        "han"
      ],
      [
        "r",
        "id"
      ],
      [
        "r",
        "or"
      ],
      [
        "r",
        "ther"
      ],
      [
        "r",
        "ound"
      ],
      [
        "r",
        "ug"
      ],
      [
        "s",
        "in"
      ],
      [
        "s",
        "pl"
      ],
      [
        "s",
        "ily"
      ],
      [
        "s",
        "um"
      ],
      [
        "s",
        "room"
      ],
      [
        "s",
        "qu"
      ],
      [
        "s",
        "uc"
      ],
      [
        "s",
        "have"
      ],
      [
        "s",
        "iz"
      ],
      [
        "s",
        "ip"
      ],
      [
        "s",
        "cur"
      ],
      [
        "t",
        "w"
      ],
      [
        "t",
        "id"
      ],
      [
        "t",
        "en"
      ],
      [
        "t",
        "ra"
      ],
      [
        "t",
        "as"
      ],
      [
        "t",
        "ight"
      ],
      [
        "t",
        "em"
      ],
      [
        "t",
        "ance"
      ],
      [
        "u",
        "s"
      ],
      [
        "u",
        "able"
      ],
      [
        "u",
        "su"
      ],
      [
        "u",
        "de"
      ],
      [
        "u",
        "nex"
      ],
      [
        "u",
        "sing"
      ],
      [
        "v",
        "in"
      ],
      [
        "v",
        "al"
      ],
      [
        "v",
        "end"
      ],
      [
        "v",
        "ab"
      ],
      [
        "v",
        "ie"
      ],
      [
        "v",
        "ious"
      ],
      [
        "v",
        "ours"
      ],
      [
        "v",
        "iour"
      ],
      [
        "w",
        "s"
      ],
      [
        "w",
        "ra"
      ],
      [
        "w",
        "ide"
      ],
      [
        "w",
        "ish"
      ],
      [
        "w",
        "ip"
      ],
      [
        "x",
        "ious"
      ],
      [
        "y",
        "s"
      ],
      [
        "y",
        "ly"
      ],
      [
        "y",
        "es"
      ],
      [
        "y",
        "et"
      ],
      [
        "y",
        "ear"
      ],
      [
        "y",
        "ell"
      ],
      [
        "œ",
        "he"
      ],
      [
        "œ",
        "Mom"
      ],
      [
        "œ",
        "That"
      ],
      [
        "œ",
        "Now"
      ],
      [
        "œ",
        "No"
      ],
      [
        "œ",
        "Do"
      ],
      [
        "œ",
        "Why"
      ],
      [
        "œ",
        "Be"
      ],
      [
        "œ",
        "Quick"
      ],
      [
        "œ",
        "My"
      ],
      [
        "œ",
        "Of"
      ],
      [
        "œ",
        "Wow"
      ],
      [
        "œ",
        "Bug"
      ],
      [
        "the",
        "s"
      ],
      [
        "the",
        "se"
      ],
      [
        "to",
        "m"
      ],
      [
        "to",
        "re"
      ],
      [
        "to",
        "es"
      ],
      [
        "to",
        "mor"
      ],
      [
        "wa",
        "ves"
      ],
      [
        "in",
        "st"
      ],
      [
        "in",
        "sis"
      ],
      [
        "in",
        "cess"
      ],
      [
        "in",
        "fant"
      ],
      [
        "in",
        "jured"
      ],
      [
        "it",
        "ing"
      ],
      [
        "it",
        "en"
      ],
      [
        "it",
        "ude"
      ],
      [
        "re",
        "l"
      ],
      [
        "re",
        "w"
      ],
      [
        "re",
        "li"
      ],
      [
        "re",
        "war"
      ],
      [
        "re",
        "pa"
      ],
      [
        "re",
        "tur"
      ],
      [
        "re",
        "ally"
      ],
      [
        "re",
        "mind"
      ],
      [
        "re",
        "ward"
      ],
      [
        "re",
        "turn"
      ],
      [
        "re",
        "fused"
      ],
      [
        "re",
        "counted"
      ],
      [
        "ha",
        "med"
      ],
      [
        "ha",
        "lf"
      ],
      [
        "ha",
        "viour"
      ],
      [
        "er",
        "ful"
      ],
      [
        "er",
        "gy"
      ],
      [
        "er",
        "ienc"
      ],
      [
        "er",
        "pill"
      ],
      [
        "was",
        "h"
      ],
      [
        "ar",
        "t"
      ],
      [
        "ar",
        "ing"
      ],
      [
        "ar",
        "ms"
      ],
      [
        "im",
        "ed"
      ],
      [
        "im",
        "med"
      ],
      [
        "is",
        "ing"
      ],
      [
        "ll",
        "ipo"
      ],
      [
        "on",
        "t"
      ],
      [
        "on",
        "ly"
      ],
      [
        "on",
        "ward"
      ],
      [
        "sa",
        "ve"
      ],
      [
        "sa",
        "ving"
      ],
      [
        "sa",
        "fer"
      ],
      [
        "st",
        "ing"
      ],
      [
        "st",
        "ep"
      ],
      [
        "st",
        "rug"
      ],
      [
        "an",
        "ge"
      ],
      [
        "an",
        "other"
      ],
      [
        "an",
        "sw"
      ],
      [
        "an",
        "xious"
      ],
      [
        "lo",
        "llipo"
      ],
      [
        "en",
        "ga"
      ],
      [
        "en",
        "vious"
      ],
      [
        "en",
        "ergy"
      ],
      [
        "ne",
        "y"
      ],
      [
        "or",
        "ange"
      ],
      [
        "her",
        "o"
      ],
      [
        "il",
        "ty"
      ],
      [
        "be",
        "ep"
      ],
      [
        "be",
        "low"
      ],
      [
        "be",
        "side"
      ],
      [
        "be",
        "long"
      ],
      [
        "be",
        "ak"
      ],
      [
        "be",
        "having"
      ],
      [
        "be",
        "llow"
      ],
      [
        "be",
        "haviour"
      ],
      [
        "th",
        "day"
      ],
      [
        "th",
        "ough"
      ],
      [
        "th",
        "ose"
      ],
      [
        "th",
        "rew"
      ],
      [
        "ri",
        "ble"
      ],
      [
        "at",
        "ion"
      ],
      [
        "at",
        "tra"
      ],
      [
        "at",
        "itude"
      ],
      [
        "ir",
        "y"
      ],
      [
        "ir",
        "ing"
      ],
      [
        "ir",
        "rel"
      ],
      [
        "se",
        "s"
      ],
      [
        "se",
        "wed"
      ],
      [
        "al",
        "right"
      ],
      [
        "al",
        "ready"
      ],
      [
        "ig",
        "hed"
      ],
      [
        "she",
        "â"
      ],
      [
        "so",
        "il"
      ],
      [
        "so",
        "ak"
      ],
      [
        "so",
        "aring"
      ],
      [
        "ut",
        "ious"
      ],
      [
        "all",
        "owed"
      ],
      [
        "we",
        "â"
      ],
      [
        "we",
        "ll"
      ],
      [
        "we",
        "igh"
      ],
      [
        "we",
        "ak"
      ],
      [
        "we",
        "ighed"
      ],
      [
        "un",
        "belie"
      ],
      [
        "un",
        "comfortable"
      ],
      [
        "un",
        "usu"
      ],
      [
        "itt",
        "ed"
      ],
      [
        "play",
        "time"
      ],
      [
        "had",
        "n"
      ],
      [
        "li",
        "fe"
      ],
      [
        "ad",
        "just"
      ],
      [
        "ra",
        "ther"
      ],
      [
        "ra",
        "king"
      ],
      [
        "sh",
        "one"
      ],
      [
        "sh",
        "ip"
      ],
      [
        "sh",
        "ort"
      ],
      [
        "sh",
        "ion"
      ],
      [
        "sh",
        "yly"
      ],
      [
        "happ",
        "en"
      ],
      [
        "happ",
        "ened"
      ],
      [
        "happ",
        "ening"
      ],
      [
        "ge",
        "ous"
      ],
      [
        "ge",
        "ms"
      ],
      [
        "friend",
        "ship"
      ],
      [
        "for",
        "get"
      ],
      [
        "ch",
        "illy"
      ],
      [
        "ch",
        "uck"
      ],
      [
        "out",
        "fit"
      ],
      [
        "It",
        "â"
      ],
      [
        "sp",
        "un"
      ],
      [
        "sp",
        "ark"
      ],
      [
        "sp",
        "ea"
      ],
      [
        "sp",
        "ring"
      ],
      [
        "sp",
        "oke"
      ],
      [
        "ro",
        "ck"
      ],
      [
        "ro",
        "amed"
      ],
      [
        "ro",
        "lled"
      ],
      [
        "ro",
        "bot"
      ],
      [
        "ro",
        "pri"
      ],
      [
        "as",
        "k"
      ],
      [
        "as",
        "ed"
      ],
      [
        "as",
        "ured"
      ],
      [
        "as",
        "sroom"
      ],
      [
        "as",
        "hamed"
      ],
      [
        "as",
        "ses"
      ],
      [
        "ag",
        "ed"
      ],
      [
        "fu",
        "rther"
      ],
      [
        "la",
        "st"
      ],
      [
        "la",
        "imed"
      ],
      [
        "ca",
        "used"
      ],
      [
        "ca",
        "utious"
      ],
      [
        "some",
        "one"
      ],
      [
        "ec",
        "ts"
      ],
      [
        "irl",
        "ed"
      ],
      [
        "girl",
        "â"
      ],
      [
        "ho",
        "se"
      ],
      [
        "ho",
        "od"
      ],
      [
        "ho",
        "ped"
      ],
      [
        "ain",
        "ly"
      ],
      [
        "car",
        "s"
      ],
      [
        "car",
        "ry"
      ],
      [
        "car",
        "pet"
      ],
      [
        "mom",
        "s"
      ],
      [
        "new",
        "s"
      ],
      [
        "me",
        "lt"
      ],
      [
        "me",
        "ant"
      ],
      [
        "me",
        "owed"
      ],
      [
        "me",
        "asured"
      ],
      [
        "co",
        "very"
      ],
      [
        "fa",
        "ct"
      ],
      [
        "fa",
        "ced"
      ],
      [
        "fa",
        "cing"
      ],
      [
        "fa",
        "iry"
      ],
      [
        "fa",
        "shion"
      ],
      [
        "sad",
        "ly"
      ],
      [
        "sad",
        "ness"
      ],
      [
        "would",
        "n"
      ],
      [
        "now",
        "here"
      ],
      [
        "them",
        "sel"
      ],
      [
        "back",
        "pack"
      ],
      [
        "can",
        "â"
      ],
      [
        "fun",
        "ny"
      ],
      [
        "cat",
        "erpill"
      ],
      [
        "po",
        "pu"
      ],
      [
        "po",
        "pped"
      ],
      [
        "wor",
        "th"
      ],
      [
        "wor",
        "king"
      ],
      [
        "bir",
        "thday"
      ],
      [
        "side",
        "walk"
      ],
      [
        "ss",
        "ed"
      ],
      [
        "sto",
        "pping"
      ],
      [
        "get",
        "s"
      ],
      [
        "again",
        "st"
      ],
      [
        "star",
        "t"
      ],
      [
        "pr",
        "incess"
      ],
      [
        "sun",
        "set"
      ],
      [
        "thought",
        "ful"
      ],
      [
        "exc",
        "laimed"
      ],
      [
        "wo",
        "ke"
      ],
      [
        "every",
        "thing"
      ],
      [
        "fore",
        "ver"
      ],
      [
        "see",
        "m"
      ],
      [
        "br",
        "ought"
      ],
      [
        "our",
        "hood"
      ],
      [
        "lear",
        "ning"
      ],
      [
        "pre",
        "par"
      ],
      [
        "pre",
        "ssed"
      ],
      [
        "fast",
        "est"
      ],
      [
        "bu",
        "sin"
      ],
      [
        "dad",
        "s"
      ],
      [
        "gr",
        "ay"
      ],
      [
        "gr",
        "atitude"
      ],
      [
        "iz",
        "on"
      ],
      [
        "ta",
        "le"
      ],
      [
        "ta",
        "king"
      ],
      [
        "ta",
        "ken"
      ],
      [
        "clo",
        "th"
      ],
      [
        "clo",
        "thes"
      ],
      [
        "pe",
        "ak"
      ],
      [
        "wh",
        "iten"
      ],
      [
        "what",
        "ever"
      ],
      [
        "oud",
        "s"
      ],
      [
        "any",
        "one"
      ],
      [
        "box",
        "es"
      ],
      [
        "your",
        "s"
      ],
      [
        "cre",
        "pt"
      ],
      [
        "cre",
        "ature"
      ],
      [
        "sha",
        "pe"
      ],
      [
        "than",
        "ks"
      ],
      [
        "off",
        "er"
      ],
      [
        "cha",
        "ir"
      ],
      [
        "cha",
        "se"
      ],
      [
        "cha",
        "sed"
      ],
      [
        "cha",
        "sing"
      ],
      [
        "tri",
        "p"
      ],
      [
        "ste",
        "ady"
      ],
      [
        "Every",
        "where"
      ],
      [
        "know",
        "n"
      ],
      [
        "know",
        "ing"
      ],
      [
        "snow",
        "storm"
      ],
      [
        "right",
        "ful"
      ],
      [
        "exp",
        "erienc"
      ],
      [
        "jump",
        "ing"
      ],
      [
        "pa",
        "per"
      ],
      [
        "pa",
        "jam"
      ],
      [
        "pa",
        "ws"
      ],
      [
        "tal",
        "ked"
      ],
      [
        "pret",
        "tie"
      ],
      [
        "pain",
        "t"
      ],
      [
        "pain",
        "ted"
      ],
      [
        "tr",
        "immed"
      ],
      [
        "repl",
        "ace"
      ],
      [
        "scared",
        "y"
      ],
      [
        "cl",
        "assroom"
      ],
      [
        "cl",
        "ouds"
      ],
      [
        "ct",
        "ing"
      ],
      [
        "dis",
        "tance"
      ],
      [
        "dis",
        "covery"
      ],
      [
        "over",
        "joy"
      ],
      [
        "let",
        "â"
      ],
      [
        "bad",
        "ly"
      ],
      [
        "com",
        "ed"
      ],
      [
        "cut",
        "e"
      ],
      [
        "cut",
        "ting"
      ],
      [
        "man",
        "ager"
      ],
      [
        "man",
        "aged"
      ],
      [
        "ol",
        "ved"
      ],
      [
        "yum",
        "mie"
      ],
      [
        "should",
        "n"
      ],
      [
        "should",
        "er"
      ],
      [
        "surpr",
        "ising"
      ],
      [
        "fin",
        "ish"
      ],
      [
        "kind",
        "ness"
      ],
      [
        "su",
        "dden"
      ],
      [
        "su",
        "spend"
      ],
      [
        "under",
        "stood"
      ],
      [
        "place",
        "s"
      ],
      [
        "quick",
        "er"
      ],
      [
        "daddy",
        "â"
      ],
      [
        "realiz",
        "ation"
      ],
      [
        "pumpkin",
        "s"
      ],
      [
        "ey",
        "e"
      ],
      [
        "fly",
        "ing"
      ],
      [
        "sound",
        "ed"
      ],
      [
        "win",
        "ter"
      ],
      [
        "stu",
        "dent"
      ],
      [
        "beaut",
        "y"
      ],
      [
        "didn",
        "â"
      ],
      [
        "warm",
        "ly"
      ],
      [
        "dream",
        "ing"
      ],
      [
        "Nor",
        "th"
      ],
      [
        "che",
        "s"
      ],
      [
        "che",
        "ered"
      ],
      [
        "che",
        "erful"
      ],
      [
        "con",
        "fused"
      ],
      [
        "con",
        "vin"
      ],
      [
        "fr",
        "own"
      ],
      [
        "fr",
        "ont"
      ],
      [
        "flo",
        "or"
      ],
      [
        "ple",
        "ased"
      ],
      [
        "ang",
        "ry"
      ],
      [
        "cho",
        "ice"
      ],
      [
        "cho",
        "ose"
      ],
      [
        "speed",
        "ing"
      ],
      [
        "perfect",
        "ly"
      ],
      [
        "differe",
        "nce"
      ],
      [
        "Bo",
        "th"
      ],
      [
        "Wh",
        "ile"
      ],
      [
        "de",
        "er"
      ],
      [
        "eat",
        "ing"
      ],
      [
        "fro",
        "sting"
      ],
      [
        "list",
        "en"
      ],
      [
        "oc",
        "cas"
      ],
      [
        "prom",
        "ise"
      ],
      [
        "pour",
        "ed"
      ],
      [
        "swe",
        "ethe"
      ],
      [
        "vis",
        "ito"
      ],
      [
        "remember",
        "s"
      ],
      [
        "love",
        "s"
      ],
      [
        "book",
        "s"
      ],
      [
        "card",
        "s"
      ],
      [
        "dress",
        "ed"
      ],
      [
        "clum",
        "sily"
      ],
      [
        "relax",
        "ing"
      ],
      [
        "cle",
        "ver"
      ],
      [
        "cla",
        "p"
      ],
      [
        "fill",
        "ing"
      ],
      [
        "fix",
        "ing"
      ],
      [
        "hur",
        "ry"
      ],
      [
        "mat",
        "ter"
      ],
      [
        "mat",
        "ch"
      ],
      [
        "mat",
        "ched"
      ],
      [
        "mind",
        "ing"
      ],
      [
        "head",
        "ing"
      ],
      [
        "beg",
        "in"
      ],
      [
        "sear",
        "ched"
      ],
      [
        "sear",
        "ching"
      ],
      [
        "soft",
        "ly"
      ],
      [
        "wel",
        "coming"
      ],
      [
        "wel",
        "comed"
      ],
      [
        "smell",
        "ed"
      ],
      [
        "explain",
        "ed"
      ],
      [
        "close",
        "t"
      ],
      [
        "close",
        "ly"
      ],
      [
        "pretend",
        "ed"
      ],
      [
        "neighb",
        "ours"
      ],
      [
        "neighb",
        "ourhood"
      ],
      [
        "Be",
        "ing"
      ],
      [
        "Be",
        "cause"
      ],
      [
        "app",
        "ropri"
      ],
      [
        "gl",
        "ing"
      ],
      [
        "gl",
        "asses"
      ],
      [
        "mis",
        "s"
      ],
      [
        "mis",
        "sed"
      ],
      [
        "mis",
        "takes"
      ],
      [
        "mis",
        "behaving"
      ],
      [
        "pro",
        "spect"
      ],
      [
        "ru",
        "shed"
      ],
      [
        "ru",
        "les"
      ],
      [
        "ru",
        "ined"
      ],
      [
        "ru",
        "bbed"
      ],
      [
        "respect",
        "ful"
      ],
      [
        "llo",
        "â"
      ],
      [
        "bot",
        "tom"
      ],
      [
        "color",
        "s"
      ],
      [
        "polite",
        "ly"
      ],
      [
        "pict",
        "ure"
      ],
      [
        "balloon",
        "s"
      ],
      [
        "gather",
        "ing"
      ],
      [
        "clean",
        "ing"
      ],
      [
        "bright",
        "ly"
      ],
      [
        "craw",
        "led"
      ],
      [
        "del",
        "ay"
      ],
      [
        "duck",
        "s"
      ],
      [
        "gran",
        "t"
      ],
      [
        "hor",
        "n"
      ],
      [
        "hor",
        "rible"
      ],
      [
        "hor",
        "izon"
      ],
      [
        "hum",
        "an"
      ],
      [
        "kis",
        "s"
      ],
      [
        "lin",
        "e"
      ],
      [
        "lin",
        "ed"
      ],
      [
        "light",
        "est"
      ],
      [
        "mou",
        "th"
      ],
      [
        "mar",
        "ched"
      ],
      [
        "tre",
        "at"
      ],
      [
        "tre",
        "ated"
      ],
      [
        "tre",
        "mble"
      ],
      [
        "wi",
        "ch"
      ],
      [
        "zi",
        "pped"
      ],
      [
        "wag",
        "gy"
      ],
      [
        "relie",
        "f"
      ],
      [
        "stay",
        "ed"
      ],
      [
        "enjoy",
        "ed"
      ],
      [
        "celebr",
        "ated"
      ],
      [
        "shel",
        "f"
      ],
      [
        "adm",
        "ired"
      ],
      [
        "adm",
        "ire"
      ],
      [
        "adm",
        "iring"
      ],
      [
        "roll",
        "ing"
      ],
      [
        "ext",
        "ra"
      ],
      [
        "mess",
        "y"
      ],
      [
        "does",
        "n"
      ],
      [
        "quiet",
        "ly"
      ],
      [
        "pudd",
        "les"
      ],
      [
        "path",
        "way"
      ],
      [
        "trou",
        "ble"
      ],
      [
        "window",
        "s"
      ],
      [
        "advent",
        "ure"
      ],
      [
        "Quick",
        "ly"
      ],
      [
        "super",
        "market"
      ],
      [
        "super",
        "hero"
      ],
      [
        "recogniz",
        "e"
      ],
      [
        "bran",
        "ch"
      ],
      [
        "bran",
        "ches"
      ],
      [
        "crow",
        "ded"
      ],
      [
        "eas",
        "y"
      ],
      [
        "eas",
        "ier"
      ],
      [
        "fla",
        "pped"
      ],
      [
        "fla",
        "vours"
      ],
      [
        "gu",
        "ys"
      ],
      [
        "gu",
        "ilty"
      ],
      [
        "mo",
        "ved"
      ],
      [
        "mo",
        "ves"
      ],
      [
        "ped",
        "al"
      ],
      [
        "pat",
        "ient"
      ],
      [
        "pat",
        "ien"
      ],
      [
        "sand",
        "box"
      ],
      [
        "sand",
        "wich"
      ],
      [
        "scre",
        "en"
      ],
      [
        "scre",
        "amed"
      ],
      [
        "tick",
        "le"
      ],
      [
        "tick",
        "led"
      ],
      [
        "test",
        "ed"
      ],
      [
        "œhi",
        "â"
      ],
      [
        "inv",
        "iting"
      ],
      [
        "inv",
        "olved"
      ],
      [
        "imag",
        "ining"
      ],
      [
        "imag",
        "ined"
      ],
      [
        "leg",
        "s"
      ],
      [
        "cess",
        "ful"
      ],
      [
        "Help",
        "ing"
      ],
      [
        "separ",
        "ate"
      ],
      [
        "separ",
        "ated"
      ],
      [
        "shell",
        "s"
      ],
      [
        "fright",
        "ened"
      ],
      [
        "forgot",
        "ten"
      ],
      [
        "spot",
        "ted"
      ],
      [
        "agree",
        "ment"
      ],
      [
        "colour",
        "ful"
      ],
      [
        "pee",
        "k"
      ],
      [
        "pee",
        "ked"
      ],
      [
        "peace",
        "ful"
      ],
      [
        "foot",
        "ing"
      ],
      [
        "steal",
        "ing"
      ],
      [
        "perm",
        "it"
      ],
      [
        "perm",
        "itted"
      ],
      [
        "bott",
        "le"
      ],
      [
        "bott",
        "les"
      ],
      [
        "crawl",
        "ing"
      ],
      [
        "delight",
        "ful"
      ],
      [
        "market",
        "place"
      ],
      [
        "sleep",
        "y"
      ],
      [
        "video",
        "s"
      ],
      [
        "interrup",
        "t"
      ],
      [
        "interrup",
        "ting"
      ],
      [
        "secret",
        "ly"
      ],
      [
        "Bet",
        "ter"
      ],
      [
        "Cre",
        "am"
      ],
      [
        "Ea",
        "ch"
      ],
      [
        "Ev",
        "entually"
      ],
      [
        "Fo",
        "llow"
      ],
      [
        "List",
        "en"
      ],
      [
        "Po",
        "or"
      ],
      [
        "Re",
        "member"
      ],
      [
        "Wor",
        "king"
      ],
      [
        "Wat",
        "ch"
      ],
      [
        "bl",
        "ur"
      ],
      [
        "blo",
        "cked"
      ],
      [
        "bal",
        "anced"
      ],
      [
        "bree",
        "ze"
      ],
      [
        "bare",
        "ly"
      ],
      [
        "blin",
        "ked"
      ],
      [
        "baff",
        "led"
      ],
      [
        "cert",
        "ainly"
      ],
      [
        "dri",
        "ving"
      ],
      [
        "ele",
        "phan"
      ],
      [
        "especi",
        "ally"
      ],
      [
        "emer",
        "ged"
      ],
      [
        "fi",
        "replace"
      ],
      [
        "fre",
        "sh"
      ],
      [
        "fir",
        "mly"
      ],
      [
        "fig",
        "ure"
      ],
      [
        "fie",
        "ld"
      ],
      [
        "gor",
        "geous"
      ],
      [
        "gent",
        "le"
      ],
      [
        "gree",
        "ted"
      ],
      [
        "gif",
        "t"
      ],
      [
        "glist",
        "ening"
      ],
      [
        "hu",
        "ge"
      ],
      [
        "jour",
        "ney"
      ],
      [
        "jewel",
        "s"
      ],
      [
        "kn",
        "ife"
      ],
      [
        "kit",
        "chen"
      ],
      [
        "kid",
        "s"
      ],
      [
        "kno",
        "cked"
      ],
      [
        "min",
        "i"
      ],
      [
        "mir",
        "ror"
      ],
      [
        "nic",
        "er"
      ],
      [
        "obj",
        "ects"
      ],
      [
        "pin",
        "k"
      ],
      [
        "pec",
        "ted"
      ],
      [
        "spl",
        "ash"
      ],
      [
        "sum",
        "mer"
      ],
      [
        "squ",
        "irrel"
      ],
      [
        "suc",
        "cessful"
      ],
      [
        "siz",
        "e"
      ],
      [
        "scur",
        "ried"
      ],
      [
        "tw",
        "irled"
      ],
      [
        "tid",
        "y"
      ],
      [
        "tas",
        "ks"
      ],
      [
        "tight",
        "ly"
      ],
      [
        "tem",
        "pted"
      ],
      [
        "unex",
        "pected"
      ],
      [
        "val",
        "uable"
      ],
      [
        "vend",
        "or"
      ],
      [
        "vab",
        "ly"
      ],
      [
        "vie",
        "w"
      ],
      [
        "wra",
        "pped"
      ],
      [
        "wip",
        "ed"
      ],
      [
        "yell",
        "ow"
      ],
      [
        "œhe",
        "lloâ"
      ],
      [
        "œThat",
        "â"
      ],
      [
        "œBug",
        "s"
      ],
      [
        "tomor",
        "row"
      ],
      [
        "inst",
        "ant"
      ],
      [
        "insis",
        "ting"
      ],
      [
        "reli",
        "able"
      ],
      [
        "rewar",
        "ded"
      ],
      [
        "repa",
        "ir"
      ],
      [
        "retur",
        "ning"
      ],
      [
        "reward",
        "ing"
      ],
      [
        "step",
        "s"
      ],
      [
        "strug",
        "gling"
      ],
      [
        "answ",
        "ered"
      ],
      [
        "lollipo",
        "p"
      ],
      [
        "enga",
        "ge"
      ],
      [
        "beep",
        "ed"
      ],
      [
        "belong",
        "ed"
      ],
      [
        "bellow",
        "ed"
      ],
      [
        "attra",
        "cting"
      ],
      [
        "unbelie",
        "vably"
      ],
      [
        "unusu",
        "al"
      ],
      [
        "adjust",
        "ed"
      ],
      [
        "friendship",
        "s"
      ],
      [
        "chuck",
        "led"
      ],
      [
        "spark",
        "ly"
      ],
      [
        "spea",
        "k"
      ],
      [
        "themsel",
        "ves"
      ],
      [
        "caterpill",
        "ar"
      ],
      [
        "popu",
        "lar"
      ],
      [
        "prepar",
        "ing"
      ],
      [
        "busin",
        "ess"
      ],
      [
        "whiten",
        "ess"
      ],
      [
        "experienc",
        "ed"
      ],
      [
        "pajam",
        "as"
      ],
      [
        "prettie",
        "st"
      ],
      [
        "overjoy",
        "ed"
      ],
      [
        "yummie",
        "st"
      ],
      [
        "suspend",
        "ed"
      ],
      [
        "student",
        "s"
      ],
      [
        "convin",
        "cing"
      ],
      [
        "occas",
        "ion"
      ],
      [
        "sweethe",
        "art"
      ],
      [
        "visito",
        "r"
      ],
      [
        "appropri",
        "ate"
      ],
      [
        "patien",
        "ce"
      ],
      [
        "elephan",
        "t"
      ]
    ]
  }
}